; Layer 5: dense biases (Q1.6 format)
; Shape: (64,)
; Total elements: 64
; Quantization: 6 fractional bits
; Range: [-2.0, 1.984375]
;
memory_initialization_radix=16; Hexadecimal format
memory_initialization_vector=FE,FF,FF,FF,FF,00,FF,FE,00,FF,FE,FF,FF,00,FF,FF
,FF,FF,FF,00,FF,FF,FF,00,FF,FF,FF,00,00,FF,01,FF
,00,FF,FE,FF,02,FF,FE,00,00,00,FF,FF,FF,FF,00,FF
,FF,FF,FF,FF,FF,FF,FF,00,FE,FF,FE,FF,01,FF,FE,FF;