; Layer 6: dense_1 weights (Q1.6 format)
; Original shape: (64, 10)
; Total elements: 640
; Quantization: 6 fractional bits
; Range: [-2.0, 1.984375]
; Memory organization: 64 addresses × 80 bits (packed)
; Each address contains all 10 node weights for one input
;
memory_initialization_radix=16; Hexadecimal format
<<<<<<< HEAD
memory_initialization_vector=F1,EF,ED,F3,12,FB,04,F7,0A,FA,0F,03,09,F8,FF,08
,FD,FC,04,0C,07,0E,F4,F1,F2,EF,07,FB,F5,00,04,0E
,FF,F4,12,FF,0B,F3,0A,04,06,F4,0E,06,F0,EF,00,03
,F1,06,08,F5,F4,02,09,F7,0E,FD,0F,FA,F6,0E,F8,0D
,F5,EF,05,11,08,0D,0C,04,ED,F1,FA,0D,FC,00,F8,00
,F3,F2,06,F6,FB,13,F7,0B,09,FF,F1,FB,02,FC,11,FE
,FA,F2,F3,04,EE,EE,FA,04,03,0A,10,0A,0E,09,FD,04
,F8,02,04,01,05,13,F5,F7,F1,0B,F3,04,F9,EF,F6,0B
,F2,0A,08,04,01,0F,0F,09,F4,0E,01,08,FA,02,F2,0E
,FD,0F,FE,F4,02,F3,0B,FD,F0,06,EF,06,FE,F5,0E,FE
,F4,0E,0A,FC,00,F9,F6,04,F0,F8,F8,0A,FF,FD,02,FB
,F8,F0,FB,02,F6,FA,0F,02,01,0E,FC,04,F8,0D,FC,04
,F4,05,0C,F6,06,15,04,03,FF,FB,02,04,03,10,0C,FD
,04,05,FA,0E,07,0B,F3,FD,02,07,03,05,03,FF,0A,0B
,FE,03,0A,FB,00,0F,0D,0E,F3,0D,06,F1,F1,F4,F8,F8
,02,09,05,FE,01,07,FB,F2,0C,00,05,00,FB,01,F1,03
,F6,0C,01,03,03,09,03,0F,F9,05,0F,F1,F2,10,FB,08
,07,01,11,04,F3,03,07,11,09,06,10,07,F2,F2,FC,08
,F3,F5,FB,FB,F7,0C,FB,EE,02,F0,0A,03,F0,F7,09,01
,0A,FD,11,F4,F4,09,0D,FD,02,F9,02,FF,F4,12,F1,00
,0D,03,EF,09,05,06,03,FF,02,00,FA,F6,F3,F9,09,0A
,0B,FA,02,0C,06,FD,F6,F5,07,10,0D,0C,F4,F4,06,06
,FC,FA,11,02,0F,10,FD,FA,0A,0B,10,11,0A,09,FD,07
,06,F0,0D,F9,05,08,EF,0D,F4,F9,0E,11,F0,0B,F9,0A
,FC,F7,FE,11,F5,FE,F0,F4,EE,F2,0D,04,F4,F3,F7,EE
,04,F8,F6,06,04,FE,F7,00,FC,F8,01,F7,0C,0E,FE,11
,0B,F4,00,F5,F8,F4,08,F6,F0,0F,FD,F7,0B,04,0B,0C
,0A,0C,0C,0C,0B,07,08,EF,10,EF,EE,08,F9,F6,0E,02
,FD,07,F8,00,F6,FE,11,0E,10,FE,09,FA,FE,0D,00,0D
,F5,FE,06,01,0B,F0,09,F4,0F,03,04,05,10,FE,F6,0D
,0C,F5,10,F4,00,00,F2,06,0F,03,04,F2,F8,02,F2,F8
,FB,F1,FA,F1,03,08,F3,03,07,0E,01,F6,FB,F6,FF,F0
,0B,00,05,07,FC,F6,0A,01,06,F4,0B,F6,F5,F9,02,F8
,F6,00,06,FC,F1,0D,00,07,02,F7,FF,FC,05,04,EF,0D
,F9,03,0C,06,F0,00,EF,0B,09,0E,0E,FF,0E,F4,F6,F5
,06,08,10,03,0F,F1,00,0D,07,11,00,FA,01,F9,FE,FB
,0B,01,F8,FD,F3,10,F7,F2,F5,0F,F5,02,09,F3,FE,0A
,F1,0C,F2,FD,F5,0E,F5,00,F2,F6,02,F4,07,F7,07,0C
,F6,06,04,F0,07,FB,03,FC,02,FD,F1,FC,0E,FA,F2,F5
,EF,05,01,F3,04,F2,04,FE,02,04,0D,04,05,F4,F3,FD;
=======
memory_initialization_vector=0A010604F0F7F9F20EF1,10F7F7F711FAFDEFF7F4,F107000902F6FE0BF301,F3F3F905F701FEF3F80C
,0603F90007021108F010,F20EF105FA010505F200,FEFF0CF8F3F1EDF808F1,F310F0FF05F4F503F209
,FBF5FD10F9F107F50510,03110201F7F0FB05F7FC,000308F3F0050809F7FD,12F2F70F030EF0EF1105
,07F308F4FCF4FAF2050D,05F8F4F60700FCFEFAFF,F210FB07F5F7EEEF04F1,0D01F3F2030C00F9FBFE
,0EF10005F5F9FA0F0A0E,FF040C0011F8FE11F9F3,FB070A03FEFDFCF8FFFB,04000A0DF40B02F302F2
,F80C0E06F60AEF0107EF,040BF5FB100A09F20809,081208F705FD00F70CFE,0AF3F90B09020504F905
,FAFA02FFFC09F4F30F0A,FD040CF408FF070E0F02,0005FB12F7050900F2F9,F20EFDF3FD1008F808F0
,0EF605F9F2F9FD1010F8,050F11FE11F80C0B0CF7,00FCF2F60909FCFB0C0A,FCFF0707F70F0602F6FB
,F80D00F20B03FE0D00F7,0CFFF0FE0EF4F8040BF0,F912FD07FC0FF50E0C07,F5F506FB04F7F30609EE
,03F303F90F0BFDF1FD09,F703F904FFF2FD05F906,06000304F00CFDF2FE01,FA0CFE080D0F0FFF0402
,FEF902080BF808FD0A0D,04F4EEFF07F30F040001,0DF90D0AFEEFF7F20F06,0BF805FCF1F0090705FA
,06FC0EF4FE02F609FF0B,0AF004FD0EF310FC06F8,F0F2EDF0FD09F60AFCFD,F109070B04F60AFFFC10
,07F2FB03F5F6040D0DF5,F0F90E01FEFBF20BF407,FE05F6F2FA08F8EE0A0A,0B040EFFFAFF07F00003
,F0F9FB0508F800F2FAF0,040FFBF5F104F8F6F903,03F4F705F0F8F8F50C02,F410F40E0711EF11F303
,F302F805EE01F5F20C00,0F02EF01FC01020B0C0B,0004FD0A0307080D0709,03F3FC0BF00FFA0DF50F
,0DFFF7FD0D0B10090008,F80D02FFF7F00BF60308,05090A08FCFAF60EFDEF,F50DF1080B07FCFF0404;
>>>>>>> origin/fullyconnected
