; Layer 2: conv2d_1 weights (Q1.6 format)
; Original shape: (3, 3, 8, 16)
; Total elements: 1152
; Quantization: 6 fractional bits
; Range: [-2.0, 1.984375]
; Memory organization: 3x3x8 addresses × 128 bits (packed)
; Each address contains all 16 filter weights for one (kernel_pos, channel) combination
;
memory_initialization_radix=16; Hexadecimal format
memory_initialization_vector=040100F5FE00010607F80A02F9060107,FF0807FAFCFD09F601FDF7F7F804F5FA,FF03FA050404010103070609FE030703,06F907FEF6040002FBF80704F7FF01F6
,FB09FC0507F9FA06FA03F7F306F8F8FB,FBFB03FBF5FD03F9FFFB00FB04FA05FB,FE030808F908F5F7F5FCF9F9F4050306,00FB0500010104F9FE0706F70609FD00
,F9FD090A02FE0301FD0502FB02FFFEF9,020307F8FC03FAF6F5FE01FA00FEF606,01F50701F502FB04020204FAFA09FD05,06FF06F80702020205F7FCFEF9F80505
,F9070202FB08FC04070104F607F601F6,080802FC07F6F8FDFDFCF809F8F80701,FAF6FFF707F705020702FF0006F70207,00FB03F504FAFAF8F7F703070202F807
,FD04FF0100F903FBF50700FF020001FE,04FAFAFD05F9FD00000A0203F7FFF700,FDFB0703FD00F507FDF808F5080702F6,010308F70006FE07000408F800F8FA07
,07FE01FCF804050BF806F701F80806FA,09020706F8FEF7F60504F8FDFF00FA06,09F709FCFC00F8F905F705FDFFFE0402,FDF7F9F5F705F9F700FA01FF0301FDF9
,02FA03FA0408FFF601FC02F8FC01FBFE,040906F7FAFA0200FFFC0606F506FA00,0007F901F6F5060AFE07FFFEFE0208FC,F6FC0504FFFC06FCFF03040600F9FFF5
,FD03F9F601F808000005FBFD07FDFF01,FB04000908030506FEFFF8F708FBFEF4,04FD0700FBFF0606F4FB0706FBFD0904,0806FDF902FAF60305FCFDF7FF0903F8
,0004FCFDFF04F8FE0303F3FA010A06FF,05FAFF020A0006FCF80508010300FFFF,FEFCF7FE0205F90701000505FF000602,F5FE0409FCF6F7FCFFFFFDF9FC02F6FA
,0103FDFEFBF6070505F7FC00F501FE01,F800030209F5FAF7050606FB00F70602,08FC07FE00FAFEFE02FC06FBFD00FE07,08F503F601FEFBFC07FA070904090001
,F90003F90208FC010000FFFCFA0206FD,F9030405060705F9FD0008F603F8F407,07FBF8F7F6050907FA09FDFA05FDFFF9,F8FD040609FEFBFF02F5F6F8FE02FEF9
,FEFE04F7FCFE0804FC0705FAF9080307,FA00030608080800030902FCF4F80606,FE0103FF05F8F6F70303FB04FC03FD03,05FAF7FC0606FCFD0104FE0601010703
,FC0A00050200FC04FE01FC03FF06F9FE,FC0B0207F60104FB01FFF609FCFB05F4,02F9FCFAFD060100FBFD04F9FDF8F907,FBF601F90000F5FF050405F9FEF7FC06
,060A05FEF801FF0503F9F9F50800FD00,01050105FDFC05FA0406020800FE0103,01FD08FEFAFC05FEF6FC03F80AFDFBF7,060A00000405FAF90400FCF7FC04F807
,03F504FDFC000007F8FDF8FF040504FC,0503FBFA04F508F60AFF0203FE02FBF2,03FD0203F500F4FE00FFFE00030803F9,07F9FFF809F90506FFFDFF0801FDFCF7
,FD07FBFDF9F600070201FFFBF706FEFE,FE0101F8F8FEFCFFF8050507F8FFFCF8,FBF4FCFCFDF5F9F804F8FB02F6F7FF00,07F807F804FAFCF8FDF8060602FD05FC
,F808FA0702000202FD0EF803F8F5F9FB,0406F8F907FEFC00F5F8F6020A000909,FF02FCFE00FAFAFC08FF0407FE040103,04F7040001F6FF07FAFB0505FA04F605
,0604FA0701F90302FFFDFD090000FDFD,06FDFCF5FD080301FDFBF9F7030202F8,FDFF06FC0001FBFE00FB0605FE080408,FC01FC080205070608FA02FEF405FCF7;