; Layer 2: conv2d_1 weights (Q1.6 format)
; Original shape: (3, 3, 32, 64)
; Total elements: 18432
; Quantization: 6 fractional bits
; Range: [-2.0, 1.984375]
; Memory organization: 3x3x32 addresses × 512 bits (packed)
; Each address contains all 64 filter weights for one (kernel_pos, channel) combination
;
memory_initialization_radix=16; Hexadecimal format
memory_initialization_vector=FF0304FDFB0002000204000202FAFBFFFAFE01FE0204FEFFFD030004FD02000202020405000200FCFE03FEFDFFFF010402FF00FFFFFCFB040106F904FF01FB00,030003FE0300FC0204FC02FB01030402FDFF040306FEFC0305FDFCFCFB0205FBFD0003FCFCFB04020002FE03FC00FD00050101FDFEFF010202FB08FF02FD0204,050303FD00FF04FAFF050104FAFD0101FD000302FCFAFFFFFD0305FD030200FBFEFB01000002FCFE00FEFEFEFFFF01020304FC01FCFC01FBFFFD010303FC04FD,000204FF02FFFB01FBFE0504FF02FE01FAFC00FD05FB0401FB030400FF00FC03FFFC0200FBFF00000305FDFD00010303FA0302FC03040100FB04FFFC03FCFE04
,0501FF010303FBFEFA0205FC0002060401030201FC0102FDFCFF020104FE0001FFFD03FBFF0103FE03FE00FDFDFC04FEFCFEFAFC020000FE0301FE04FFFDFBFB,00FEFDFBFE0104FD03FD02FBFEFC0002040103FD02FB03FFFA0400FCFF0405FBFFFC04FF040503FD06FE0401FD0300FFFDFB0302FF0305FCFE03FEFEFB04FAFF,04FD01FF000201FB00FDFEFDFFFBFFFCFA03FC0004010104FFFC01FB0403030004FB0401FCFDFEFE0301FEFEFEFDFDFDFC04FD02020201FD0100FCFE03040204,03FF0003FDFEFB03FCFF0200FF030000FA01FFFCFEFDFE04030301FB050002FE02FCFDFEFE07020201FD0301FE04FB04FC03FB0002FE0405FC00FC01FD03FE05
,FCFCFBFBFF01040403FFFD03FD0303FE0003FEFBFC05FEFB0000FBFE0203FE000401FC0401FCFEFB02010103FFFEFEFB01FF01FD0103FC03FF04050000FBFB00,010402FFFD030102FDFBFCFBFC050100FE0103FD0100FDFE01010001FF04FF0302FEFF0100FF0401FD00FB0204FCFB01FD02FFFE05FE0104FD05FE0003FD0102,05FF0402FDFDFD020100F9FBFE04FEF9FE05FEFF06FC0005070203FEFC020002030404FC01FFFCFE0205FCFB05FE010201FDFEFB0100F90102FC07FC03FC0506,0000FF01FB02010004040201FA02FC030000FFFBFBFB03FE000504FEFF03FFFD00FE040205FE03FFFC02FB04FBFBFD04FB000201020004FFFE01010300FC02FC
,FDFEFCFDFF0204FB0200FE040004FCFF01FCFB0102FCFEFF01FFFF04FFFE0401FBFB02FE00FDFE02FD06FEFEFA02FE03FBFFFDFD04FF00FEFEFD01FD01030305,04020302000200FFFDFD03000303FD00050104FEFE010203FBFFFB020400FBFCFD04020400FBFB0500FBFE010302FBFC03FE000503FAFEFC03FE010000020204,04FD04FC01FCFF02010003010004FC02FB03FCFC02FDFB0400FCFCFAFE02FB04FE020302030302FEFE040300FCFFFFFF04FE0403050204010205FFFAFE01FA04,FCFFFCFDFDFD05FDFCFF00FCFFFDFCFBFC04FFFF0300FEFEFC0400FD020001FB0203FE01FEFBFB020201FB01FEFF02FA030004FA04FEFCFBFBFFFD03FC0203FE
,010101FF0100FDFCFDFE000104040501FA05FCFCFCFFFBFF0302FBFBFAFE030301FD04FB000002FFFBFE0400FCFFFA00FD0402FB03FB040002FA06FE0104FFFB,FD03020402FF00FCFFFF06FDFFFC0202FE03FCFD03020300FB06FD0300FBFDFDFFFFFE04FFFBFE04FEFD03FDFBFF020300FD02FA0603010201020300FCFDFD01,FEFAFB05FCFE00040200030400050AF9FC0405FF06FA03030203FE000600FE030001030403FF03F90207FF01FF00FCFFFF01F8FC03FE06FFFD010204020301FF,05FAFC0102000300FD02FE00FCFF05FBFE02FB04FF0102000402FC01FEFAFE0102FBFD0505FF0001FEFEFE03FC03040402030004FEFCFCFDFDFCFF0100FF0104
,FCFEFEFA04FD01FBFFFEFFFFFC00010203FAFD0405FE0201FBFE030203FAFB020302FBFE0504FF03FE00FEFFFBFE02FA02FF02FB05FC00FAFC010404050303FF,0302FE0204FFFC01010301FCFDFB040403FBFCFEFB01FFFDFF0402FD0001FCFFFDFE0000FEFD0102FB03FD0001FEFE04FBFF000300FD05FAFD0001FF03FEFFFD,FFFEFFFCFB0301FDFFFFFCFDFF0005FC00FC00FEFC0500FD0105FF0302FFFEFBFF00FFFEFDFF0201FA01FFFFFE040105FD04FC01000302030402FC04FDFE0004,01FFFFFE00FF000100FEFD030302FFFBFDFC02FB00FCFBFFFDFF01FE05FEFEFD0301010100FFFFFEFFFCFB02FCFBFCFF05020401FC02FCFF00FDFDFD04030200
,0300FCFCFAFAFBFAFC0105FFFBFF04FFFFFF03FDFE04FE0301040104FEFBFC03FEFAFEFD050302FDFA03040004FC01FEFB02FDFC00FD000101FB0101FB05FFFB,FDFA05FC01FDFBFDFFFF010303000103030404FFFF0305040103FFFD020402FD0100FA04FCFBFD0104FDFCFFFBFF01FFFCFCFD02010403FCFB0306FDFC01FB01,04FDFFFFFCFEFFFF0302FDFBFFFC05FDFFFC000303000001FE04FE03040004FEFAFE0101FCFBFBFFFAFE030101FDFCFF000201050303FDFDFC050602FDFBFFFC,05FC040504FCFE00FD050300FBFB04FF02FDFB0000FCFFFE00FDFD0503FEFB02FDFEFDFD0401FBFE00FF0502FE02020101FC03FEFD02FE0300FCFDFA05FAFFFF
,FC01FD0400FE01FB04000404FB0006FFFAFDFCFC00FAFC01FEFD00FFFEFFFD04FD03020004020101010102FDFC04FFFEFD0100FE000301FF02FFFAFFFEFC0400,0703FFFF02FC01FDFDFFFEFEFE0404FE04FE040101040200FBFE03FFFEFBFAFDFAFBFE0005FEFBFCFE0103FE02FD01000302FF00FEFD0504FFFD0501FDFB03FE,05FFFBFDFCFCFB04FDFB01FDFBFCFDFC0001FFFDFB040203FFFC0303FFFE00FFFD05FB04FCFD0403FDFC0303000004FC00000403FCFF02020001FC02000102FD,04FAFBFE02FD0104FC000303FF01FB0302FB01FEFB0304FE03FF02FCFDFF020100FDFE03FCFFFFFCFB01FD02FF0001FFFCFC03030004FFFD0002FDFC000300FF
,01FB0201FFFFFB05FFFCFDFF03FDFBFA030104FBFF0003FB0304FBFEFEFD0301FD02FEFDFB04FD05FE03FF04FDFDFB0101FDFEFB050104FEFE02F903FD03FFFE,020403FC0304FC01FBFCFB00FBFBFCFD04FD02FFFC02FC01FDFF05FF0403FC01FFFD0501FFFE00FEFBFDFE00FE04020404040203FEFD02FE05FAFFFA000200FD,010203FCFC04FEFE00FF02FC0300FAFEFA04FB02FE00FBFF04FEFB020504FC0103FD0102FBFE03010004FD00FC0302FF00FEFC04FE0002FC03FF0500040500FD,0203FBFB00FF01FCFEFF04030101000400FDFF0201FF020001FEFF03FF03FFFDFB02040305FBFE04FFFB03FF03FEFF01FCFEFCFC000003FE00FB030202FE04FE
,FBFE0102FAFBFD050301FB02FC0402030304FE04FFFEFFFEFD030405FD0000FB03FBFF01FC05FBFEFDFF02FE0201FB0001FFFCFCFC03FEFFFDFCFBFC01040402,0002FC0501FC0000010502FCFFFF0202FA040104FCFDFC03FEFD0003FCFF04040405FC01FCFD01FDFDFCFDFE03FF03FA0304FF010002FD03FC030100FDFD03FD,FBFF0003FAFDFE0400FE040402FD040402FBFF04FBFBFFFD00FFFE01FFFEFC00FEFE040103FCFBFF00FE0002FD06FBFCFBFF04FFFDFCFFFA0401FF02FB0304FF,0602FC0503FFFBFDFD0404FF02FDFC03FDFBFB0205FC04FD02FC0103FC04FCFE02FFFF02FA00FC040005FF04FC0103040004FFFBFFFE01000303FDFBFDFFFE05
,010400FBFD01FEFF040504FFFD01FCFCFBFD010500FDFEFD04FD00FCFD00FF01FE0202FD0003FF02FDFB000204FE030500FDFE0005FEFE030200FF02FDFBFE04,FEFB00030402FB03FDFDFB02FDFC02010501FCFDFEFDFEFAFF010402FCFF00FEFDFF0202FD02FD01FAFE04FB0105FEFEFEFCFA0304FF05FFFB02FD0000FE01FB,07FDFDFE0203FCFB0202FCFF0003FA01F9FEFCFBFFFC02FF0104F9000302FE0101FAFDFD0002FEFC090001FE03FEFF040303FB01FDFDFE04FDFF00FB00FE04FF,FBFCFD04FE01FC03FAFCFCFC02FE020003FCFBFD0203FBFEFDFDFB00050103050003FCFEFCFC02FF00050205030304010201FF04FDFBFC02FF04FE0005FEFC02
,0702FFFB01FDFE02FE05FEFDFF0103FDFEFBFBFB03FC02FBFB05FCFC02FE0404FC020202FFFB000304010401FE01FC04FDFCFEFFFAFD05040500FC00FFFBFB02,FBFBFFFF0305FEFF00FEFCFFFDFB0300FBFCFC040001FF0005030101FCFEFDFEFAFC0003FEFD03FFFE03FE030105040201FEFC0502030004FF020300FDFCFB00,000401FCFFFE000400FEFEFD04FF01FBFFFDFB0104FD0301050003FCFBFFFC03FF03FFFEFC020103FDFEFFFFFFFCFDFE0003FC01FCFD010403FC000205000403,FF04FD050304FEFE0003FE00FB04FC0104FC010204FE030001FDFC0105FD03000404FE01010403FD0200040002FF03FFFFFDFBFB0403FE030200F8FB03FBFE00
,020000FEFCFF00FE04FCFAFE040006FDFC03FCFB050001FBFCFE03FA020404FDFCFFFCFF0303FAFF05020402FF0303FB03FF00FCFD0000FF00FEFEFC03FE0105,00FD00FA0203020304FB05030106FFFC02FC01FB06FEFBFDFF00FC01FB04FC0401FCFB060404FD0301030201FEFF0401FDFC030201FEFF01FC0405FC04FBFF04,FDFEFFFD05050200FE00FE01FCF90600FFFFFF0406FD02FC0003FBFFFA010103FBFF02FE00FCFEFEFE050001FC07F7000405020203FF07FB0505FA0401FEFC00,03030304FD0400FCFFFBFC030005FEFDFB02FD00FBFC01000001FE03FBFCFDFBFA01FA0301FCFD03FA00FBFF0304FF03FB0200FF05030501FEFBFAFB00FBFBFE
,FBFF040104FF020101FB05FC03FDFDFC020202FD0502FC01FF0001FEFC04FFFBFFFDFCFBFB03FAFD05FFFC0400FAFAFBFFFF0304FE030303FEFEFF04FBFE0103,030304FBFCFEFD020401FDFCFB00FC02FDFE03FCFE0200FDFBFF0500FE0000FCFC02FFFE0302FA03FD02FB03FD00FAFF02FE03FC0103FC000503FAFEFC0403FE,FAFE0100FCFB0200000302FB00FB01FC04FF0001040501FD04FFFB03FEFE04030301FC02FDFEFE03FB0304FB03FDFE01FBFEFA02FC04FCFE01FCFB0202FB0101,0401FE0303FFFF00FA0402FD01FB03FEFF0102FFFDFE03FA000505FD02FCFAFC050303FBFC02FCFF03FBFE02FEFEFFFCFFFB0200FE04FB02FC0005FEFFFBFB04
,04020300FB0400000404FDFBFD04FFFA00FBFBFE020002FC04FB0302FB0402FFFE040004FB0301FFFEFCFD04FC01FC040003FDFDFD030402FA02040301FD0201,FFFD00040101FFFD03FC020301050002FFFBFF01FF040202FE01030303FF0200FEFD020304FBFCFEFF02FCFFFCFE01FA00FB0401FB03FFFD0103FDFFFFFB02FC,01FB0001FEFC020100FF0501FAFE0005040202030102FF02FEFD03FEFB0002FB03FDFEFC0100030300FFFEFDFCFBFEFA0400FD0200FFFBFE0005FD0100FF01FD,0205FFFF0201FD030000FCFFFC03FDFEFE0405FCFF02FB02FB01FFFDFF0304020200FE040101040304060503FDFFFEFC02FEFDFC030001FFFB0301FA0200FE02
,0501020202FEFDFB0401FE040001030403FF0200FCFFFA040000FF00050301FCFDFF0204FE00000206FD00FBFB05FFFFFE03FF02FB00FDFB01030002FEFA0403,03FA0002FBFD03FB0001FE0004FFFEFD04FE01FE010603FCFF0300FF03FD0000FB05FB05FEFFFCFCFCFD04FFFA0403FD04FD02FEFDFEFF0004FB05010202FFFD,FE02FD05FC0400FDFEFFFFFCFEFB04FBFF010103040201FE03FBFBFD04000503FE04FCFBFF0202040200FFFA00FB00FE02FDFA01FDFFFD03040102FCFC0200FC,03040002020401FF02FEFC05FEFA05FC0301FCFD05FCFE0000FB01FF050400FBFAFB03FF03FDFDFBFE0400FBFE0201FB030304FB00FC030004FCFEFF020400FD
,FB0103FD0100FBFFFF030203FDFCFC01020004FF01FE04FDFE040502FBFEFDFA04FB0303FC0000FD03010000FAFCFD03FB04FF0503FD05FB0105FF0301FBFDFF,02FD000104FA0401FFFEFBFD01FC02FFFC0201FCFF01FDFEFBFC0505FEFFFD000200FC02000004FEFE03FC010003FF010004030202FC030403FAFDFC04FA04FD,FE02FB02FCFEFBFCFFFD01FC04030200FEFF00030404FC0103FC0300FDFA04FEFD05FC020303FFFB01010504050200FC0304FAFC04FDFC03FFFDFF03FC02FE04,04FE0300FE04FBFD0200FDFE03030001FA00FBFD0101040401FAFF010101FC0200FEFFFE01020000FD03FE030203FB02040504FCF905FCFB0400FDFD05FDFE05
,00FBFD03FCFDFF0204FFFBFFFBFC03020202FFFE02FEFCFF0402FD0404FDFEFA0403FCFAFBFDFAFBFEFC0100FE0003FE04FB0000FE0205FF01000402FCFBFA02,FBFB0502FC020404FFFF0102020205FB030401FAFFFE04FCFCFC00FDFCFDFF05FE02FD00FF05FE0400FFFEFAFB0500010504FFFD0304FA010204FA00FA00FCFF,00FDFE010403FDFC020003FB02FFFFFAFE01FBFB0001FF0001FBFF02FF0402FC01040401FBFFFA0303FFFB03030104FFFBFBFC0404FF01FCFCFBFDFFFC0204FE,00FEFC04FE0302FEFF0001FCFCFE03FB04FF03FFFE03FB04FDFFFEFBFC03FCFD0502FDFBFAFCFAFB0000FD03FEFEFBFF000103FFFEFB01FE00FE0402FFFEFFFF
,FA02FC03FF0300FDFE01FEFBFFFD00FFFBFFFE030100FBFC02020003FE02FB04FCFD02030001FFFDFEFCFDFDFCFFFE0004FAFE0105FFFFFF03FF0103FBFE03FB,04040304FDFEFC050100FBFFFC01FBFFFE0402040303030404FB00FE01FF0000FD0201FD04FF03FFFEFCFA02FD05FFFBFDFDFEFE0102FCFB05FF00FB000303FF,FC0401FFFFFC020104FF0403FCFD00FBFC02FB0302FCFF03050102FAFD0102FE01F9FF05FD04030503FD02FC0103FBFB01000002FEFBFCFF05F80601FCFB00FF,FFFBFF04FF000102FF0002FD03050404030103FBFCFCFCFFFBFDFB0003FBFC01FBFF01FC00FF0100FC020202FFFB00FFFFFEFF00FEFC04040201FDFFFD020101
,04FFFCFFFC0300020402FF01000504FC030103FB03010103FD06FBFCFDFBFD01FDFD03FCFB04FE000002FFFBFB0101FEFDFE04FEFDFBFD0003FC00010403FCFA,01FCFBFDFF0103FDFD0201FD0004FBFA0503FE040001FBFCFB01FCFB0504FBFDFBFEFEFC02FDFF02FCFC00FE0100FF03FCFC03FBFF020203030400FA02FCFE04,00FC03FB0205FDFFFBFBFB00FE010104FBFFFE02FE030005FDFE0203FD00FF03010404FFFB0004FE0200FF00FBFEFBFFFDFDFCFA0004030302FC05FEFC0400FE,030401FFFEFBFFFA02FE04FD0202FE010202FF020302FBFD02010004020104050100FBFFFB01FF05FE02FB020203010201000002FDFDFF0100FD0500FEFDFDFD
,FD00FB03000101FE02FFFFFFFEFD0004FBFCFBFC03FD0001FD0101FDFC01FFFE01FF03FFFE04FE02FFFB01FDFF03FC01FE04FEFCFBFB03010103030201FE0402,FAFB01FE0303FCFCFEFBFBFF05030204FC00FC04FEFB03FC04FCFDFDFD0200040104050603FE040100FFFD02FBF9010102FE01FB0001FBFF0504FEFC04040104,040504FD01FF0000FC06FCFB020204F9FB04FBFE0600FD03FFFD060002FB03FCFA00FC06F8FD01F7FCFCFD010402FF0000FC0105FB0404FBFA04FC0104FC03FF,05FAFEFB00FF00FD05FFFC03FDFE02FDFBFC04040504FF02FF02FBFB05FF0501FBFFFDFFFA020204FB00FDFFFE0202FFFCFBFD0401FB05FD00FBFBFCFEFC0300
,FBFFFFFBFA0101FDFE04FCFEFEFFFEFDFF0000010102FF0101FE0401FCFCFBFA03FC00FF0101040404FF0100FB03FC02FFFFFB04FF05FC000405FF0402FE02FC,06FFFFFCFFFE03FC01FD00FEFA0306FEFDFE01FD02FD00FEFE05FB0400FC0404FD060302FC0104FE01FDFE03FB03FA00FEFD03050002FF0000FDFDFBFB020100,FEFC04FF03FDFF020003FEFBFB0200FCFF02FCFBFE010505FF03FBFDFF03FFFE000301FBFCFE03FEFC03FEFE020602FFFD04FF02FE0404FEFD01FBFCFA03FBFF,02FEFC0001FE040304FBFC040000FCFE0400040402FE0301FCFDFDFDFCFE01FB0104FBFAFE040300FEFD040003FCFF04FFFE01FBFEFE0504FFFF000303FFFEFB
,FB0403FD04FE01FFFDFC00FE01010302010301050001FD0202FE05FE05FAFE0303FC0201FD0201FEFE0104FF01FE03020203FC0100FDFFFEFBFFF901FBFC03FE,05FD04040204FC03FEFE020301010102FE02FB0003FD0201FB05FCFCFF01FB04FA0402FB02FE03FD040204FB01FC010402FCFD01010302FC0100FEFC0001FDFC,04020503FC0100FC0203FFFC00030500FD0100FB0104FCFBFF0202FD02FEFE02FEFC04FFFDFC00FDFCFE00FC04FD01FC01FEFB03000201020402FC0104FC01FD,010101FC00FD04010302FE03FB01FDFAFE01FE0204FAFCFEFD01FD02FCFC03FCFFFB0001010105FEFD0304FFFF03FDFA02FCFCFEFCFC02FE000106FC02FEFBFD
,0203FE0004FDFE04FBFE0300FB0305FFFBFD000302FFFC04FCFB04FE02FF02FC00FFFB05FF01FD05FF03FD020001FBFBFF0401FD02FDFC04FD01000100FF0405,04FDFF02FF030403FFFE000102030301FD01FAFDFE0202FF05FCFBFFFCFAFAFDFC01FF03FA01FAFD04FBFEFE04FA03FE010400FBFFFD01FA010100FCFDFF0404,FD0002FD03FB0301FF01FFFEFAFC0404020005FCFF000404FEFFFDFE01FC04FFFCFB00FE04000100FDFFFC03FD0503FFFF02FE0102030303FA04FFFE0001FBFB,0502FF02FB02FE02FCFBFC0402FCFF030003FCFD0000020002FB050300FB02FBFBFCFD00FAFC0000FA0203FBFF0301FFFC00FAFC0500FCFAFAFD020102040206
,06FE0505FB0404FFFAFBFDFEFF03FDFB03FA02FBFD02030501FD00FFFBFE03FFFFFB0401FB05FDFD0602FB00030302FAFB0202FF0004FFFEFFFB03FBFBFBFDFD,FE03FD0500FE0104010205FD02FF03FF04000105FDFBFBFCFE02FF010002FE040001FBFF0200FD00FEFDFF00FD000004FEFFFD02FD0504FAFE0500FCFB0005FE,FEFEFDFE000404FFFCFC01FFFC050004FC0201020400FB0002040300FC02FBFAFE0300FC04FC0404FCFA01FCFAFBFD0401FAFF0102FDFEFB02FF01FC01FC03FA,FDFF02FCFB01FCFD02FD00FDFDFE04FCFEFFFD00FAFBFC0101FEFFFFFF03FDFF00FEFFFE010304030006030200030002FC0402FFFD010200FE04F9FF0102FA03
,01FDFFFB00FB0100FCFE010402FC02FE0001FA03FFFF03FCFD0304FF00FF04FCFCFB0405FCFDFA0205FBFBFC04FEFDFFFD0001FDFDFE01FBFEFBFFFA03FDFFFC,00FF01FC03FF030201FFFB0003FCFE04FBFC03FBFC020100FEFBFCFA0302FDFDFDFEFE03FD080201000403FB05FDFFFC030300FF01FD04FCFE01FBFFFDFFFF00,01FE02FEFCFBFF02FDFFFF020002FF02000504FE0201FBFCFBFC04030500040300FFFE01FFFD01000100FC0403FFFCFB0304FEFFFE00FEFAFEFF03FC0201FFFD,0603FF0402FB01FE03FFFBFF02FE0201FE04FDFB03FEFE01FF01FCFCFAFD04FCFDFBFC040202FFFCFF0604FDFEFD0103FD0001FC00FCFE0405FF0402030002FF
,000204FDFD03FAFB030103010203FE02FAFDFCFF05FF020102FE0103FBFF00FDFFFF01040005FF0506FE04FE0303FEFF01FD020104FCFDFE040102FDFBFCFB01,00FC03FC03FB01FB02FCFD03FF0102FC04FD02FC0005FD04FDFCFC0403FC02FEFF03FC0100FEFA03FD03FE03FB0403FC040003FC020001FE010100FCFDFA0005,02020005FFFCFDFF02F80004FD00FB01FFFDFFFDFF0004FFFE01FDFFFE05FD04020002FCFC02FF0001FCFF04FF0103FEFD02FDFE01030302030304020100FBFF,0104FEFEFD000204FE03FDFDFF0305FF02FCFC00FE03FBFB01FEFD0101FE01FF02FFFEFF03FA040201FE0100FCFD0203FCFFFC010104FC01FFFF01FFFC020101
,05FE04FDFC0004FB02030504FF04FEFF03FDFB03FC03FD03FBFE040203FFFEFE02FCFBFC04FF020100FEFFFDFC02FFFCFE04FCFE00FF00FF0401FCFE05FCFDFB,FA030303FD020300010500FEFC0105FCFC0103FB0005FE00FFFBFBFD02FD0405FE04FE04040100030102FF04FDFBFD00FDFF0200FB0304FC020207FF03040403,0700FAFF010200FB030102FDFCFAFDFFFFFCFC010301FBFCFDFCFCFFFC0104FAFD0000050204FB030305FF04FCFBFC030401FFFE00FE03FA0302FB0100FFFAFC,FC040401FD04FDFDFFFB0404FEFFFAFEFDFC0402FC01FCFDFE00FBFFFDFCFB02FE02FC02FCFC01FDFAFEFEFDFE05000004030404FB03FFFE000406FC05040204
,FEFE010402FCFB03FC000501FFFFFEFFFB03FD05FCFCFFFF0102FE00FE04FCFEFD0103FD04F9FA00020503FBFD07FD0000FC0400FB02FC00FC02FE02FB0202FB,FB00FAFEFFFEFEFD02010004FDFDFCFE0103FE03FE05FAFFFF04FEFC02FE020003FA04FB0100FC00FC000300010403FA00FD00FF02FCFCFEFD04FF01FF0403FC,05FE0402FD0104FDFB0404FFFB0402040902FE00F8FD00FBFFFBFFFEFB03FDFEFF00FC01FE03FDF90308FE04040203FBFA0202FCFBFDFE0305F9FB00050401FE,FEFEFCFB0001030204FFFC01FB00FCFBFF04FCFDFFFDFF02FEFDFC04FF0101FBFEFBFD000205FC03FDFFFCFCFB04FF01FC04FA0304FEFB02FFFD05FFFEFB0200
,02040105FF0001FD010502FE0103FE01FE0500000101FE03FD02FBFCFC0303FE040403FC02FF03FD0203FC01FC0001FEFC0200FD0201FB02FD0100020100FCFB,03FBFC0000FF02FCFC04FCFC0401FFFBFC03FDF9FBFE03FBFB03FEFC01FE03FBFB02000304FCFA03FBFB04FE01FCFD020401040101030501FCFBFE0203FA0301,03FA03FFFB0302FFFDFDFEFE04FCFD030103FF0201FCFC0300FBFB04FCFFFB00FE0004FD030303FCFDFCFB01FF0004FE0201FD0202FAFB01FCFFFD030501FFFC,FEFEFEFEFF05FFFBFD04FCFDFFFEFEFAFE02FCFDFDFCFDFB050102FB02FF01FBFF00FF000401030403FEFD0203FC050401FCFF03FF04FB040001FE020300FEFC
,FEFBFDFD020300FD0102FB0404FF0102FBFC000405FEFE000404FFFD05FB04FCFFFF020004FF0103020304FF00FD0400FEFEFDFD06FC0200FBFE050104FC0205,FD01040000FAFDFE04FBFCFC0101FDFF02FD01FB03FE03FC03FD0401FF020300FC04FB00FDFEFE0100FFFD01FFFA010402FC03FB04FD030000FF03FE00FBFB02,FFFA0303FF01FBFB0204FBFB030004FD0304FCFFFEFEFCFFFE01FDFEFFFAFF0104FCFD03FB0203FB03030001FC0301000201FFFF030103FEFE0508FCFF0302FD,03FC02FFFF0500030003FFFDFEFE04FEFF0100FB0203FC04FEFEFB05FD0001FFFD03FEFEFE00FB01FA0104FB04FDFBFBFAFFFC0300FF00010102FB02FD02FB01
,FF0300FCFE04FCFF05FBFE04FCFF0303FCFEFE000204FCFDFF00FE00FE0404FBFCFDFE0202020201010102FD06FD0302FC0001050400050401FFFAFE0302FFFB,FE00FD03FFFBFFFBFB0402FFFB0304FF0203FEFDFC0201FA0100FFFE040303000402FCFEFCFE01FFFF0404010201FBFF000103FDFAFE04FC01FC02FDFDFBFF04,FD04FAFB0004FFFF0501FCFA040000FF0005040505000300FFFD0302FC01FE02FFFC03FEFDFCFBFF0204FC02FD0202FCFA04FDFAFEFDFEFFFDFD01FCFF00FE01,02010303FFFD0402FCFEFB05FBFE030300FE02FF040102FC03FF02FFFEFA040401FEFF05FFFA02FDFD04FDFFFD03FF00FEFFFFFBFB0401FB02FFFDFFFAFDFBFD
,0200FE05FEFCFC0402FB0404FA04FCFE00FD01FF03FE0203FEFB0203FFFCFEFE020203FF0001FDFD0404FFFD00FE0100FBFF0205030103FFFFFF0302FB04FD04,06FCFFFF00020102FBFD03FD030001FEFDFBFE010304FAFFFB0005FC050303FEFCFE0405FBFC0000F9FFFDFD0004050000040000FB00FE02FD01F801FDFE04FB,0604FD02FDFBFB0403FFFFFFFA06FE0302040000FFFDFC02FBFEFBFBFAFBFBFEFDFC040600FE00FFFF03FCFA05FFFF03FFFCFA05050405FC0004FEFB040004FA,020303020100FDFE01FD0002FFFC00FEFFFEFF02FB01FB01FD0103FD020003FDFB01FB00020202000200FC0301FB02FB000300FCFD02FFFEFC0200FCFCFFFD01
,FC0402FBFC05FCFA03FF00FC00FDFFFCFFFB04010403FE0103FC03FB0300FFFEFB000100010304050102FBFBFDFEFBFE0203FF03FA0101FB04FFFA03FEFE03FD,FFFF00FD040404FF0300FBFCFA00FF03FDFCFC000204FCFFFD04FC01FC0201FB02FEFA040303FC03FBFB03FD01FEFB04FCFDFC0201FC0303FFFF03FBFFFFFA03,03FE03FD01FDFDFDFBFD02FE0005040200050000FD05FCFC01010302FEFA010504FDFDFEFBFFFA0100FDFB04FE03FF00FC000003FEFFFDFD040004FE000301FE,020301FD04FB020104FE01FDFDFB00FE010400FDFB02FB04FCFCFE0403FEFB03FF010404FEFC0305FA03FE0203FB01FF02FDFCFEFDFC04FA0102FE0101FA04FB
,0601FDFFFC040401FE02020303FB0402FBFEFB00FFFB020304FE0300FBFA0004FBFB01FEFEFFFDFFFD01FCFFFFFD02FA04030404FE04FB03FB05FF0400FBFE01,02FDFFFD0204FCFE04FD0102FCFB02FDFB000302FE0101FCFEFBFDFE02FDFF02FF01FEFC0300FA0202FCFEFC01FC010302FE00FE03FE0303FD01FF0301FDFAFB,0101050405FB03FCFBFE04FF0103FCFFFD02FDFF0304FCFE01FCFF0500FC01FD000503FD00FE0000060101030006FCFAFC0003010106FF0301FFFC02FDFCFBFB,020004FD0405FB03FD010401FBFDFF020205FDFDFEFB0405FD02FE05FAFD02FBFBFCFEFBFDFE0004FD0003FBFAFD02FA03FC0101FEFB03FCFDFC03FC04FCFEFC
,04FB02000203FD00FA040501FC000103FB00FCFA000302FBFB04FE0401FDFCFDFD04FF0304FFFF0302050100010404FFFBFB0100FDFA04FBFD01FDFC01FDFCFB,FE04FFFCFCFE050003FCFE0500FF01FDFCFE0403FB03FAFFFBFE0100FFFC01FFFFFCFE03FAFDFD0401FDFB04FE040003FFFE010001FB04FD0100FC010301FC00,070502FDFC0401FF04FC04FB0404030302FB03FD05030002FC04FB00FDFA03FFFF00FC02FB000301FCFD00FBFCFC01FC0103FE00FE0004FC00010201FCFC0302,FDFCFE0104FC0102FC0305FE000401FA03050304FBFFFCFE01FD01FDFDFBFDFB01010301FD01020004FCFFFC01FC00030000FBFBFAFC00FF0300FEFCFFFA01FF
,02FC02FFFCFEFDFAFF0201FC04FB01FC02FD03FF0104FBFD0401FFFC03FB04FCFEFA04FBFDFD010302010300FF03FEFDFBFB000100040003FBFBF901FFFD04FB,03FEFF01040403FCFC05050200FF0303040100FBFB03FB01FB03FFFEFDFFFF0101FEFEFE05FD03000002FF0204FC02FFFB000200FF0004FDFDFE05FCFB04FE02,FDFD0300FB05FD0301050A0402FA000605FE0100F8030001FEFCFAFE0000F8FF0200FD01000803FF0301FD010202000404FF0106FEF8040405000302FD020308,0303FF0402FD000102FCFB0001FEFC010303FC0500FC01FBFBFF01FEFE02030102FF0103FEFC03FF010001FF00FFFB02FA000403FF0404FB03FFFF02FFFBFC02
,01FBFC0200FB0502FFFB0102FD040400FB02FE02FB01FF05FC01FFFB0200FB04FAFEFEFC00FEFD0402FD020100FD0201FD0402FFFDFF05FDFB03F902040204FD,00FE0202FF0402040401FBFF010001FDFFFFFBFF0005FC0002FFFCFEFFFD03FD02FFFA03FCFEFEFEFB02FB00FE04FEFB03FE03FFFE050403000501010203FE04,FDFFFFFB02FEFB0300FCFB0403FEFE01FE01000503FD0002030201FB05FC00FF0300FD04FA00000005FC040002FBFE030000FB0403FC04FE0302FDFFFFFB0403,0300FBFCFF010203FDFD01FB00FBFDFF03FE0000FCFAFC03FDFB0300FE020503FB0504FBFD0003FC000004FC03FCFE02FE03FE05FC05FD0102050301FC02FE04
,04FFFE0202FFFCFCFF00FD02FB010203FE04FB01FBFD04030500FAFEFF00FF0003010004FC00FC000201FF0101FE04FDFD02FC0000FE050304FDFD0304FBFE03,FF04030500FBFD0000FD00FE03FE00010202FF020003FE03FFFE05FEFC0401FF020200FF04F9FDFF0500FBFF04FEFB00000004FBFE0300FC0003FDFD05010402,060504FB02FC01050105FC000302FFFD04FDFFFBFDFFFB0301FDFE0404030203FF02FEFF04FB00FC030100FEFDFD03010400FAFF01FEFDFF0101010301040402,0602FF02FD05FE02FD06FD00FF03FF0401FCFD010001FD01FE040102000402FAFE000203010004FA020204FB0403050001FDFF04FEFAFFFFFB03010001FDFD05
,010404FE01FC00FD030301FF00FCFD05FF00FC00FF0001FB04FC0001FB010304050202000207FB0200FDFEFF03FD010003FC03FCFEFB00FDFBFD01FBFF0400FD,FEFA0002FBFC03FB04020202FD01000203FFFFFC03FFFF04FCFE02FDFF0305FDFDFD00FDFF00FDFB050504FCFBFB0100FEFFFFFBFCFD03FF02FF04FD01010500,01FEFB0502FB02FDFB00FDFFFCFE05010105FD03FE03FFFB050402000201FB040303FE0105FEFDFEFB04FFFF01FBFEFDFDFC00FBFEFCFCFBFDFE0204FDFEFA03,000000020000000002FFFBFEFC06050301FFFEFF0305FA00FCFA01000000010100FAFA01FBFE02FCFCFCFEFE0104FDFC00FEFA03FE00FBFBFB01FA000503FBFC
,020200FD030203FCFD00FDFBFBFD02FCFF00000004FF0002000100FCFA01FA01FCFFFCFD0204FB030104FE030304FBFB0304FC0103FC02FEFF05FA02030102FC,FFFF00FCFC03FC00FAFBFCFD00050300FBFBFFFCFFFDFBFB010103FF03FD020102FD00FBFAF803FBFDFFFF04FCFBFF0405FFFA02FB04FDFCFF02FB02FEFD0304,0300FC02020101FFFEFFFBFB0201FE070003FFFEFF04FEFBFD04FEFCFB000403FAFAFBFDFBFCFBFDFF05010204000304FCFEFBFD0502FF01FFFCFD01FAFE00FB,01FAFF0401FE03FBFDFDFCFC03FDFC01FE01FA03FCFFFFFE030200030000FC0001FD04FDFCFCFDFC020503FDFCFA02000101FE020004040300FBF902FC040001
,04FDFEFEFB0303FCFD0204FF0400040502FC0400FCFEFCFFFDFD010204FEFCFF02FCFF00FC02000002FD000102FFFBFE0200FE03FB04FB04FBFFFEFDFCFE01FE,00FFFFFEFF03FF020304FD02FE02FFFC020605010301FFFB04FAFE03030101FEFD00FF040202FDFFFBFFFBFC030501FEFD01FFFFFB0102040003FB02FC020004,0004FBFE0304FB02FB030503040101050002FEFE020402FCFE02FEFE00FFFBFBFB05FB05FB01FAFEFC030401FA0104FE030504020500FBFF04FEFB0305010304,00FCFDFEFBFA0002FC0101040202FD02020303FCFB03FE04FFFE040505010302FDFBFFFE0003FF02FC02FEFFFB04FE0302FDFAFF01FBFDFA000104FEFFFF02FB
,FFFFFFFF0402FD04020101FDFE05FCFD020104FDFD0503020302FC04FCFC00040102FD010104020003FEFCFC040202FDFD0203FEFE03FD03FDFDFA0102FC0404,01FC0402FC05FE0403FF020301FE00FC000200FC0102FD0005FCFD0401030302FE02000601FE020106FD0201FC050501000204FD0202FC00FD00FB0001FF03FE,FEFF00FC03FCFFFC01FE0202FD03040001FFFCFCFBFCFFFE0301FD03FF04FAFD0404FF0404FF02000105FEFDFEFE02FEFA04FAFF0000FEFB03FF00FDFDFBFD01,FD04FE040401FE03FE0504FFFCFFFF04FD04FF01040504FF02FBFB0403FCFD02FC00FDFC05040303FDFFFFFFFF040301FC05010304000104FF01FF0101FBFF02
,0501FB0000FA0202FD0300FB0300FFFE0201FB03000001FE02FB0000FCFEFE01FBFC01FD05020102FE010302020502FF03FC0404FD04FFFC040105FF00040400,0100FF02FA00FD0402FE0201010203FDFC03FF0200FA02FDFCFE02FE03FA04FD03FF0503FF0403FBFD0500020101010203FE0202FD030100FB04F9FEFC02FF04,04FB0103FB0400FB0105050403010102FE000104FFFCFFFFFE03FB0403FBFCFDFDFEFFFC02FBFCFD0106FCFDFD00FFFB01030005FEFCFD0201FEFFFCFFFD0301,02FCFCFCFFFFFEFFFA0501FF040205FE0302FE04FB01FFFCFDFFFDFEFAFF0201FB03FFFE0004FA03FF000401FF02FF03010301FBFB020303FDFF03FC0401FE05
,FCFEFDFF04FFFC01FFFCFCFDFCFEFC0301FF04FB06FFFD04FEFC030403FB0501FCFC0105FA03FA01020001FFFB03FD02FFFBFD02FFFEFFFEFB040103040003FF,030304FBFEFC020400FF02040103FFFF03FD0400FBFBFDFC00FF040304050304FDFB01FD02FB0100FE0605FEFDFB00FEFE05FBFC06FBFBFE0001FA03FCFF00FC,FB03FE0601FAFD040303FCFBFBFC06FFFF01FAFC05FEFE04FD0505FDFFFEFC040304FAFFFB0203FB03FF04FE00FFF8FDF8010404FDF905FCFE020502FEFBFCFD,00FE0500FF0505FDFDFFFC04FDFF03FFFB05FBFF01000301FE03FAFDFDFA02FB04FC04FD0000FEFE05FEFBFF0201FEFFFC010402FF02FDFE0304FB01FA020100
,FBFE03020401FD01FC030004FC0404FB04FC02FD0002FDFBFFFDFB0002FFFAFFFF0004FC00FE010000FC0402FAFAFE04FDFD0201FAFD03FB04FCFEFEFD00FF01,FEFE010004FCFAFDFB00FFFBFAFC0004FE01FFFE01FBFE00FF0400FDFEFF0000FA030400FB02FF0303FDFE02FF03FE0000FDFB0304FBFC02FD01FF000101FFFA,FAFE01030404FCFDFFFFFEFBFE03040300FF02FD04FAFD00030404FF00000000FA03FBFF010501040301FF03FBFEFB040100FE0001FC02FE0100FC000003FF02,FCFCFDFEFFFCFDFD01FD04030403FDFF03FD020301FBFD030501FE0301FF00FD01FC0201FFFE030204FD00FDFBFBFE0001030404FAFEFD0202FBFF0102FE0302
,010203FDFAFC03FF04FBFD03FF02FFFFFE000401FB04FDFC02FB03FDFE010200FD03FBFEFE04FF00FEFF0404FF000403FFFB0204FA0400FBFC00FBFF0402FDFD,0AFDFBFB02FE00FD040404FBFAFF0502FD0203FFFF01030203000203FDFDFE00FF02FB04FAFE0202FF03FE030004FB02FEFE04FDFFFDFF020203FCFD03FDFEFE,FA03050000040303FD00FD050006FCFCFE0004FB00FEFA01FB02FBFEFCFE040504FB010302020303FD03FC0304FEFFFDFC0403FDFE020204FD020004FFFAFB02,02FE000501FBFD00FDFCFEFCFCFBFDFEFB0104FD040200FD03FD00FEFC0100FBFEFD0401FD0501FEFFFF020300FE02FDFBFDFF0504030302010205FEFBFB01FE
,FDFDFEFB0001FFFE01FEFBFE02FC02FB02FCFEFCFFFCFDFEFAFDFB03020100020403FB020005000104FF030000FA02010202FD02FF04030304FF00FDFEFDFE02,00FC000402020203FDFF05FD010403010203FBFBFF00FA01030004FDFC04010303FDFE01020202FA02FF030101FBFFFF02FDFEFE02020100FE030203FCFCFBFD,FF000500FEFB020404050202000204FDFAFEFE0102FB0004FEFAFFFEFC04FCFF01FDFFFCFAFA010001FCFEFFFCFCFB040404FE0201040104FAFC02FBFCFFFE01,FFFE04FF00FC03FE0001FD000004FCFDFEFEFEFAFDFEFAFA040402020103FE0303FE04FCFB05FEFA0100000301FEFEFD03FDFD02FC0005FDFCFEFBFEFF030403
,FEFD01FCFF06FBFCFEFF04FC01FB0103FC01010504FEFE04FB00FE0100FD02FEFF01FB01010AFC0303FE0302FC020101FD01FEFD000501FAFD02FD04FBFAFC04,02FCFFFD01FBFBFD04000300FCFD0403FDFDFEFD0001FAFFFB0400FFFBFCFFFC0400FCFFFCFAFB01F9FCFD050302FAFE01FE04FDFBFD010201FAFE04FBFEFC03,FF030203FF0004FF00FEFCFDFA0105FE030301FC0201F904FE0002FFFFFFFDFD05050004FCFA030203FF01020300010200FBFD010403FE02FFFA04FDFBFCFFFE,040002FBFD040301050201FEFBFE05FF030404FB00FB01FCFBFD010101FB0503030100020203FCFB040301FCFB01FEFB00FE04010003FBFC000301FE0403FD00
,0301FD0200FEFCFCFA00FCFF02FF0401FAFEFEFDFC02FD040304FFFF00FCFEFBFA0000FE040504010002FA00000004FBFF04FDFB0502FBFC01FBFE02FEFE0001,05FB0203FB000303FB01FE0101FFFBFF0301FF0401FF02FEFA020300FC0201000001040100FFFD0103010500FD02FDFDFCFF020003FEFEFDFBFE02FFFBFE04FF,0104FF05000103FA0004FC040005010203FD000401FE01FCFEFCFFFFFEFDFEFBFEFD00FDFD04000000FC0200FF00FC0105FAFBFEFEFD000400FEFBFBFDFB04FC,060005FFFE0402FFFF050303FCFEFDFDFB05FB05FF04FCFDFFFA02FD0004FB02FF000304FF0302FFFD03FEFE02FE04FA02FC04FDFD000503FF03FF0404010304
,FAFCFF05FFFE0104FB03FCFE040201FC02FDFFFF03FB04FC03FBFB000501FDFFFE03FD0401FF0100FD0401FB050203010000FDFBFEFC01FD02FFFDFAFBFDFB02,FE0004FE0002FE020205FDFDFCFB00FD0005FDFF00FCFA0400FD04000003020201FD000303FE00FDFCFEFCFBFE03FD0200FDFE04FA01FFFF03FDFBFF05FE03FC,01FEFF0401FFFB02FEFD0304010203FC0402FCFEFFFF07FF020204FE01FEFDFE000303030305FD0304FCF9FE02FDFDFFFFFEFE01FD02FCFE0301FFFB00FCFD00,03FF01FEFAFD00FDFB050201FCFFFA00FFFD0203030302FF03FE01FBFB0004FBFC0404FF02FBFDFE04030104FEFE0304FFFCFBFBFBFD04FDFC00FDFDFDFBFA01
,0000FCFC03030203040602FF040204FEFF020100040003FFFAFB04FFFCFBFCFBFC0003030201FFFBFAFFFDFAFEFA02FBFD02FFFB05FF0004FE05FE010200FEFB,FF04040401FBFBFE03FFFD0104FBFF04FC03FFFFFF05FCFF00FD00FC05FF0201FFFEFDFE04010002FB06020202FD04FCFE0300FB000200000003030102FE04FF,020303FFFCFDFAFF0004FDFDFBFD03FC030503FB010305000003020405FD030103FAFE0202FC030400040000FFFFFF0200FCFCFF0301FCFCFCFCFF04010300FF,FB04010102010302FB030501FE0404FAFDFE01030301FE02FCFC0400FBFC01FEFDFAFB04FCFEFF0101010102FEFE0400FE00FFFBFEFB01FE0005FD03FEFFFC02
,FBFCFB0004FFFE0104FCFDFAFD0501FB04020205FEFFFBFC0204FE04FFFD05FFFEFF0402FDF903FEFA0103FCFE03030301FD0205FEFFFEFD0203040304040400,030305FC01FA0104000000FDFB05FC0304FB00FF00FD010405FA01FCFF00FF04FC0502FC0004FCFBFDFFFDFEFDFA0000000402FC0100FB0402FE05FDFBFBFDFF,08FAFFFD00FEFBFC08040203FDFA04FFFF02FFFF01FBFB00FD04FF05000403FDFBFBFE0301FEFF00000504020109FEFDFCFC0407FEFE04FF010305040503FCFF,FDFDFCFDFE0005FAFB00FCFCFDFEFD01020202FB050502FCFCFB00050303FB01FB00FE04FCFCFBFC0302FCFCFC000402FF03FE02FE0504010302FCFFFFFBFBFD
,FC0103FEFBFCFEFD0204FBFAFDFFFCFFFF01FFFB010003FF04FC0303FB03FD050004FC0303020401FCFC04FD01010403000200FBFCFE0000FF04000201FCFF00,FB04FCFD0004FFFCFBFE05FFFCFDFD00FD03FD03FF05FCFF03FB0301FBFC0501FF05FE04FEF900FA01FFFCFDFFFA0400FF02030204FD030004FBFEFB02FAFB00,0300FE0000FDFCFB00030304FE000100FF02040404FEFC0201FB0405FA030201FC03FCFDFCFFFF0004FF0404FC0103FCFB03FCFFFE00FFFB02FCFD0104FBFDFC,F9040202FB020103FBFC00040105FBFB04FB0400010401010102030304FF0200FBFC02FFFEFCFCFDFE03FAFC05040303FF03FE00FEFAFDFA01FDFB02FB03FC02
,F901FB00FDFDFDFCFEFB00FF000100FFFCFE00FF0304FFFFFBFDFD010004040103FEFE03FC000204FC0204FEFDFF02FDFF0002FC0004FBFFFDFD03FF030301FB,04FFFF02FF03FD010105FFFCFF02FD040403FFFCFD010105FBFF02FFFF01FD0400FE000302FBFFFFFE05040304FDFBFD03FBFBFBF703FDFFFFFCFF04FEFEFB01,0301FDFDFEFCFCFB04FBFC000002FCFDFBFF03040303FC0502FB03FBFFFBFBFC02FDFCFFFAFEFFFFFDFE00FFFD01FE02010202020105FDFE03FDFC05FA02FE03,040502FFFD000000FF0004FCFBFB04020505FD010301FEFFFCFCFAFCFC000000FB00FDFF0101FC02F904FFFDFFFBFCFAFEFEFAFF03FE04FE03FCF9FAFEFEFB05
,FFFD0305FCFEFCFC05FD01FC030106FD0100FD0301FBFFFCFF02020102FCFD000402FB0203FE01FC00FD02FBFD07010103FC0004FCFEFF0402010101FBFE03FA,FCFE02FEFEFFFDFAFEFD03FFFF0500FDFFFA0002FEFD01FE0100030201FBFD03FDFD0402FB000402FFFEFDFC0305FA02010503FCFBFF040404FE00FFFDFFFEFB,FA02FB0001FD02FBFBFBFD040004FE05FFFC0202FEFA04FC0302FFFC04FFFCFB00FF020403FDFB04FC000401FCFD0004FEFC01FCFCFE0400FD02FE03FEFD01FD,FDFEFEFF0200FF00FEFD02FB0200FD03FBFE00FEFF0000FCFC03FDFD00FEFCFBFA020402FE01FC04FFFEFBFE02FFFAFD03FFFD03FE00FEFFFB04040400FF0400
,FC02FF0301FD00FA02FB04FE03FAFFFC0306FD0503030203FD0402FC02FE02FCFA03FD00FB050402050601020104FB0202FDFAFEFD00FCFB000402FDFE01FD02,FB0400FC000304FB0402FE04FBFF000103FEFAFF0103FEFB010302FE06FDFCFDFBFB0002FEFDFAFFFCFEFC03FE01FA01FD01FFFF0301000402FD04FD01FA0403,FE000302FFFCFF0300000301FE01FDFC0002FEFC0203FEFD02FBFB02010103FBFBFBFE010100FAFD0401FEFFFC03FE05FA01FDFDFC00FEFB02FD02FFFA01FD00,FFFEFE0300FBFE02FEFBFB0003FD040201FBFC0303FCFB02020300FB0101010004FF0002FD0103FDFDFE04FEFEFBFCFC01FE0401FF04FF030201FD02FAFEFE01
,04FD03FBFE0302FC04040304FBFDFDFBFEFE04FB04FC0302FBFD03FCFEFE03FD0403FDFBFF0303FE060502FBFDFB00010402FDFEFCFBFCFCFFFCFDFE0102FAFF,03040303FDFC00FD02FCFDFC020204FDFEFEFD01FD04FDFE0401FF01FEFAFEFBFD05FDFD0105FA030604040105FD02FB01FF040302FFFEFC02FC03FD0503FF02,FD05020003FA010404FB02FFFC04FB06FB030405FFFF00FF02030202FC04000002FDFEFF00FC03FEFDFFFDFDFAFA0104FCFB040203040004FD01030303010201,FEFE0304FD0100FEFDFC00FF000005FCFF05FCFEFDFC040301FDFF0202FC00FD020001FDFCFB0302FB0600FDFFFC02FC0100FF05040304010402FEFFFB040402
,F902FF02FDFB01FCFB0301FD04FDFC01FBFCFEFC01FEFEFDFFFC01FA0303FD00FFFDFC0202FDFFFDFE04FDFDFF04FD0400FDFB030201FC0204FB00FD01010304,FE00FBFF0304FAFC010003FDFE0400FBFC04FDFC03FBFF01FEFE03050404FB04040400FE0402FFFC010104FBFFFA030201FA0403FFFCFC00FF0502FBFB04FF01,0203FAFE00FBFB0403040104FD0002030604FB03FDFBFF0000FCFEF90805FBFDFF05FEFDFB0304030300FAFF040002FC010102FA070400FC04FF010404010000,01FB01FEFEFE04FAFC01FBFDFE0201020005FEFF04FC000503FEFB01010401FCFB050102FEF9FDFDFB02FE040503020105FFFBFAFB04FE04010304FC00FE00FB
,0001FBFBFE04FAFDFF0203FCFE02FC0303FE04FDFD0104FE00020202FF02FCFEFD0103FCFEFBFC00FE0503FEFCF9FB04FCFE0301FE03FD030301010200FFFA02,01FD0404FEFDFE00FE0002FB01FD00FD01FF030101FCFD01FFFDFB050202000304FB0404FB0303FFFDFEFD0002FEFFFF040300FF0402FF0203000203FB01FCFF,0401020401FE01FE02FF05FFFB04FF000300FCFDFCFEFD020401010501FA00FB01FC030300FA02FE00FEFF04000003FBFDFDFEFA0005FA03FFFFFEFCFB01FE01,FCFEFFFD04FD01FFFFFCFF0003FDFE04FC020103FCFF01FEFE0304FBFD030403FF040400FDFCFAFEFCFCFBFC010303FE00FF03020004FFFFFD01FCFD04FE0101
,FB030400FDFFFBFC0102FE0100FF02FDFAFC02FF04FB0101FA01FF0303FDFD020302040401FA03FE02030404020004FE01FD00FE04FCFEFBFFFBFC02FBFCFD04,FEFA050401020001FB05FF01FE0203030400FE0104FCFDFEFDFC0505FFFCFDFF01FBFF02000301FDFD03FE0406FEFCFC02030203FD0402FCFB01030000FC01FC,FE01FD0100FDFFFEF9FE03FD04FC0803FEFF04FBFCFD05FF01FF030303FC04FD04FEFD0602060502010703FAFE03FF02060503FFFCFDFFFD0501FFF8FFFDFA03,FB0103FF0000FD0303FF00010003FEFEFF0501020004FB04FD01FCFD02FFFC030000FCFE03000401FCFE02030504FC0305FF03FF0002FEFFFAFD02FFFC0402FA
,00FCFD00FC010400FEFEFE0301040300FDFFFBFEFDFF0200FE03FE01FBFCFFFB04FC00010300FB0501FD00020305FDFAFFFCFFFA020504030101F9FFFCFA01FD,01FE00FFFA0403FAFF04FE0402FEFDFC0303FFFCFBFBFBFC04FE02FCFBFA0300FEFC03FD030200FC010603FD00FBFFFCFB0401FB00FF0100020201FFFF00FC00,FDFE05FCFD01FEFE03FB04FFFC03FDFD02FC02FBFDFEFDFDFE01020103FEFCFCFDFE03FFFEFFFF01FCFD04020206FC00FBFF01FC04FE010304FFFDFA0104FD01,0000FFFBFAFEFC0202FC00FD03FEFB03FE050100010102FB05FF00FE0403FA04FDFEFDFF01000103FB03000402FD02FBFD0200FC01FE03FE0000FC0002FB0300
,00FAFFFB01FE0300FF00FE04FCFC05FEFBFBFFFFFE04FA0502FEFFFDFE040103040400FB0503FF01FD02FF00FEF9FE020302020300FEFF0102FEFCFCFAFEFFFE,00FDFEFDFFFDFFFA0300FDFCFC0401FEFE0404FAFEFC03FE0404020302FAFE04020203FC03FC0203010200FD03FDFFFE000402FF0101FFFFFE0000FF01FF01FF,05FDFDFFFB0303FEFFFF00FFFE030501FD03FE01FA020200FBFDFCFB0100FB01FDFE040201FE03FE03FCFEFCFDFE01FDFD03000101FC02030403F9FB03FE0002,0403FB03FDFFFFFBFD0300FFFD010002FEFE040003010201FDFDFDFD030204020403FB0100000302FE00FF00FDFFFE04FF0003FB0105FBFB01FEFC020203FD02
,FF000205FD0203FDFC0503FEFDFE0304FCFD04FFFE02FC04FB010400010404FE03FEFD02FC03FDFE0101000403040104FD03FEFE05FC010202010301FDFC02FD,FD01FFFD0000FC02FE01FD04FAFC02FCFEFF0103FC0403FD0302FB0002FD04010004FEFF04FEFFFDFCFEFE0005030301FB04FD0204000104FCFBFFFDFBFCFE02,FFFB0100FEFF0501FEFE01FCFEFD010003FDFA010201FF040000FBFBFFFDFA030202FCFBFD040401FB03FB000504FFFDFB0403FCFF0105FD00FFFC0003FAFB03,FEFEFD050201020105FEFEFCFBFFFF0000FE04040203FDFA0203FDFBFEFD04FFFD01FE0305FA04FCFCFEFBFBFE0104FCFCFE0101FB03020304FE03FA0503FAFE
,01FFFB02FCFBFE0003FDFB00020402FCFDFE040202FE04FCFC01FF04FF00040104FFFFFFFC0301FC0305FDFFFC01FE000201FA0100FE00020305FBFFFD0002FE,FDFC0103FDFEFBFBFA03FFFEFEFF0203FCFA04FAFB040300FFFDFBFE03FEFB0100FEFC0404FB01FDFC030204FFFDFBFC0203010401FD03FAFE05FE01FB000202,FD020102FEFB02FE04FBFEFEFF00FFFFFDFC04FA04FB01FCFF02FD03FE0302FEFE04FF01FF0204FF010102FC0302FAFD03FD00FCFB010302020406FE04FA04FC,01FCFCFDFDFA02FCFFFD01FCFBFE030403FB02FF0005FEFB04FB00FC02FFFCFB0403020303010000030202FE00040202FC05FDFB00FB000403FE0202000401FB
,FA04FA03FBFFFA0204FFFCFDFA03FCFFFFFD02FEFD01FC0404FAFD00FA02FE00FC04FB0302FE0201FB01FFFF02FC01FE05FC0100FD0100FBFE02FEFEFD0402FB,FFFF0002FE0303FE01000202FB0503FF00FE0002FBFC0000FAFE0302FDFCFE0300FCFFFEFB04040205FC01FDFD00020300FCFD0501FFFBFEFFFE02FA03FCFA02,FBFF0204FC0204FE0503FB00FDFDFF020402FC02040004FB00FFFE00FE01FE0401FFFAFF03FD040304FE020000FC0101FD050400FA01FFFB0305010404FDFF01,FD0300040405FE03FDFEFDFAFA0000FBFFFCFE0004FE0102FCFC0004FFFF04FB0201FDFEFE03FAFCFDFF04FD0502FB04FF01FBFC0000FEFCFB02FA00FA020200
,00FBFCFDFDFD04FE03010205020004FBFE04FDFF00FE00FD02FFFFFD0402FB01FAFCFCFE0204FBFFFC0400000200000200FC02FEFCFCFDFC0400FBFE01040003,FEFFFDFF020100040204FDFE0403FEFB020005FC05FEFCFBFDFDFF03FEFFFE04FB04FE0000050003010001FBFC0005FC0501FE0301FB0304FEFC01FEFBFAFE02,05FC000103FCFFFBFF01FEFD040104FAFB04FB0502FF040503FCFFFEFF0203FC00FAFBFC0106FD00F903FD00FE05FE06FCFEFAFC0403FD0503FDFC0300FEFA03,FEFAFBFF01FAFBFF03FDFBFF01FFFC030504FD0204FDFAFE000401FFFE00FD020102FDFD0203FEFE01FDFB01FE05FD03040300FC03FD0201FEFBFF000201FF04
,01FC0203FEFD02FF02FEFD03FC0504FFFBFCFEFEFEFE02FEFDFA03FDFDFAFE0202FCFD050201FC000106FE0101FFFFFF0200FB0603FD0201040306FBFD01FEFD,0201FE020200FF00FC01FDFBFFFC0004FEFEFEFEFC04FF05030403FF010300FAFE0003FE03010002FF03FE01FDFEFCFE04FB00FE04FAFFFD040102FAFBFD02FD,FDFC01FDFDFB04FBFA020301FC02FFFC0404FB02FD000101FE0300FE040002FF0205FCFC040203FD02FD0301FBFF040200FFFDFB00FB02FC02FFFCFDFAFDFC00,03020101030201020301FDFE0001010503FC01FFFCFFFF04000104010402FFFE04FDFAFFFE01FAFC0005FC0402FB0004FB01FCFEFE020504FA00FDFA0401FE01
,FDFB0303FE0305040102FDFC01FCFFFC04FBFFFCFFFDFBFA050401FCFCFD01FCFFFFFE05FC03FE010000FE00020402FA04010003FC0004FBFDFB01010201FA04,FF030405FEFFFBFB05040101FDFF010402FC0400FFFAFCFD0501FFFE02FDFFFE0405FE04FBF8030104FF020302FAFFFCFD00FCFBFD05FBFCFC0000FF000303FF,FD050206FFFF0003FAFE0001FBFC0401030602FA0102FCFFFDFD020201FCFB00FDFA01FE0202FFFEF70302FF03FEFFFDFE0000FB02FD03FFFE0601FEF9FF0104,FD03FBFCFCFCFEFFFA05FEFDFFFEFC03FD030201FDFD04FAFD0203FEFEFE030201010301FC05FBFFFF03FC03FB020300030201030404FEFDFCFF010202000301
,01FCFFFEFBFC00FDFC0202FCFDFBFD0401FCFB00FD0305FBFDFFFC010300FD03FF04FE05FEFE0303FEFF00FEFBF9FEFA00FFFBFAFDFD0002FE03FEFC04010101,00FB01FDFE02FBFBFBFDFD0104FF0001FE0403010501FCFEFBFCFC02FF0102000406FC0003FF0302FCFE04FF00030003FC01020401020501FDFF03FB03FD0102,FEFC0300FFFD04FC010200FD04FB04FAFE0202FEFCFDFFFD01FE0100FC00FF03030204FFFC01FCFFFB04010300FCFDFFFD040101FB0103030302FE0102FEFFFB,FDFEFC03FD05FB020300FE05FDFBFC05FBFCFE02FBFE01FEFAFEFBFB04FF010001FFFB0003FF0100FD02FE03FCFF0000FE04FEFF01FEFE0001FDFEFDFBFFFC00
,FF0002030205FBFC0500010303FF010305FCFA03FBFCFA0103FFFD01FBFA02FDFEFB0205FFFD0205FEFE0100040101FE000503FE0203FDFEFA0308FCFDFC02FF,0002FAFC02FE03FB03FC00FF020404FFFDFB03FBFC03FF0405030400FC02FE01FD00030103FA00000404FD00FFF803FFFC04FBFFFEFE02FC03FC010103FCFC04,FA0202FC03FDFBFEFF04020202040103000001FCFFFF00FCFB01FD0203FEFCFAFDFCFC010100FDFC03FF05FDFB04FCFFFC0303040203030300FF01FF00FF02FE,0600FDFC010000FAFDFEFEFFFFFC02FD0302FCFB040201FCFCFC04FE000200020505FEFA04FF02FAFF010302FC0503FBFC02FEFF0004FD05040400FF010303FF
,00FE0001FDFE00030000020203FFFF04FCFE020104FDFE030104FB01FEFF0301FB0304040403FEFE0103FCFE0400FC03FCFC00FCFE030500FFFCFF0005FFFE01,FA0302000100FBFFFE00FDFFFEFF0200FFFD03FCFD05FDFB0203FEFCFDFFFD0002FE0301FBFF01FA05FFFF040500FE01040301000400FDFBFFFEFD00FF04FAFB,FE030200020400FDFDFD01FD03020101FD0003FFFFFF0401FE04FF04FF00FBFFFCFFFCFD04FBFCFF00FEFD04FBFCFB010303FE020201FFFE01FEFCFEFB010403,02FB03FBFC0001FDFE0203FCFAFF03FDFDFEFFFCFE04FAFC01FE01FD00FDFD04FC02FF03FBFFFD01FBFFFDFF030303FF00FDFEFD04FB0000FE0202FCFC01FF01;