; Layer 2: conv2d_1 weights (Q1.6 format)
; Original shape: (3, 3, 8, 16)
; Total elements: 1152
; Quantization: 6 fractional bits
; Range: [-2.0, 1.984375]
; Memory organization: 3x3 addresses × 128 bits (packed)
; Each address contains all 16 filter weights for one kernel position
;
memory_initialization_radix=16; Hexadecimal format
memory_initialization_vector=FD070101F805FA0505FE070905FE04F1,0CFF09F8FEF8F6FB03FA0504FE0A0703,1007030100FE0509FF02F5FC02FD08F6,06010DF70C0006F70E0C090C05FAFFF8
,07FD0D0901FCF8FCF909000206FB0B05,0702FE0A04FA0D040908FBFC0AF6FCF3,01FFF6FAF801FC050B0BFDFD0803010C,0409EF0702FB06FDFEFB0A08FD0801FE
,07F2F7FC0907FC0AF708010100020900;
