; Layer 6: dense_1 weights (Q1.6 format)
; Original shape: (120, 20)
; Total elements: 2400
; Quantization: 6 fractional bits
; Range: [-2.0, 1.984375]
; Memory organization: 120 addresses × 160 bits (packed)
; Each address contains all 20 node weights for one input
;
memory_initialization_radix=16; Hexadecimal format
memory_initialization_vector=F902F9F701FB0AF30607F503F70206FE00FD0109,000101FE0EFD01F90302F80310FEFFFCFBFEF8F9,02FDFFFC03F602FC02FE04FAFE0C031202FC02FA,FCFB01F3F802090600FEFA00FC00FBFF03FA06FC
,F90304FCFBFE0B05FFFFF5080BFD04F907F8F5F7,FF04FCFBFD050C06000C0608F70205FFFFFE0BF9,00FAF80907FB04FBFFFEF5FBFF06FD09F8F70006,FFFFF9FC030706F7FB0609F70005F9020C0106FD
,FD07FFF80B0CF7F6FE0A0604F7020706FBFA0D04,0401F80AFF0BF40C07080DF9FAF908FE0DF50901,FF0CF4F804F2FD09F3FC02F7F3FD08FBF8020500,03FCF50207FE03040BFE03050F0C010DFF07F6FD
,090D08F7F408F702FAFE0BFDF5010BFA08F7F905,F50400FC03FF13010BF808060707FC08FC020300,F8FBFFF8F802FAF407F70206F50C010DFDFD080B,020907FCFFFEFBFFFCFC0002FDFF060202030504
,F401FF06F6FBFF0E01F905F8FEFDF3010403FCFA,FC09F6FBFE0A02F70201F6FA050104F60907000A,FCFFFEF9FB040206FC01020C020BFD0600F8FDFA,01FBFA0103F803FB02FB000406FBFFFCFA0CFBF6
,0304F900FFF801FAFB060505F6FA00FBFC02FBFC,040A0104FC090A020607060105FCFDFEFEFE0CFF,09FD09FDFA0CFB00FF05FA01FDFAF10C0FF4F5F9,FCFB0D07FE0AFFFBFD0400FCFF03F7070A01FE00
,F9F5FF0CFDF70804F80706FA0E02FDF5F5080000,0205050401FF0B07FEFA08F906FD09FA0D02FF06,0403FD000A0508FAFE02F70209FBF7F80701FBF3,FDFD020503030201FFF7FEFAFAFA0A02FEF70906
,F902F60207F80900FBFC0EFF0B0D07FCFEFBFC09,0303F50201F5FAFF07F9FE05F5FAF4FB05000D07,000501FCFA00F40705FCFBFE07F40002F706070F,FDFC08FA020701FEFDFF00FFFF0B000E01FDF8F9
,0000FF00010504FD03F601F7F901FEFF0BFF0F01,FA010F0CF9F003020805F902010804FC01020002,0806FFF9F8FE020400010B02F903FCFAFD01F90D,FE06F901FDF30D0BFAF8F804F7F506F508FCFC02
,F6F40301FE02FB0BFFFCFDF9F502F9FFF30600FE,00FAF60DFAFF0AFD0A0E03FF0A020204FB0104F5,0108010002FEFF050106040B0F01FF04FEFD0703,0A0FFCFBF400FE080200F3F50200F1FAFAF9FCFE
,0402FF01F802FAF905FEF5FF030500FDF70213FA,05FCFB0403FEFD04FEFEFB01FFFD07FFFBF8070B,FC0B0A04F8F802FAF706FDF707F50606F80704FB,03FFFF04030B02070806FD05FE070108FBFB0602
,03FD04F8FEFB0AF9F605F9F60101F507F8F80902,02090B0807F6000AFDF60106F4FFFCFA04F5FBFF,0A0402F7F6FE02FAFDF705FDFA0708FE060503F3,FE00F90102FAFE0304FF00F9FEFEF5FAFBFAF708
,0E0501FE0004030207FBFA0416020100FBF20205,06F8FE0BFFFEF7FE0B07F7FF000BF90708FAF7FC,FD0DF8FCFC010D0B090BFC0601F50AF301F50707,F5F90408FB07F9FC09FF0501F5F809FCF5FBF9F6
,09F2FE080CF9F50609FF06030C0902FAFB000705,00FFF8050EF8FC09FD0205FF00FE09080508FFF9,00FD02070103F70AF4FF0302F90C0A0C0A07FAFB,07FE0502FA06010104FDF9FA0FFE07FD0604FEFC
,07040301FBFEFFFEFDFC04FDF2FEFA050AFCF802,08FEFCFE090AFBFFFA030606F6F7FF00FA030F06,05FC0304010002FE00FE01FFFF05FBFC000603FD,F5FBFAFE0A050CF808FDFE0CF705FE05FC09F702
,FDF80FF8F90001070003FCFD0306000501FDF9FD,09F80E00F90B08FA0A09F2F500090405F4FD01FE,0304FBFF0303050209030202FE040EFE0301FEFD,07FD0C0408FA03F9F90C04F709FB0EF4FCF8F604
,060AFFFBFDFB0E04FF010301FAF701FBFC04FC06,F9FFFBFC06F901FDFCF105FCF400FDFE05F8FBF9,FF06FF09F909F50B0100FDF902FEF5F7FF06F6FD,02FEF900FFFEF9FF04FFFB040001FDFBFC0FFDFC
,FDFE0106060405FF0502150301F60504FC04FB05,F5FB0002FBFC02FEF7F7FD03F9010A01F902FE05,0001F8070AFB080CF9FFFA0407030BFEF9FBF6F7,FB0C0CF802F50D05FB02060601FD01FE04FCFE08
,03FCF9FFFD0001FCFDFEFCFC08040406FEFBFE05,04F305FC0306F701FF080FFE01F500FA03F8FCFE,F9050BFF050704FCFB090A09FD04F602F8FC0A0D,0304FF070D02FF0201FFF9FFFF0C020E0207FE0A
,F80C00FFF9F300F9F70B000303FC000808FEF90C,0408F8010BF8F908060207F8F80CF9FDF8F80908,FF000BFDFF0001FE0CFB030704FEFFFB0BFCFE02,F9FEFAF200FB04050200FB06FA0004F50D0CF7F9
,000409FFFDFB090B0004FE04F8FFFD020907FE05,FDFF02000A04FBFF050703FB0BF506F7050CFBF9,08FF0601FF0A04FAFA0004FD07F80901F7060909,FDF6FBF9030D0EFD0B03FB0B0CF4030BFA0E0A05
,05FDF9F9F801F6000BF5000402090EF80AFBFC07,06FEFAFFFE08FA03030CFD060B03020402FE0401,05F10402F6FAFEFC0AF9F6F5F90C00F908FEFFFA,FBF5F9FD12EEFCF6FFFFFFF1FEFE0000FA02F1F4
,FF00FFFDFC05FD02FF0406FE0803FFFC0B060905,00F7F9FAF705F4060CFCF7F80AF7F7000607FB08,FD0C020A06FE070004FF03FCFF0BFE060500FBFE,FBFFFCFCF9FEFF0C00FFFCFFFC04FDFD03F6FEFC
,030E01FEF90603FE03FFFEFFF6070204FF0004FE,02F5FD040804FE0CFE08FF03F9F505FB0BFFFAFD,07F5F707FDF60306FAF3FA05FC00FF070CEDFBFE,F704FBF60C0BF9FA01F8000B000703FDFBFCF708
,FDF8F509080001FCF707FAFBFBF8F60507F5F7FA,07000C00FB00FF09FAFDFA00FB09070703F809FE,02F609FC07F7FDF80BF5F4FCF80411FFF304FFFF,04FFFA06F902FBF8FB05000C0205FE00FEFC0404
,FDF405FF05FEFDFB05FCF7F8F8FE0007FFFCF8F6,F6FC0300F5FBFF08F9FB0BF6F80A000BFBFE120A,05010A00020805F3FDF4000BFE01F9FEFE050BF6,F7FBFD0A0BFF0A0606FB00F5FDF5FB0DFAF3F300
,FDFAFBFFF800FFF50CF804FF0BFDFDFF000608F8,F605FF02FCF7F5FD0AFFFB0B040A06FDF5080609,02FF0003071001FCFDFDFD0D040202FEFF02FDFC,0A010AFB06FAF9FC00FCFA05FC090409FF07FD05
,0A0801FDF605F908FD000201FA0900F7070500F9,F9FCFDFBF506F7F8F8060201FD03FBF80E080BFE,F8FBFE03010EF5FA0AFE01FA130BFB05FCFB02F2,0008F702F4FBF9FD09F108F5FBF6F4FAF8F2F4F6
,0700F9030BFBFF0406FFFE0407F9F4F6F706000A,FBF8F80206FD05FBF702FCFCF9010312FCF204FA,FA0308FB000403080B0401FC05000602FBF9FE07,FDFD0506FC00FD00FD0D0901FF0100FB01FBFBFE
,0203FCFCFC02FF05FEFEF8F4FDFBFDF5FCFEFBFF,F8FDFAFB08F9FFFEF7FAFA08F6010A00F604F609,05FB0515FFFF0604060907EFFAFFFCFDFFF50002,0302000204FD030802000DFFFD000109FB05FE01;