; Layer 5: dense weights (Q1.6 format)
; Original shape: (400, 64)
; Total elements: 25600
; Quantization: 6 fractional bits
; Range: [-2.0, 1.984375]
; Memory organization: 400 addresses × 512 bits (packed)
; Each address contains all 64 node weights for one input
;
memory_initialization_radix=16; Hexadecimal format
memory_initialization_vector=F9FD01FD05050500030005FA0604FFFC0104FEFAF8030002FEF9060605FA05FB0005F901FEFDFCFEFAF904FA010503F9FC010003FE03FB03FFFEFDFEFEF9FCFF,0800FA06FDF9040202FCFAF9060305F9FBFDFD02FFFC0102040101FBFB0502FBFDFF0201FEFEFF010501FD04FE040406F9F90101FBFC07FCFE0006FBFBF9FCFE,01020505FBFAFCFBFAFCFEFD0104000202000405FEFCF9FB02FF02FC02FD01FDFBFD07FBFC0800060603050303FE030205FE0203FD05FF07FB06FF05FAFAFD06,FA03F9FA02FF0301020201FEFC01FF0104FC000404FFFAF9F9FC0205FE0204FD050700FEFBFF00FDFC010301FC0805FE01FE060005FF0307070404FE030502FF
,02FE00FDFBF9F700F904FF02F90305F8FBFE04F7F900FDF8F8050200F9040203FFFBFCFDFFFA040204030100030106FBFCF805FC0002060602F8F8FA05FAFFF7,06F905F9F8F906FEFBFCFBFEFCFB06FD0400F900070004FA0102FF07040400FEFCF7FEFF03FDFFFDFB06F9FF05000400FAFDFC04FF03FC06FEFEFA00FCFF0000,04FD04F8FF0203FBFEFDF80504FAFF00010303FDFD05000505050006FDFCFF0500FBFB01FF06F80AFDFFFA0607040606FF0201FC0404FA01FE02FE01FAFD0607,0401F9FBFCFDFB000000FCFC030604FA01FCFFFBFAFB05FBF9FBFD00FFFFF9FB0508FB0305FDFDFBFCFD0504FEFF02050405030203FAFB01F9FD06FC0705FE01
,F900FD05FDFB05FEFAFF040102FBFBFCFBFA0302020403F901FF0100FF00FDF905FCFE0202FD050105FA03FDFD07FAF902FAFBF60604000304FD00FF0DFB0307,FDFC00FE02FCFEFBFB0506FCF70303FE0203F902FFFA0301FD0409F9000300FE02FBFB050505FCFF02FEFA050405FA0407FBFA0202FC060605FE00F8FEFCFFFA,0401FF02F9FD05020400F9FDFA0305FE02030001FF04FC0302FAFB00FDFFFEFBFF070904FEFD0007FFFFF9F9FDFDFCFE0105FA0103FF02FFF901F9F90001FEFE,FF060604F9FCFBFDFC05FC02FAF9FCFAFDFB0304FA0801FE03FCF8F9FFFA04000802FEFE020004FEFBFF010101FB030000FEFC0604FE02FE02FDFDFA01FFFAFF
,03FBFBFF0000020100FFF8030401FEFCFE02F802F802FFFC04040305FFFD01FCFAFD0204FE07FFFE09F903030203FDF802FEFA00040204FBFE0505F904FEFBFF,FCFEF9060003FC01FF0506FCFDFBFE00FAFE00030502FB03FAF803FF06FDFBFBFBFC0504FE02F503F801F9FAF9FD02FB040601FE02FCFF010102FEFCFFFF0302,FFFAFF00FA030401FDF9030502FA04FFFF0202F9050207FC02FE0101010203050506FDFC03FCFA0605FAFDFBFC0704FBFDF9FAFBF80200FAFAFC04F90203FFF9,F806F905FCFC01FA04FD05F90403FF05FE0003FF03F90100020602FFFCFFFC0000FEFF04F70302FB030102FC0505FB0205FC02FF03F8F8FE0304FA05FF04FA00
,FBFEFAFBFEFA0204F80401FCFC03FF0205FA05FB06FC00FAFEFAFE050506010402FB0105020502FA03060004030304FFF8FDFC0303FBFD02FCF9FC0303FA03FC,04FE02030402FE0204FBFBF9FC0006FDFDFC01030505FA04FCF805FAF903FE0100030001FA07F9FBFEFC03060304FCF8FDFFFF0106F904050003F804FC02FE06,01FAF9FAFD07FB0705FFFF0503060600F903FDF8FBFC040001FDFEFE03FC0106FAFE03010100FFFD040201FB020104F9FB070502FF06FD03FB0200F8FFFDFC01,03FB04FC04020204FFFEFC0001FFFAFAFE05000205010204FEFB0306FFFBFD0101FDFD03F60503FB0800FF0002FC06FF01FEFDFCFCFAFCFD0605F9FFFD05FCFF
,000502FC06FCFB01FD01F9FBFAFCFF00F8FFFE020107FBFF0304FDFCF9F90406030706FF04FDFFFD05FF030203020404030005FA02FAFEF9010100F7FE020104,FC02FE0205FC0204FE02FD06FBFEFA06FC03FE04FBFA010204FAFA0500FA02FFFE03FD02FEFF05FD01FA04020202FAFF0306F8FBFE02000200FA03FCFC0306FF,03FFFEFCFF04FAFBFBFF0005F905F9FBFF0604FA0102FA03FBFAFAFAFD0405FC01FD04FBFA0501FE02FF02FF040501FEFEFC01FD0403FCF903FDFD03FE060303,00FE060706FA02050105FEF9010404000603F803FB0604F9FA04FD05FFFC0200FE06F901FBFFF9040206F903FCF9FF01FD02F9FFFEFFFE020500F90300FEFFF8
,F901FBFF0303060407FF0108060902FD0609FDFE03FAFA05FD01FAFFFBFF0601F90601FDFAFEFDF9FF06FF04FD0005FCFAFDFEF9FC0704FE000600070E01FA02,04FFFFF9FDF9FF080005020504FB070004F9F8FAFEFD010506FC0100050406FAFBFB02FDFEFFF9FFFDFD05FE05FAFDFDFF02FB04FFFEF905FCFDFDFEF9F903FF,FAFC01030403FFFCFB06F9FB040303FF06FA0301FAF9000301FAFDFE0502FD000101FCFCFAFDFA01FA030202FEF8F90004FE01FF05FCFEF805000004FA0005FB,03060601FFFDFD00FB06FC06F903FA01FDFF0409F9050400FD0605F9FF030403040404F9FC00FCFF0902FBFF00FFFDF9F801FAFC00F90206FDF801FA0BFFFBFF
,00FDFF03FAFDFDFF03FFFDF9FE05FDFCF9FDFBFEFE0205FDFA06FE0302F909FF01010303FA0207FCFEFFFB02FBFE0501060100FF04FEFD040304060102FDF901,030403FDFEF90203FB030105060407FAFE0001FC030403FFFC050503FD040301F90505FFFFFB00FAFFFE02040400FBFE0601FEFFF9FE040606FBFA0004FF0002,0202030401FEFF04FA0301FB05FDF9FA010101FEFC02040305010401FCFE040306FDFFF900FF08F90601FA05FFF8FC0400FB05FF0502F9FC07F804FC00FA05F7,060000FBFBFE0104FE0504FB03F901FBFA01FF05030701FEFD03FDFBFCFDFBFFFC0405FD04FFFF0001FEF9FAFBF8F8FFFD04FB03F90003FC0106FFFFFEFA0405
,05FE040300040700FCFBFC03FE0903FA06000005FCFEFC05F9FD05050700FB030605020502FF00FFFAFE00FA0404FA01FAFB06FA0101FCFDFDFAFD06FE0402FA,FF07FE0400FCFFFAFAFA0102F906FA0500FCFEF700F9FA040305FFFFFF06FB040303F9FCFAFEFBFAFFFDFB05070400F9FE02F9FE0203FEFDFA04F902FE03FD08,03F8FE07FC0205FD050304FDF9FA07FBFEFE030102FFFE03030502FB0502050502FB040305FC0106FE00FBF8FF02FCF9FAFD000703FB04F902FFFB04FCFEFBFA,FB000002060004F9FFFEF9FD05FFFBF90306FF01030205FD00F902FD03FCFEFA010404040107040000FAFFFDFBFC06FC04FAFBFEFAFC04FCFCFAFF04F8FEF901
,0602FCFFF8F9FAFEFFFCFFF901FE020406FFFBF902FC0005F9FBFF0201F903FB00FAFEF9FFFAFFFB030106FD04FB0602FA0002FA04FAFBF9F9F805FDFBFD01FA,060305FFFA050506FC050602F7FD000104FCFAFC0105FEFCFEFB0505FD0402FE0004FC0105FB04FBFE060404FF060605FF00FD0103F9FDFE0103F90003FD0101,F801FEFF04FDFBFBFF01000204FD030203000000FC050003FB0003F903FBFAFA04F80603FD00FE0204FC05FAFCFDFD03F8F9FF04FC01FB05FFFEFC0001F9FF03,03FCFCF9FE02FA020001F9F9F905FA060401040100FA03FD02FC0504FAFDFFFAFEFF00F8010003F8F901FA04FC0403010304060405FDFF0002FD00F80502FFFF
,FAF8FCFBFBFA0603FB08F807FCFAFA010004FA040401FC02FCF8F9F7F9FAFFFDF901F9FDFFFA040505000504FCFE020403FB00FE04FC0307FDFF01FE02FCFBFE,03FBFA0005FB0703FF05FDF8FCFFFE030605FBFD04F9FD0406050606FC030406FEFD00FEF80107FFFB00FEF9FE04FE00F902FCFD010100F9040301FC0206FEF9,03010502FD0400020103FD02FA0301FD0107FE070206F8FA0303FFFAFF050303FFFDFBFCFF060602FAFF04030606F8FFFD03F905FE01FE0601FCFE000605FBFF,02FA040105FFFC090002FAFFFD0006FFFFFC00FF01FFFAFE01FB02F9FDFCFB00FEFC03F8F7FA000009F906FDF90203F5FC04FA0001F906FC04FCFFF901FB010A
,04F9FDF800FEFE010101FEFF06040100F901FF020406FE05FEF90504FEFC03FCFEFDFFF900FA060502FD0000FAF9FD03FFFB0102FF0505020202F90604FE0005,00FDF900FEFBFAFD03FFFFFE0102FAF9FF04FAFF01FFFF0100FC09FEFE0303F901FA0404030302030503FFF8FDFF0402FD02F8080400FE04FD05FFF7020206FA,0301FF090100F900FB01FA03F901FEFAFC0607F904050403F903FAFDFB050001F805040405FC00F902070604FE0103FBFA01F9FB00FCFD00FB0505FE03FC00F5,F9F9F9FE06FAFEFB03FE0403F907FC01FE0403F8FE0300FFF8FF03060006080207FCFA0101FCFE07FDF900010606F8FCFEFC05FBFA03FAFBFF01F7FA05F906FF
,FCF9FCFB07FAFA05FEFFFEFCFFFFFCF8FA0001F905FFF904FEFE0404FAFC0200FF00F9FF05FCFA0404F9F804FC0104FFFD07FEFFFD0500FFFC0506FFFB030004,FDFF0307010300000201FF03FFFAF9FDFDF8050006F90000070100FEFAFDFA00FFFC06FCF8FC01050500FBFC030304FEFCF9FE050101FCFF02FB03FEFEFAFEFE,FEFC040400070406F8FFFF0201FFFAFDFCFDFF0505060503010402FBFE0103040205FC03020103F90404FB0506F9FE020100FDFFFE0406FD03040602FF03FCF9,04FEFAFAFFFF0503FFFDFE01020501FCFD00FCFBFFFAFC06000101F804F809FCFFFFFA00030405FFFC06FF0502FDFEFD01FAFD0004FC0202000202FB0205FD04
,FD000500FA010200FD020300FEFD0206FE0505FE0100FAFEF9FE01FBFDF9FA01F806FCFEFEFEFDFDFEFFFEF9000105030304FB020303FE0105020401040202FD,F9FFFE04FDFE0103F907000201FCFCF9FCFBFEFC050406F900FB06FCFF01020302FA030005FF03FD05000406FAFEF902FF0102FE0600FFFCF9FDFBFA0402FC02,02FCFC01FB0403FF03FFFD0500FA06030601FEFDFDF8F906010500FDFBFA0407FC07FD07FCFB000509040002FE0202F8040305FCFFFE06FAFD0602FE05070602,FE07020400FBFD01FEFA06FEFBFC060201FEFEFAFE0000F800FCFB0205FDFAF900FDFE06FB02FEFCF9FB01F8FEF906FCFEF8F90405FA06F8FC00FEFF050702FA
,04FAFF04FC0407020202FA04FC0003FA00020603FCF8FBF7FE06FDFD0300FFFDFC0BFEFE01FD03040007F801FE010303FEFB02F70504FEFA0402FE0605FE0102,FFFEFCFF0700F900FE0602FE0102FC03FAFCFEFF0708FDFDF9010107FCFB0603FAF9FDF902FCFD00FA000600FBF80503FCFBFCFE06FBFA050107F90202FF0103,02FF0006020602FCF90004FA0004FBFAFAFD05070400FFFA03FBFD06FDFF060200FB0205FA040606FF07FBFC000506FB00FB0103FEFD04FCFAFAF802FFFF0602,01FC07FC03FAFD050005FDFDF8040702FFFC03F7FC02FB0BF80304F807F9FC03F80407F8FE03F9FE0B02FC07F90104FF04FCF90705FDF9FB060103F906FF070E
,FDFEFE06FA0004040505FF050505FC06FD06FF00F800FB0502FD0007FBFEFC01040401F9FA04FCFF03FD00FAFD020303FC020001FC000504FA02020005FBFB01,0106030302FC07050000F9FAFF080203FB0003FAFB0000FAFBFE0100FCFEFC050500FD01FE0304FEF905FAFFF901F8060000F805FB03FEFA02FE020602FBF803,0100FD01FBFE05F801030600FD0003FF0304F9FCFF05FA0106FA000204FDFBFA0602FB0205FC0006FD030105FD040200F8FCFD03FA0706FF05FD0401FCFB0301,FDFAFCFD0005050502FC0000F90201FC07FDFF02FE04F9F8F8FE0303FFFAFEFD02FB00FFF9FFFD040604040500000100F9F9FFFC0005F90402FDFBFFFCFA0504
,FD00FAFB00FAFA0003050406FCFDFB050301F7FCF80100FD0004FDFF03F807F906FF010206FEFDFA04FD02FCFCFCFE0106FCFA05FE040606FC01000502F9FCFC,F905FC06FF04FA0003FCFC01FC0405FBFAFFFB0307FEFF030002010504F9020506F9FF06FE0005F9FD04FBFA02FD0001FC04F806FAFD03FAFA060006FD03FE00,F9FE0102FA01FDFC03040000F90705FEF9FF00F9F9010503FF05FBFFFDFBFCFD04030000FC050402FBFBFA05FF0206FD000403060203060304FD0003FB0301FD,FC03FBF9000204FB03FB0501F9FEFC0202FF010405FBFAFDF9FA02FAFF0306FBFE010005FD070303FDFF04FAFDFEF7FE020204FAFEFBFD0402FE0205FA05FFFD
,04F904F9FE05FA0104FD0604F9060601000304FAFCFC030204FDFF06FBFE04FC06F9FBFE00F8FEFBFFFEFAFEFC0104FBF90501FDFD00030301FC050401FB03FA,0403000101F90304FAFFFD0501FFFEF9F8FCFDF90102FBFE060400FC0700FEFF000402FBFC050002FDFE03010304FF05FFFD05020601020103FEFDFF05060506,03030304FB05FA01FAFAFF0506FE0402FEFD03F903FD0501FBFF040301F9FF01FFFF05FFF7FC0303FE05FA00040305FDF800FF06FDFAFA05F8010402FFFA0409,06F9FFFDFCFF0101FEFBFF01FC05FF0602FBFC00FAFF06F7020406FE00030002FB0105FCFD06FF02FEFBFF01F904FD0300FF0100FBFFFA01FF05FB0100060102
,0105FAFAFD030A0006FCFB0304F9FAF900FFFE0006FBFA0108FB02F70201FCFC040505FDFF0002FAFD06FA0302FC07FD0000FB040005FF04FDFC04FA08FA0100,FEFAFAFAF900FBFCFA0005FD03FFFE03FD02F906FBFDF9FE02FFFD0406FCFDFF02FA0300FD02FDFFFB04FCF9FBFC00FB0302FE01FB01FBFEFBF8FDFEFC070003,FF0505FCFF04FDFCFF00FEF900010502FCF9F90103FFF800030200020500FDFDFEFBF9FF0600FDFCFCF9FB060304FFFCFAFDFBFD0305FFFBFDFDFCFE0001FBFA,FAFFFC0105FF010506FEFF0305080304F9FDFAFB00FAF9FCFEFFF9F8F900FF0504FDFF05FC04FA070705FE07FC0D0203F8FAFB0306FAF9FFFB05FE0803FAFE01
,04F9FDFE00FFFBFFF9F9FD000401FB06FF04FAF8FDFC0306FBFAFE03FE0300FDFCF7FB060104040702F903030505FAFE02FDF9FCF803FDFD02050604020107FA,0002FB01FF0004FB05FB0506FC03020101FE03F8FCFB000005FB06FEFEFE01FDFCFDFB05FFFF03FFFFFBFFFA06FF0508FDFAFB05FC0203FCFA03FF02FD04FE08,03070601F9FB00FC02FCFB010307FF0507F9FB0500F9FAFF0407FCFEFCF90304FD0106FD07FC05FC05FC01FBFC0304FFFAFF010606FFFE090304FDFB02F9FBF7,FDFDFB03FF03F9FFF8FEFA02FEFCFFFD06FD000301F9FFFA0002FCFB05FEFDFBFFFF05F90002FCF8FFFF01060505FAFBFE05FB07FCF8FDF9FAFFFEFEFBFAFC02
,00040300FE00FFFD03FD03FD04FB06F9FEF9FCF80007FF01FAFB08FB000005FFFB04F9FBFA050505FEFEFB0101FFFA0303FD05FA06F9010000FA0004FBFC0002,FAFBFBFAF80302FFF9FC03F903FDF9FAFFF803F905020003FEFB02FAF806FDFBFE05F90400FC06FAFFFCFCFBFCFF00FE05FC060302F802FDF8FFFC03FB050504,FD0203FB020300FFFCF9FB0103FC04FEF802FEFE00FE03FF02F9FFFF00F90106FFFCFA01FD0705FA06FC02FAF9FEFD00FB0601FA0502010503FEFE03FFFC06FB,00030607010501FDFFF8F9FCFB060101FCFDFE05FD06F902FAFBFFFA01F80704000002FA0106FCFEFAF806FD0107FF06FA0100FCFA02FBF9FAF9FEFC0304FBFF
,FD06FCFCF8FC04FBF9FF00F9FFFF050404FAFAFE00FAFC02F90503F9FAFD01FAFB01000605FF0306FDFAFD02FCFEFA02FE06FB03040102FC01FE01FEFD0503FE,000302FC000501070302FA05020703FCFDFBFBFB06FEFDFD02FB03000606010307FCFEFE00FC0608FFF90407FEF902FAFE07FCFF06050505FFFFFEFAFBFC0403,010202FD0203030205F9FD00FBFF020701F901FC0108FB05F8FA00FD01FCFEFE03FD0605040403FCFD01FA0006000800FD05F902030606FE0404F900FC02FA03,FA01F901FF06FEFB00FA0201FDFFFDFCFCF905FEFD04060505FE02F8FBFBFEF9FEFE05020704FD05F8F9F902FEF80301F9050506FB02FBFE05FDFD05FEFC07FD
,01010101FA01FC0305FE04FBFE0209FFFD07F70001FD0206FF00F203020206030403FD06FBFA05F7FE05FE03FC010702020700FDFF05FCFCFDFBFF010801F304,FEFCFA0100070007F9FCFEFE05FFFA06F9FC04FBFC0202FF0106F801F9FA0007FAFF010404FAFAFC07FC0104FEF9FD0305FBFC01FB06FA010301FDFFFD040504,FD020200FE050404FF05FF030002FE03FBF9040104FA0602FF0402FBFE00FE0205FBF90306FCFB020700FCF90206FBFE03F90602FA0304FA0004FB0107FAFB00,00FDFAFB0000FB08FF02F8FF04FE0405FF03F9FDFF07FEFEF803FA020405050606070502FE04FC0600FB0301020004FBF701FCFC00FCFAFFFFFB01FDFF04FC05
,02FC0203F9F904FF0500F9F90400FF03FD02FDF90502FD03F80503FD0300FD00FDFAFAFE00F9FA010101FEFAFDF903FD07FE06FE03FAFEFE0502FDF9FAFE00FB,FB020506000002FAFAFFFC00F9FC00FD02FA0400010600FE04FEFF05F903FEFBFC0304FE0402FE03FCFDF902FC05FEFAFF0502FEFAF901F9FA010002F90400FC,FAF9FBFEFD07F800000501FDFEFF05FBFC04FA0103FEFBFAFD0506FE070500080500FFF8FFFCFEFA05FF0502FDFC03FDFBFA0405F80000FAFE06FDFB04FDFAF8,FC01040507FB0103FCFFFEF9FC05050500FD0302F9FDFE01FF02FEFAF805F9FA010104FE03F905FDFEFDF8FAF903F9020300FBFB0401FAFE06FE0602FE040506
,F803FBFF05FAFF02F90105FCF9FD00FE0602FB0304FDF9FCFFFE06F904FE00FB00FDFC0500FE00FAFD04FBFFFFF9FD0501FE03FC03FEFCFCFCFCFE05F9F90604,FDFAFB07F90705010105000405FB05F9FEFF0602FB0000FEFDFEFA04FCFBF90700F8FAFAF800FAFBFC00FE060201060100FD06050405050204FEFC0103FCFC07,06F9FA01040005FB01FC0304FF06FDFBFE01FDFFFC05FBFBFC0505FDFF06FBFFFA06FE0104070103FEFA01FD03040105FF01030800FBFCF9FB020102FD030303,040107FB01FA0802FC0301010305FCFCFC030304F904FF02FE00FE010101FBFA05FFFEF8FEFD05030301F9030603FFFFFB0100FCFA01FC04FE0004FDFEFDF703
,02FEFA0500FC0200FF0006F8FAFAF905FF0202F8F9FC03FE05FA0405FEFCFEFF0600FB050202FAFBFD00FEFFFAFEFC02F90001FC0602FA03FD05FC03010407FD,FDFEFDFEFA010501F801FA05FDFA0106FD04FBFA0005060006FB030602FFFDF9FAFE05F903FE050403FAFBFB05F904FD060105FAFB020207FD0505FA05020201,FB00F804FEFD030305FFFDFE06FB0302FDFFFFFDFDFD01FEFCFAFBFBFCF903FF06FB060600FF000306020307FC0102FE0101000802F804FDFAF9F9FCFFFE01FD,02FB0106F8FD01FCF901FBFDFA06FE0506FB04020606FDFCF9FB04FCFE0002FF0502F8FC00FE03FE040104FC030101F9FEFA040205FD03030003FDFCFA0504F7
,F7F7FE0703FC0801FF040007F90906060504F908FBFBFD040702020507020603F70BFFFEFF02F907FDFAF8FB02FE03F8F804FD04F90600FFFCFDF9FC0003F704,F7FCFFFEFD01FC07F900FC0501FE060101FAFA0003FB06FFFAFDFCFCFA0009FDFAFA03FDFFF8FD02060201F90402060006000002FBFA00FFF9FFFB08FCFE03FD,04F8FE01F9FAFBFDFE0305F9FDFA00F8FB0503FCFDFA030204050101FEFDFA00FB03FA060307F8FA02FAF9F8FB050403FBFDFAFCF9FAFA0002F90502F804FE00,F80106050307FEFC040103F908FFFF0303FD000705FD05FA0101FA0701FA01FEFCFCFF00F6000200FD04FEF8F906FF000101FDFF06FFFC0304FBFE06FFFBFC06
,FA04F9FD04FA010106FC02F9F801FB02FF0506FEFB07FDFD0603FDFDF9F8050505FC05F901FB00FEFFF904FA030104FF04F8FD02050104FDFBFA01FC01F90306,0403FFF905FEFD02F9FCFA0602FD0602FBFB0001FCF9FEFB060107FD04000404FFF905FCFFFF06FBF90301FDFEF9FA0304F9F907FB0303FEFF0606FAFB03FD02,0705FFFAFDFA060004FFFEF9FFFC040204FEFAFCFEFD050004F9FDFE00FC0504FF0105FAFD05030000080403F905FCFF01FB0102040307FBF9F905FC04FF0203,FEFAFFFC06FDFFFA030404000101FAFEF8FF02FDFE05050601FAFFF8FE0200FEFC020005FB04FDFDFEFCF906FFF902FC00040105FD03010404F9000601F90205
,FD00F903010304FD04FEFCFE04FD02F9FA0603FFFFFFFD01FAFFFDFCFFFB04FBFEFB01FA02FFFB05FD040105F9FEFDFA06FC000303FCFCFAFAFC04FCFBFFFBFE,05FF04F901000500020704FFFA0201F800FFFE01FE03F8FB06FD0300030402FBFEF80202FF01FCFCFE00F9FB06F9FEFE03FF00F804FA02FFF806FF03FA02FF03,0103060100FE03FE05FF0502FA0502030606FBFA02000103FAFDFFFC0000FCFF02FFFAFAFF0005FC040506FAFE04FDF9FDF9FDFA0205FAFA05FEFFFC00000001,FFFDF800F9FC04F8FC050504FBFD05FEF8FD00FA05050504020300FE0306FE050603FFF9F9030207FE02050604FD0300FDF900FDFEFAFA00FC0407FEFC0004FB
,0101F9FC0105F8FB03F90002FFFBF90407FD0205FDF9F8010401050006FEFEFDFDF9FF06FF00FDFB04FFFCFF040504FDFA00F900FA04FFFCFDFCF9FFFF0605FB,03F90400FC00FE05F9FEFB02F9040604060104FD0404FE01FDFCFF04F9FBFDFEFC00FA06F903FD0400FB0203F9FAFFFCF900FE0505FF060604FE0202FAF9FD07,F9FF0505FD000007FF05F80403FC03010505FAFE0205FD03FB0400FCFDFC06FC03010502FE06FC07FA0302FEFBFCF9FE010402FFF8FC0400FB06F8FB00040408,F9FD00FBFD03FAFCF803FC03F90500F905FF0104050005F806FA040204FEFA05FBF703FEFF010501FE050502040602FFFD05FCFBF802F903FF0001F9FDF9FCFC
,00F60001060704F903FDFDFEFD08FCFBFA0606FCFBFB02FDFCFCFDF901F904FEFAFFF60405FAFEFCF6F9FC04040003FEFA01FE0A04F903F901FA04FB0002F7FD,07FC04FBF802FD0000FE060302F803FAFAFA0BF90502FF010006FAF908FF03FA0406FDFD0001FCFEFF03FD010301FEFB02010204FE0205F9FB0505FD08F9FD0A,04FEFC05FDFFF804FF05FF01FEFBFB05FDFDFD00FC03F903F9FBFC060502020404F9FA03FE0502FB0406FD040401000304FD0103FEFA0705F9060205FEF902FA,010101FEFE03FBFD04000200FAF5020206FC0A02FBF9FDFB00FA03F9FD0402FD08FEFC01F8000C03FBFC04FA0500FBF701FB04FCFCFDFF0802F700000D06FE04
,FAF9FEFEF80202010106050205FAFE0604FE00F9FE00FF080301FAFBFEFFFEFC030001F9FB01FAFD060300FB00FA02FB0404040100FFF9FD0501FE010206FF01,FFFE010501FAFEFC0103040604000405FEF903FA01050505FDFA0002FDFD0203F90600FA0400FF000004FD02FC060103FCF9FD0405FDFFF902FC05FDFFF9FF00,040302020305FFFD08F804F906FB01FFFEFAFFFAFEFBFC0206FAFD0101FF01020201020403FD04FF020401FBFE06FE0603FD06010003F9FEFEFF02FA0202FCFD,0404FD02000001050201FFFB0200FF0401FE01FD02FCF8FE00FEFFFCFFFE03FC0303FD02F8FF0700FBFD0103FB05030B0204FFFC03F8FFFA07FCF9040304FF00
,05F9040101FB050604FF0301F9FA00F8FDF9FA0601F906FE040506FF02FE00FDFD0300F90202FE020104FC020303FDFBFA0605FCFB0505FB01FD020004FF04F8,04050503FE06FBFEF9FDFC010104FF0106F9030501F9040700FEFCF90703FAFCFDFE0500FB04FEFA0500F9FEF805FCFEFF06FC03F9FC07020303020607F80605,F8FA02FFF907FB04FF0101FDFAFAFE0303060400FBFF05FB020300040303FA010002F9060006FE00FC04FDF80401FFFAFAFD01FFFB00FC0205F8FF0407FBFEFE,06FA000300FBF9FC02040302FFF90206F9FB0203FE030800FBF90A01FB04FF0300060103FC00FF030704FC06FCF9FF08FCFFFA06FAFD05FE05FEFE00FAFF0803
,050605FBF90203020202FE0203FBFFFEFD0602FBFC0505F801FFFFFAFDFC0205FFFDFFF9FD06000104FFFAFFFB04FD05FFFD060401F90001F902FEF902030303,F9FC030202FDFB0405FE05FC03F9F903FAFCFF0101000402020000FFF9FB01FE040404FDFFFDFAFF04F9FFFEF9040604F8FEFCFEFB06FAFFFE05020503F801FE,030606FEFB06FC0505FAFD0303070103FB070101FA01FC04FEFEFD06FBFC05FFFCF602000501FD080402FCFC05FC01FA06FEFAFDFBFF07FE0505FBFA03FA0708,FAFAFEFAFFF9050603F9FA0301FDFBFBFA05FB05030604F7FFFF0104FF0200F80305FF04FD0101FC00020505FF020402FDFD0601F902FDFB0004020604FCFAF5
,01FB0303030003F9FD02020502FAFDFBFBFF0705000806040004020507FC010305FA0201FEFCFD01FA0400FAF7FCFE0707F8020704FAFC0200F904FF00010300,07FD01FB06FAFE070307FDFFFC04FDFE020002FBFF0202FF05020304FC0002FAF9F800FB0001000104FCFAFA0201FD030002FF04FD0106FC0204010607FDFB00,FDFEFB030203FFF9FCFBFF05FCFA04F9FA0702FD03F801FFFBFF0606FFFDFA04070303FBFBFBFA00030403FD05FF06FFF9F805F906FC050506FBFF0600020003,FBFD06FEFF03FFFEF5FBFB04FC04F90306FA0902FA0207FF03FF0503FBFA0206FAFF04030003FDFE060402FFFCFB0500FB02FEFEFEF8FC04030302060202020A
,FC03FA0500F9000202FAFC040507F9FD0004FE05FD04FFFE04F9010401FC020303FFFCF8FD0503FD0206FCFB0601030302FF00FB0304FAFF04F800FE0006F902,FE02FC04FBFBF90503FFFB06F6F903FCFC020400FC02FB0400F900060406020502FCFEFFFB00FB01020103FAFEF9F90105FFFCFA05F9FAFC00FC02FAFEFDF9FB,01FEF9FF04FDFDFF04FFFD07FEFC0306FBFBFBFF050803FA03FEFEFA0800FF00FA0701FC06FCFDFFFEFCFA0501FA05F9FB030300FA0503050304F90304F9FCF9,0004FA00FAF90307FCFAFAFFFCFCFEFFFEFC0101FE00050603FAFAFCFDFA0601FDFEFDF9F70004F90503F804FDFD01FFFAFC06FFFFFD06FE010504FEFDF90105
,06F802FA05FBFBFA0600FFFE03FA02FB0203FD0701FF01FB05FBFDFFFBF9050400FB060506FC0501040006FBFA04FCFDFEF9FF04FA02030401FD05FA0005F8FF,0301FF04FB00FD03FFFF01FEF9FB00FB0105FFFB010003FF020101FE010509FD03FF0206FAFC050006FEFAFE0102FC020206020505FA020004FAFEFAFBFC0405,FDFB0500FD05FAFE07FA07FB0406FF000201010600FAFCFCFEFC010701FCFCFEFF040401F901FC0106020006FEFA02FDFDFFFDFDFE00FB020405060607FB02FD,FCF8F906FEFBFFFBFE03FCFA00FD0301FD000806F9FAFF02FA0507FCFBF90005FFFBFFFDF9F904F901010600010307FE02FA010305FEF806FA0104FCFC050604
,010502FBFBFA00FF02F8FDFAFC06FDFDFFFEFA04FAFD06F903FA00FE070100FBFC0404FC040402FFFEF905FD02FDFD01F9FC000202FFF9FD0302FD0401FA0705,FEF9060204FB02FE0203FEFBFB02FCFDFF0505FAFBFCF80702FD04020305FC01FDFF07FFFD0204070604FAFCFCFEFAF805FB010602FAFFFD0303FEFEFF020205,FD0301FE01FA0402020506060001FE04040102FE00FEFBFDFEFFF7FC0405FD03FDFE04FBFF03070604FCFE0003FF0406FCFDFFFBFCFD06FB0300FDFC05FBF9FE,F904F8FAFAFC000004FAFB0104010103FF05050303FDF902FF0603F90202000303FAF800FA01FC03030600020301F80604F901040005F906FD00FF00FE02FB02
,03FDFF03FA0806FC00F80505FFFE01FDF700090200FDF8FFFCFB05010C01F703070308FCFC080506FA05FEFAFB0405FF00FCFF07FDFF0104FAFA01F8070206FC,FD01FE00F9FFFA040101010706050106FEFBFFFD01000500F8FC060203FF0003FBFAFF0102FA03060606FA0303030204020003FD07FEF90105FB05010505FE00,06F9FB0202FF01030605FE02F9FAFB0007FDFEFD01FEF9FBFCFF0002FFFB0604FFFAFAFB02F804FC0000F9FBFF0203FEFCF900FCFF0406FA05FF0203FCFE04FD,01FBFFFDFE03FEFFFFFA03F90400FEF9F90103030200FD03FEFE020503FA03FC07F9050201000001FBFB05FEFC07FC02FBFBFA07FEF8FA040604FDFCFBFF0606
,0606FDFEF901FB00F90303FAFF05FEF90400FDF9F9FC02F9FFFFF9030602FF05FC0405FC02FFFCFC0405F9F9FDFF060300030305FBFAFFFF02FC02FBFEFB06FD,05FF0504F901FB010400F90200FB0406FFF9010005FD05FFFF05FD05FDFBFDFAFBFD01FEFDFD020006FA00F802020503FDFEFCFC05FFFC0004FE02F9FDFF0201,FF040206FE07FAFC0300FC06FDFCF9F907F9010301020003FAF9040007FDFB040708F8FDFA00FBFF00020604F9FB00FEF9FAFB02FC02FDFAFCFD02F9040304FE,FA01FEFF05F901F8FAFEFEF906F8FEF90006FE01F9FFFCFE0203FD01FF010405FEFE02FB0202040100F804FBFC050505FCFBFAFAFBFB02FA06FC0200FE0200FD
,07FB05FCFE0103FE0401F8FDF9FD0204FEF90706FE010203F807FFFC0502FCFA03FD03FAFDFD0402F905FD05F9FC010304FEF8FD010506FC01F9FF010401FB02,FF05FDF805F90006FE0100040402FCFCF9F904020206FB0203FD05F8FCFEFEFA06FBFF01FCFE020400F9FBFEFCF903080601FFFA05FE0201FCFB00FFFDFB0105,02FC00FCFD0304F9FCFB02FD0601FFFD0100FFF90105FA02FC0306FDFDFEFBFAFD000105FAFC0105FBFC02FDFFF9FDFC03020604FC03FE0205F9FDFFFC0302F9,03FE03FB03030404FBFBFB02FE04FFF8FE00F9FBFFFB04FB030301F9FA02FC0405FCFEF90302FFFA05FDFFF904FB0304F9FEFDFE04FCFAFB02FC060102F80106
,FE00F8FF0500FD00F8010100FBFAF9F9FAFBFB0105F9FFFFFDFAFC0301FFFCFD00FEFCFA04FE05FAFAFD06FC04FFFC04FFFB02FFFF06F800000102F9FEFB02FB,03060402000004FFF9FB0100FB050607FDFBFC01FA0106FE04FDFE04FDFBFDFFFEFBFFFA03FB04FBFC0206FD05FCFD03FC02030502FD07FAFD0305FC0401F80C,FDFF03060301070202FBFBFA05FB00FB02010804FBFA0205F901FCFAFBFB06030107FD05FDFD0307F9FA05FF06030101FFFD03060200F8FAFA0500FB02030007,00FBFAFBFB06FC0004FB06FF04FC0301FAF9FCFFFBFC0202F9FE05F8FCFF0403FDFD01FB05F902FDF8000501FA0604050605FF0704FEFAFDFA06FBFCFAFD09FD
,F901FA04020805FB010002F807FF05FF0304FB03010806010104F40401040900FE0501F9040400FDFD0002FFFB07FBFEFEFFF901F9FE0005FFFA04FDFD01FB02,000404FB04F9FEF804FA00FF0507FFF80305F9FAFBF8FDFDFD05030503FF04FAF9FE02FCFF07FBFCFDFF0606F80501FC0603FA0104F90506FA0503FFFF010706,FD05F9FAFEFDF9F902FE00FD0600FDF902F900000303FA0306FD02FDFC02FAFB0403FD00FD03F904FFFB0004FBFCFBFCFEFC010504FD0606FEFDFA06FF00FFF6,F9000101FE04050603FFFC00FFFF08FBFC030104FE03FA07F805FDFDFF02010007000A06F8FBFE0108FFFAFC04FC06FEFEFCFF06FE06FC0205F700FD02F9FB08
,07020301060102FDFAFAFE02F9030402030503FF0502FD06FCFEF90401FE0405F9FFFB0202FE02FBFAFCFCFD01F80600010505050306FAFFF9F8F9FF0106FD00,0703FE040202FF01FC02FD030104FB00FF02FF05FAFCFD060406FF01F80101F9030605FFFBF9FDFD01FAFBFC0104F901FEFE01FA0003F800FD01FB03FF050505,00FD060204FC0106FA030400000504030204FB01FAF9FB05F9FA020202FA0406FC02FA0200F90203FBFAFA05000002000600050504FAFD00FB030107FF040600,01FB010503FD03FD02FE050003FDF90206F907FBF90704030506FAFCFBFA00FF000401F903040104FE02FB03FFF90206FA03FCFFFAF9F8FD06F90604000201FD
,00FA010102FD060403FDFEFEFCFB0001FFFA0301FD00FAFAFF05FB05FF02FCFAFB0000FB0002F903FF04020202FFFC0001FB010205FCFEFFF9FF0503FDFE00FC,05FEFEFCFF01FFFCFF01000004FE05FCF9FCF9F9FBFEFD010006FB01000203FF05FD03FAFFFD02FBFA01F90000F9F8030402FA01FEFB04FEFD0003010304FFFF,0102FE00F902FDFD0002FD0406020201F9FC04FDFCFA030000050602FEF906FE01F8FB0002FC000104FBFE03FFFEF90300FAFEFE0303050301F905FFFA02FAFF,00050303FDF90404FF0103FC04FB03FEFEFFFF0406FF030003060306FE0401FF04050302FEFDFBFEFE01030302FFFD020304FDFA01F8070604FC01FC00FBF900
,FCFAFDFBFD020305FDF90301FB040003F9FA03FB00FA01FDFE02FF03030501F9F90704F905FBFEFEFB05FBFD01FFFB0201FCFFFFF806FBF9FC000604F9FBFFFF,06FFFF020500FC04FD04FFFEF9FF0005010502010104FB07060400F90602FD030602050405FAFC020405FE0203FEFBFB01FB0607070605FDFAFBFDFA06060201,FBFBFE07F90302FD07F8FF01FB0604FFF904040501FF05FAFD00FBFB000007FD060201FFFEFE03FAFEFCFD07FCFC04FC03FCFF00FFFFFD0406FBFB00FCF802FD,FB03F80201FDFD0103FA04F900F903FDFFF800FDF9FBFC03060502FC05050203FB0101FBFEFE07FA010505FDFEF9FDFE050100FB04FC0301FAFE04FCFBFEFFFF
,F8F900FB05FBFC04FAFE02FB07FAFDFBFEFFFC0906080602F90003FD0901FA01010301FD00FD05FEFF000204FA02FE0404FE0200FEFBFA020305FE0004050402,03FFFFFEFEFB04FCFA04FFFDFC02FAFDFBFCFFFD05FA060001FC0304FCFEFC04FF01FE01FAFBFC0402FA00030006FFFFFFF906F806F9FD0105FC040006FAFB01,04FD0503FD060202FEFA03FEFE01FCFD01FE06FFFD04030306FA02FCFF02FC010401FCFC0404FE0307FBF9FAFE0400FDFB0006FCFCF9FBFD06FAF8FE0203FD00,FF03040203000006FCFCF70305FAFEFCFEFBF703F9030504FCFA0003090502FCFF01FC04FFFE0AFFFBFBFAF8030906FA03FEF7FDFE03FBFCFCFE0507FBFBFC02
,FA0304FA04FC05FA05FD02F901FF05FEFCFCFB030101FA030302FEFE01F90405FEF8F70204FE05FE06000201FCFE05FFFF0001FAFF03FDFC05F905FD02F802FA,01FAFC04FBFF01FCFDFE0402FDF9020503FE06FAFB06FC02FE0101FFFBFD03FCFEFC0206FAF900FE0606010503FBFD01F900FDFEFD0203FA03FEFD02F805FBFD,0105FDFD05F9FF00FAFF02FB07000203FD030702FD00010002FA01FBFAF90001F9F8FA06FCFAFEFCFBFA040502FCFCFBFBF8FD0404FBFBFB02010100FCFDFE04,FDF9FEFFFDF9FB0006FEFDFD06FF0102040301000003F9FCFBFDFB04030005060300FCFB00FCFC05FF02F90000FF06FE02FEFC06F9F9FA02F8FF02F900FA0003
,FEFA06FCFB0703FBFB06030501050505FFFD020504FDFAFD00020202FF00FF060504FF01FEF8FE0100FEFEF900FBFB060300FB00FA03FFFE0404FAFDFF06FB01,F902FBF902FDFBFA06FA0405F9FFFFFB0303FCFCFC00F8FFFE01FCFF05FD05FFFA04FEFF04F903FD05FB0503FCF906FFFF03FFFDFA00030205FF070403FCFFFF,FB03FC060207FB0605F904FF02FFFB0205FD05FD03FA06FC02FAFDF904FAFAF901F9FF01FEFFFC06F901030300FE030500FCF8FC06FEFBFD0602F8F801FD0504,F905FE02FA02FA05FBFFFB0201F9FCF90106FF08FFFDF803FA06050105FEFCFEFD0303FA06FDFEFBFC0404F9000100FDFBFD05FDF8FC02FFFEFF01F80806FCFF
,F8FDFF02FAFCFD04FD01F9FDFB00000101FB03FEFA0005FAFFFEFBFEFAFCFE03F904F90305F904FFFBFDFE05FD04FE03FA01030101FF0504FFFF01F904FC0003,0605050302FAFDFEFAFC06FDFFFC0700FCFEF9FC03FC05FE0101FB01F9FC0002FE0403FF0403FCFEFF060502010102FDFA03FBFAFA03F802FDFA020601FEFAFB,FE03060604FDFAFBFF01FDFE04050306FFFB0501F906FD020203FAF806FC01050502F802FE0102FF03F9FDFAFDFB06FA02FA05FCFCFDFEFEFAFEFE0504FA02FF,00F9FFFA0303FB0606F9F9FD0708FC020203FB0305F806FD030402FE01FD00FAFDFEFF02FC0004FF0305FB05FC06FE05FF0403FA02FBFAFBFDFC0203FB01FC06
,06020501FB04080407FE00FFFA02F9FA0407070205FBFAFEFE010600F4FF070507FDFEFC03010608FEFFFBFFFD00FDFF0200F9FBFEFD0106FBF901060AFDF9FC,FB00FDFC03FD07000401FEFCFD010506FBFA0006FCFFFB0501FEFD0101FD01FCFEFD0006040108010000F90602F9FD0606FAFCFDFE06F903FD0503FF0503FE03,04F7FAF8FAFDFF020502050606FFFCFEFEFDFF0301F902FFFD00FAF9FDF9010603FEFDF90505F8FBFCFCFBFCFAF8FA0901FC0202FB02FFFB06FDFEFF0306FCFE,02FFFCFF00050A05F904F6FB07F9F8FF07010B0307FEFA00FAF802F700FA01FC07F6FE01FEF7020200FD01FD0502FCFCFFFD04010602FA010204FB09FBFE07FB
,FCFC04FC00FE0100020304FFFE0601F906FE0305020001FEFC0200FA06FEFD000003FF0104FA04FF0400FD06050604FFFD0304F906FB01FDFE060002FE0503FF,04050300FA03FF03FEFB03FAFEFA0503FC01FEFFFFF903020502FCFC05FE04FE07040504F8FC01FEFEF9FC030700FC010503F9FEFBF905FC01F8FDFB07FF0201,F8FF00FBFEFDFEFCFBFE0204FA06FC02FEFBF9FBFD03F9FDF9FCFF060405FDFAFF0100FD01FAF6F902FD00F9FE05F8F5FDFC0204FEFC030000FCFCFBFF060205,0002F9020202060305FEF90100000305FEFBFAFAFEFA0404FF0302FCF9FD03FDFB06FBFF04010501FD01FDFFFD030301F8FBFEFC0204FD02FB040501FAFF01FE
,0105FBFFF904030204FBFBFC02FB01FCFB00FB07FC0105050505FCFF02FEFDFCFBFFF8FCFBFDFEFBFCFD07F800FAFBFDFAFB06FE00FC04FAFB0300FEFD02F902,00FDFEF804FEFAFC0001FEFA06FF00FE00030003FC06FA06FB06F8F9FEFBFC010201030100FDF8FD0502FA06FC02040201FBFAFA05FE0106050400FB06FF06FD,FAF9F805FFFF01030505FEF9FB03FA00FC0200FC02FD01F90001FBFF06FCFFFC02F8FA04040403000104FC010604FE00FC02F9FBF9F90207F904FD050106F9FA,FB06F90607FDF9FDF904FAFCF800FD02F9FCFB0701FD010402F90AF801FFFF0307FD05FFFDFF01F8FD0105FEFC04FB07FEFD0200FFFAF801FAFE030504FA0607
,01010501FE040602FCFB040606FAFAFDFB01FE0602FF02FFFE01010704FE01FA0701FFF9FBFCFEFC01000102FFFBFFFD04FF00F9F8FF030600F806FCFCFDFC00,F9FAF801FD0505FF00FAF9060402FA06FDFAFB0106FAF9FCFAF9FDFC02FB07FDFC05FE0106FE07FD03FB02F8F906020503FA02FC06FD04FF00F9FBFB04040300,0206FAFF00F903FB05FAFD06FA080600060400F9030303F90600000607F90100FA030201FD04060BFC050500FF0200F80202FAFFF8FF03FDFD02FDFC09FBFCFD,FE05FCFCFAFBFAFA04FCFE0105030401F907FA070303FFF90200FFFEFDFC00FBFEFDF9010100000004FAFE06FE00FD0305FB03FFFAFCFC00FF03F90006020405
,06F9FF03FD0008FF00FEFBFC04F502F9FCFC07FCFBFD0500FF040106020105010106FCFAFC0302FDFE08FA00FC02F8000301040208FFFAFD05FAFE050201FB01,03000404FBFB0501FA00FF0205FA00F80400FFF9FAF9FF000306FEFCFF020303FCF802F905FA0402FCFEF80707FFFAFE01FA0304FF030306FE07FDFD02FFFF04,02020200FB0100FAF800FB06FCFA02FFFBF9FC03FE00050506FA02F9FC020603F90002FAFDF80302FC05FCF905FFFB0800FD00FF03000201FAF90300FD040403,FCFB0102FB0205030200FAFA05FEFCFCFC0202F7FA060500FBFF04FAFFF80808FFFC0305F8F801FC02FAFC01F9FAFAFA02FA0300030106FEFC01020000FF05F9
,01F7F9FBFDFFFE04FBFB03F90502060301FB01FD04FF0602F906FAFE040101FEFC00FDFA05F9FF040004F9FCFFFC040105000502FBF904F9F904F905060204FE,FA01FDFCFFFCFA06F9FEFBFD02FEF904FC0002FD0203FDF9FBFBFD0706060103FCFF00FA0403000500040000FBFEF904FEFA0503F805010604F9FE06FA01FF04,FBF9FCFAFAFDFCFAFF05FBFAF702FD020002FD0502FDFCF8FE060301FAFEFCFD06FEFEFAFFFEF707F900F9FEFCFAFCFC05F802FB03FEFF000203FF010805F8FF,00FA060305FCFFFAFAF8FE05F903FAF9FCF9F8FD01FBFAFF05FBFFFD05020203FA05FDFC020303FF05F906FFFB0103FA0103040104000200FB06FBFBFFFDFB00
,F9F903FFFB07FDFB01010504FCFF05FE03FBFFF9F9FAFD0203FB02FFFB0400FDFD00FCFA03FB000303FAFFFAF90300FBF801FB06FDF90405FB0303FB06F90502,F904FE0204FD0400FD0501010203FB05FAFE0403050100FBFFFBFF01FA0404FF05060006FAFFFDFCFBFF0604FC000300FC0602FE0401FFFA02FFFE0205FEFF03,03030603F9FCFD00FA0403F905FC04FCF8FD0305FAFBFC060302FD04FAF80103FEFC03FE000606FA02F806FDFF01F8FBFE03F906FAFF01FBFE05F80300FD05FE,0604040403FEFA010504FF04FC04FA06F9FC04FEFB00FAFF030608FCFE04FE0005FBFD05F9FC04FC0306FB0606FEFFFAF9FA0404FEFB0602FCFF04F900FBFFFF
,04FBFFF9FA00040701FFFF010600FAFC01FB05FF04FBFB04FBFAFD06FF02FB0200FAFBFEFC01FD02FCFFFBFB0101FDFEFF00FE0504FDFE0303FAF9FDFD050500,0204FDFEFE03FF00FEFDFF00FFFA0605F9FC06FAFBFAF8FFF9F9FEF9FB02050206020202FBFE04FDFAFB01F8FFFA02010201FC01FA0003050202FEFDFE0201FC,FAFA0406FFFA0002FCF8FBFB06FDFE050402FAFBFCFBFAFC05F9020906FC0605FAFAFC00F6FA010304F90500FA0002010503FC04FEFEFDFE00010203FBFBFC02,F80405FB06FD02010204F8FAFB02FDFDFBF80504F9FDF902FEFF0405060402FEF9050305FFFD01FCFFFD0205F9FAFF0401FBFDFBFDFAFA05F801F700FBFC04FB
,0401FB01FF07FD0109FD06FC04FEFEFFFE0106FB03FF0203F7FB0400FE000300FF05F9FE030207FE04FF0202FFFD01FDFD06FF040505FA05FB03010603000600,05FBFBFD06FEF900FBF9FDFDF9FF03F9F903FCFD05FE06FB020003FCFCFE00000401000202FBFEFFFB030005FFFB01FE05FEFFFE04FDFE06FAF903FB00F901FC,FDFBF900FB02FEFCFF000107F9FD020001F9FB0404FFF9F9FA01FD02010301F905F90404FDFDFC0403F906F90502FBFEFE040202FFFAFA030001FCFDFBFEFBFA,FC05F904FAFFFE05FFFE03F90205FBFFFE040801FF0303FE01FB080707FA0609FFFBFD0200FD040009FBFF050104FEFFFE01000502FAFFFD030001000200FBFF
,FCF806F906FBFFFA03FD01FFFF0200F80103FEFF0000FE000403FDF900FC01FDFF0001030100FF03FA07050403FF07FDFC0706FDF900F902F90101FA0500F904,0603F8FFFFFDFBFA01FD01FC050101F8FEF9FDFC04FC0200FF07040501F8FDFEFA030203FBFF0206FC0003FCFD030005FE0502FDFE0402FCF9FB04FC05F80200,FB0304FCFA0303FBFDFAFE02FA00FEFFFA04FCF905FD000305F904FF050501FA0304020200FFFD0500060502FA02FBFD05FD05FDFF0006FDFF040604FC00FBF8,0100F8FE0602FF01FAFDF7FD05FE030201040003F9FDFB04FAFDFEFBFB06FFF900FF05F8FFFEFF0302FEFCF9FCF90105FA000206FFFBFDF9FBFCFAFA01FD0401
,FF01FAFDFE02FC01FC030504FAFA050606FDFB0400FB0004FEFAFA00F80504FE0703FD0300FE05FBFC01FCFE0304030401000004010505FBFC05FDFDFC060702,01F9FEFF0403FA020007FEFA07FC060003FC05FD04FEFCFDF902FF07010305FAF9020403FC0500F905F9F803FD02F90702FBFB0503F901F9FBF90600FC020500,FCFE0207FD070006040100F905FD05FE0506FA0501FAFF01FC0304FAF9FF04FF01FCFE02FF020906F8FEFDFF0500FB000201FC0005FB06F9FAF9FA03FFFA08FF,FFFDFC04FC0001FA020203FFFF0005FCFB030507FC030501FAFAFEF9FDF801FC0005FAF900F8000605F7000205FF0501040602FEFBF8F9FF05FF0103FCFA01FE
,03FB00FE05FD00F8FF02F8FB03FB0205060603FAFDF9FCFC07FA02FBFF04F90302FEFFFE06FEFD0103FEF805FCFB01FF0602FB02FCFDFE05FDFB04FC02010303,FBFBFFF800010000000705FDFD04FAF80203FF04FD02F90300FFFAFEFDFC01F8040004F904FE02FB0302000402FCFFFFFF02FAFFF9FF00FFF801FC050206FA01,FFFDF9FB02FF06070001FA02FA0405FD01030305FD000501FFFEFFFC02FBFFFBFFFFFEF9FEF9FBF8FBFD03FCFE030005FCFF03FCFA04FF0402FD05FA02FA0206,0102FDFB0501FA03F8FEFCFE000401FBFA0403FB02000406020302FFFDFEFB020002FC03070106FC01FF02FBFAFDFA02FB03FF05FE00FF0503FBF904FB040100
,FE0407FC0203FA02FD0204FDFF0004FCFD04FB0100FFFF0505FD06FE00010D0208FD0606FAFFFD0601FDFAFA01FE01FA0104F702FD05FF0305000403FF05F302,030202010301FFFCFD030506FDFC03FFFBF8FAFC02FF0407FDFE0001FAFF000305FD040505FD030200FA02FFFD0101F505FB0403FDF9FF0006020006010504FD,030000FD060403FB0006FDF907FFFBFAFB0203FA010601FBFC06FF00010103FBFC0504F803FDFAFA010603FE0405060402F803F8FF0606FC010301FEF90508F9,FD03FD050501050303F9F9050503FBF9FFFC04030401050105FFFA000100FDFEFB00FCFB0203FE03FDFBFD04F80305FCFD0606F903F904FA05FAFE060305FB02
,FB0000010007FBFAFFFC03F8FA0104FFFEFEFF00FB0700FF0100F901FFFBFC0501060305F9040703F905FBFA0501FC060101040502FCF902020306FC0503FBF9,FEFE0606FE07FC02FF00FEFC030400010602F904FFF90102020401F7F8F90600FFFA05F8FE0402FB0601F90000FE01010101FAFCFA020303FE000404FCFBFDFF,0504FE07FA070304FBFBFEFBFF00FB0602FF06FBFEF9F80102FCFBF9FEF8FBFBFA05FDFBFD05FF020804F9FB02FE01F9F8FEFB01FD0302010402F901FA0405FF,0101FC04FBFAFD000703FC060706FB0506FD0203FEFEFD0603FB00FE040004FDF90501FB02020300FC02FAFE0601FD010502FDF801FEFB04FC010600FB01F801
,FA01FA03FEFB030004FE05FC00FC02F906FCFA0600FDFFF906F900FA01FC03050207030105FEFD0405FCFE04FCFE010405FE050606FBFAFB02FFFE0004FDFDFD,FBFEFD04FEFF05FA04FC03FB0006FF00F9FA05040500FC06FF06F8020004FFFDFD05FDFCFF0100FC02FB0104FF04FAFC0606FCFFFD02FA01020306FBFEFD0105,FCFC02010004FFFFFDFB01F8FD03F9F8FDFCFC0506040104FE0006010402FF0604FC06F8FAFFFBFDFB040104FC0605F9FC030402F90300F9FCFBFDFB05FDFAFC,0103FCFCFEF9FBFC0100FDFB05FDFEFC040302FD02FD020301FCFD070603040200FCFFF907FCFD04FEFFF9F905FD060602FAFFF9FF00FA0403FCFD05FBFB08FF
,0404FF00FC01FD0500FF05FA03FCF9F803050001FA02FDFDFA0200FFFC01040300FEFE0206FD0103FA010400FD040503FEFEFA0306FA02F9FB0503FEFF00FF03,FD060601FD01FB06FE02030000FE0305FA01FD05F900FB04FD03FEFB0604FCF707FCFC06FCFC0205FE0506F9040101FC0203F9F903010004F9F903FDFEF90300,01FDF8FDF906FA05FBFAFE0101FC0300FD0308F6FA0201FB01F802FC02FCFEF9FEFEF806FA0400FC05FA000706FDFE00FB04FEFFFAFB0304FC04F90506FCFA09,FCFD03070702FCFB06FE0203F90604FBFDFA04FEF806040403F903FB0502FA04030004FA03F8FD01FAFB06FBF8FF020104FFFBFD0501FAFCFE000305FD020103
,FAFA04FF02030605FD04F8F800FDFAFFFEFA02FF0100FB0705FA030608F907FBFA05FAFA00FAFB07FA0404FEF8FE07F90504FDFB04FC04F90105FA06FF04FDF4,FE03FC00FAFD0206FDFB04FA00000604FA0203000405FC0604FA05FF02FC0205030508FE01FD020003FBFFFEFB0202F801F90501060500FBFEFE00F8FE01FAFD,01FC06F804FF00FCFFFAFE0605050702F905FC02FCFDFDFBF9FF0505000605000606FBFD04FCFBFBFDFEFA060501020005010003F80406F9060402F801F901FA,03FBFCFFFC01F9FCFC0104F9FEFBFC05FC02FBFD04050004F7FDFF04FE0005FCF9FEF703FEFFFEFDF9F70000FBFEFE06FD03FBFA0204FC02FE03FC04FE06F901
,05FF00FBFE0205F9F905FB05FB0600040303FDFAFCFEFE01FCF905FEF9FEFC030001F906FEFD040706FAFCFDF9FEFDFBFFFDFDFFFEFDF9FCFE00FB020402FE00,FAFE04FEFB04FCFA01FE0401F9FCFF01FCF7FBFD01F800FB0005FA04FF020104010604FEFBFC07F9FCFF01060606FEFFF900FBFDFBFD05F9FEF902FDFDFF03FC,FA0400FD05060002F90201060208FAFA00FDFC08FFFB05FDFEFCFBFE02FFFE0106F6F9010003FFFF02FC03FC01FF0001FD02F9FFFD0108FE03F903FFFE060004,FBFB04FFFD0300010404FBFAFCFCF801FB0305FCF903020403FA0302FDFBFFF8FB02FEFD0702FE02040101FAFBFDFC00F9FFFCF704FB0400FF03FFF901FD0302
,FCFE0401FA03FFFD00F8FEFAFFFD01FEFBF9F8FFFD040302FFFAFF06FA02020201FFFE01FEFA010300FC02FC0700FC0201F903FE0502FDFC0504030100FBFE01,FCF9FE0101FD0201FAFF050203FDFFF9030503FBFDFAFDFEFDF8FB02FE0207F90404FAF90200FA07FC0004FF050404FFFA05FA0103FA070703F8060404FFFF02,FDFCFAFAFAFE00FC02FFFF06FCFEFBF90306FEFDFAF90100FF0102FE00010706FCF9FCFC04F906FCFCF9F906FA050200FDFDFFFAFF06F9FB0404FCFD040305FA,03FBFCFEFB02FB060501F904FCFDF90204050000FA02F90407030605FEFB07FBFEFC03F9FF0701020000FBFB01FC0302FC02FE02FB00FF04FAF9FF0300FC0203
,0006FDFCF8FA000005FF01FFFFFCFB01FD05FAFAFFFCFF01FCF9FE01FEFFFA04FB0600050004FA040606030404FCFDFEFF0502FBFAFAFAFEFBFFFDFCFAFAFB02,03F801020400FE01FAFDF9FBFC0007020200F903FC03FF000401FEFD000604FC00F8FBFD0604F80401FD02F80503FB02FDFCFC05FEFD00FC01FEFC02F90500FC,FB020602FD03FCFD030302FA02060401FAF700F706FEFA0800FEFCFBFDFBFEFE01F804FC02FAFDFF030007FB0207FAFB0501FBF8FC0401040204F902FEFAFA06,FDF9FFFFFFFD0201F9FB0002FBFB06010106000205070606FBFE0101FC050306FBFD00010307FCFC06FD04060200FDFDFBFEF90306FAFBF90002FEFEFD01FAFC
,0703FFFDFD0100FE040500FC02FCFE0300F805F7FFFD060005FBFF00090204FB02F8FA06FF00020705FD05FAFBFF04F9FDFDF9FFFF020103FFF9FF08FE05F7F8,FDFDFCFF000003FDF8FBFCFE03000206FD02FA000304FE0203030803F9FF000502FBFF03000104050303FCFB05FA020301F9FE04F80503FDFE01FE0403040600,05FFFCFBF90501FB00010007060302FB0303FC080401FCF9FA0402FE0406000302FE0602FC02FAFE0306FBFD02FEFAFE02FC0506FF02070005FBFBFDFFFC0203,FC05FDFCFD070704FC02F903FFF90007FDFD08F901FBFA07FA01FA0103FFFEFDFCFF01010202FDFD0305FAFBFDF8070505FEFF000400FDFCFBFB00FFF9FA04FC
,0300FD00FFFDF903020305000500FD02FEF8FF01FF02FB00020102FDFE02FDFE03FBFD0102050405FB030304FBF904FB04FAFBFB0502FA0507FA0303FAFBFFFD,0200FE060001F8FCFAFF01F9FBFFFA04FC04FF0305FAFEF8FAFE05FB07FB02FFFF05000001FE0403FD00FEFE0300FB0605F9FCFC030507FBFF05FBFFFA04F901,05FFF9FEF9FA06FCFAF9FFFCF8FDFB0401FCFBFC0200FEF8F903FE02050604FC05F8FEF90106FC0303F90405FC06FC01FD00FA0603FE020105FC05FF03F90003,FBFDF905FEF900F902FE03FA000206FFF9F902030205FA08F905FDFF01FC0503FAFE000305FFF9FC02F9FEFC06F8FE0306F903FE03FBFAFD0506FD0305F9FE03
,FD02FDFC05FBFD01040006FBFBFEFBFCFDF9FF05FC04F8F9FCFEFDFEFBFE04FC00FBF9F801FFFEF803FBF9FFFC06FD04FFF901FBFD00FBFF01FD04FC05FB0203,0401FC000105FB0106050505FA03F90105FE00FF05FE0406060404FAFEFD03FD03FF03F9FF03F8FD0100F9FE01FDFF020005FC0102FD000702FAFF03FA02FBF9,FDF903F8F904FA04FD0506FAFD0203000505000301FB05FAFA050304FBFC0101FE00FBFBFE030601F9FD0503FAF8F9FE05FA0402F90100FE05FDFCF904FAFB04,0501010506FD02010100FA01FB0505FFFF0502FD000305FFFC0606FB030607FCFDFE03FA02FD00F8FE0106FD0001FA00050603FFFBFE0300FBFCFC04FAFA0204
,020305FDFB040402FBFCFBFDFC05F9F90505020401FA05FD0501F90103FD03FCFB0201FBFFFA0405FF03FBF8FB01FE0004FAF9FAFDFD010400FB0602FEFB00FA,FDFFFDFAFBFD00FAFC05020602FCFB00FFFDFFF903050202FB0205FAFCFF00FA07FEFCFF050404FB05F9FE050301FCFD030505050004010300F905FEFFFDFBFB,FB0601FB03FF05F8020601F9FCFE030500040A06FA0406060100FE07FC01FB0005F6F90500FEFE01FA04020106FBFD0205FDFC04F801FDFC050302FDFE05FCFF,FBF902FA05F80303030105F9FCFB0405FCFAFCFDFBFCFF0502FA0308010503FA0500FA0601FE04FF0504FD020701FBFC04030700FC01FE0502FBFC0405FFFDFC
,02FC01FFF9FC03000504F703FBF9FBFF030205F603FA05FDFBFA040101010A0204FD06FFFD030606050303F7F9FD00F9FC0501000300FE00FCFE0306FB03F801,FE03F8050402FA020103FE02FE01FBFDFDFC0207F8FEFBFEFFFAFE0302040402FEFBFAF900FFFCFD0AFDFFFFFAFB01FBFBFC040303FB05FDF9FEFAFFFC03FD01,02F8FEF904FAF903F90507030102FAFEFF07FC05FFFF03FB0106040303FB02FE05FD05FD0001FEFA03FCFBFB02FFFC0002F904F9000607FC01FFF9FF06FFFFFE,FCFDFD04F9FBFD06FE0002010200FFFCF8FCFE03FC04FBFEFB0106010502FD070501030602FF00FCFDF606FA03FC07FDF80101FD01FB02010306FBFCFAFD0100
,01FA00030503FA01FE04040102FE07050202F803FD0503FB05F90305FCFF0002FCFA0305FC01F900FEFDFA0300FC07F8000101FD05FAFFFC02FBF8FE0304FEF9,FFF904F905FB04FCFB0002FAFA000205F90000FA0505FEFCFEFC0100030000FAF9FDF906FB0101FB0103FDFA0406FE07F9FC00000600FF07F9FA060205FCFA01,04FA02F8FEFAFF02FDFF01FDFFFFFDFB000504FAFC05FAFF06030505FFF9FC0305FF04050201FEFC06FB04F9030100F8FC0400050603FCFF0003F9FC02FCF901,04FAFD00FFFBFAFB00040200FB03050302F8FBF700040000FB03FBFE04FA03F90203020403FFF90203FFF90200FC0304FA06FEFAFC03FAFAF80302FA0502FC05
,FBFAFBFDFA00FB05010404FEF9FEF9FE06FA0602040204FFFC02FFFFFE03FC04FC03FA0200FBFC02FCFF0000F9FC03FA02FFFDFB03FDFA0500FEFD07FFF8FDFB,0202FDFE04F9FA06040505FA00FC03FBFFFE0403010404FB06FAF9FEFE0103FF0504FEFE020203FC04FB040007FE030305FFFBFCFFF9FAFBFAFFFAFCF9F80407,0503FCFE0305FCFDFAFCF90203F9FA05FFFD01FBFBFCFA06FFFA0405FA02000201040502FB0504F90705FFF900FEFD05FF050006FF050405FBFEF905050502FC,0104FF06FEFFFBFE0601FEFF03FF01FEF8010AFB02060408FE0300FF02FEFEFBFB0204FA03010601FCFB000701F807FC000004FB0006FEF9030303FE00000905
,0304FAFBFBFCF8FC03020503FA0303FBFB0102060204FA05FDFD03FCFA03FAFFFF0103040106FBF8FCFF01F9F8FE050100F902040006F802FA02FD0404FAFD06,FEFCFFFB04FF01FEFDFB0600FA05FFFFF9FF0402FF02FB0507F80505FAFEFCFCFBF90300FE0403FD0401F9FF00FBFEFFFD01FB050102FCFEFFFAFBFCFB02FE00,FA000100FF04030501FDFE050502FDFBFD05FCFA06FBF908FEFCFF02FC0402F8FC010501F701F505050303FFFA000801FF03FBFD05F906010704FB06FEF90407,06FFFC020702F9020102FE04F90101F9FF000505FC01FAFD02FE0203F9F8FBF7FFF803FA01FFFC010506FD03FA00FB040206FFFAFC04F8FFFFFDFDF905000400
,0106FFFAFFFD010702FDFE06FCFD0205FD0005FEFBFEF9FFFAFB0301FF020604090405FD00FF05010502F901FDF902FD08FFFFFBFD07FAFCFFFC02FE00FBF906,0705F904FAFEFE0506F9FE0300FFFBFCFC01FA0600FA00FBFE02FBFBFA02FD050203040402FB04010103FD00F9FEFFFCFDF8FF0405FAFFFEFDFEF9FEFFF90509,0600F9FD0100FCFC0102F9FDFAFFFDFD06FF0003040104FBFCF9FF0104FEFDF8FCFC0606FCFCFE02FF020401FEFB01FCF800FFFDFD05F900FD06F8FB050302FF,000400F9060108FBFAF8F9020203FAFB0105FD070205030000FE00F7FE00080307FF03FC020105000501F904F9FF09FCF902F9F8F9FDFCF9FD020402FC01FA05
,F8FDFA0605FCF800FD00FC0604FC0702FFFC030004F9FE0404FE00FFFB060301FC06FC03FDFA01F90706FBF905030100FDFEFFF906FA0201FEFAF803FB01FD06,0206FEFDFD02FC02FDFF060401FB06FA01FB04F9F9F9FBFCFA000104FE0001F9FBFB03FB0104FEFEFBFBF903FEF9050106F9FD0301FAFFFFFF01FAFFFCFA05FC,FFF9FBF90605FBFEFB0303FA06FFF904FD03FE00FA07010306FF0506FF0600FCFBF90004FF02FFFEFD04FD02FA00FA01FBFBFBFC02FEFC00FC06FB01FF0203FD,07FC04FF00FD04F70304FA0003F902F803030300FEFBFC08030104F90405F8FAFAFE03030607FAFDF901FCFFF902F90100FBFF02FEFE0306FEFCFD0502FEFE00
,04FA03FA06FEF9FBFB0205FBFB0301FAFC03FBFAF90101FE0502F9030300FBFE01FB02040500FC06FC04F803FAFEFBFA050006FCFB05030204F9FF05FA0104FB,01F9FE0505FA07F9FF04FF04FFFEF905FFFAFDFB05FFFB07FDFE01FDFD040406FDFCF90505FD030007FA0000F9F903FCFF0105FC06FF05FB01F9F90602050703,FEF9030200FAFBFE0205F9FDFC02FE0000FD0305FC06030706050102FBFD06FBFDFF0001FBFDFCFFFE0300F806FFF90601FD01FC00040200F90100F9FD04FBF9,0504FD0301FC02FA0300FF03F903FAFA03020500FEFDF80603F9FEFF02FC02FEFC06FB070100090101FC04FD04FDFDFCFAFBFA040703010003050103FD0006FD
,02040101FD0205FE04FCFB06FCFEFC05FB04070101FD0503F9FA03FBFBFAFFF900F8FD05010302FBFDF901F90006FFFBFFF906FAFB04030302FBF9FEFB07FBF7,0404FB00040102FD0601040405FFFAF903F8FC010407FF02FB040302FF06000007FA0401FB02F9030201F9FFFBFAF703FD04FBFCFB04F9010306F8FBFFFE0004,04FE0106FA020605040300FA02FE0001FC06FA050004FB04F90201F9FB01FCF9FD03FD01FDF9FCFAFAF90606FFFCF8FEFE05FCFE04FD0401030602FFFD04FCF9,05FCFB060001FB04010005FA0302FDFAFC01F9FDFF00FC03FE0201FCFFFB01F80702FB06FB0100050602F9FCFCFEFBFCFDFBFDFFFCFC05010403FBFD02FA0603
,0502FD03F9FDFF05FE03FD050506FD0203000903FEF80407F805FEFEFFF8F8F901FCFFFF0604030BFEFA0303FD08FFFF06FBFDFFFB01020200FE06FB0500F1FB,0204FDFFFC07FAFBFB06FA0502F8FCF9FDFD0406FC00FEFD00FEFD00FDFE0000000303FC0202FA0006000204050406FC01FE0205FD06FE07FEFAFD0105FA0302,0403FF050105F8FC05000102F900FBFAFCFBFE04030403FCFFFB02FC01FDFA0605FEFC04FEF9FEFCFD02FC03FAFDFA03070303FE0203FBFBFE06FEFFFAF80606,F9FB02FEFEFCFEFE050102FF0304F905FCFF03FDFC01FC03020002FCFF0505FCF7FEFDFFFEFF0101FDF702FBF9FCFF0301FA00FCFCFC00FDFBFD01FFFAFAF8FB
,FC0205000405F901FF0405FE03FEFB04FEFF03FE06FD04FAFCFC00F90403FDF900FCF9FE010602FE04F90203F901FB04FF03FDFCFCFC03FF0100FBFE02000302,030603F9FE0603FB0004FF040002F9FE00F700F9FE06FDFAFAFB0504FFFA010503FF04FA01FE01FAFDFBFBFD0301FEF806FEFEFB00F9F904FCFEFD0300FA0301,02FB0600010704000304FAFF02FAFC00F9FF00FE02040403F90001FAFF02FBFF03FF05FE03FC0408FCFF050102FEFAFB06010203FC04020602FC050500FB02FE,FD04FBFAFFFF04FC01FF0306FFF9FCFA06050802FDFF00070104FE05F9FAFFF9F9FF010104FFFF040701FEFB040000FEFAFBFD06FA0604FF05F9000209FB04FE
,F901FAFFFFFDFC02FC05FB01F90300FDFDFFFAFEFB0500F902FEF7FF0601FE0402070604FC00FA03FAFEFAF906F8050506FFFB06020604FC0103FD0606FE03FB,F905FEFFFFFB02FFFE0105FB01FFFE06FBFA03FD010102040506FA040206FC0106FF04FC03FDFBFDFF06FFFC03FEFA0502FD02FB06FD020400FB03F9FEFCFAFC,0503FB0106FFFAFB06020006FAFA0503FFFCFD040506FD06040003FCFE0402FAFA0604FDFDFA07FDFCFFFF00FE04FC05FA00FDF80003FEFCFA01F9FFFF040300,F9FD03FFFD00FFFDFB01FEFA020804FC0004FCFDFA000600FB02F8F800010105FDF9FA020703010503FD06F9FCF8FB00FAFA02F8FAFF05FC03F80105FF010602
,FA06FEFCF9FAFB01FFFBFFFEFDFB0303F8F9FFF9FBFBF9FBFB04FD01FFF90302FCFE04FFFCFE060005020104FD01FE0104FEFC050006FAFE0505FE0205FEFEFB,030604F9030105FA0503FB030502020202FC01F9FAF9FEFFFB02FD04000600FF04FC0202050003060303F9040404F8FBFDFC0505FD05FD050604FBFA01FF0300,FFF9F804FCFE05010103FEFF0402FAFBF9FEF905FC020604FF020203FD000102FA0101FCF904F90100FE00FF020200FE00FB050306F80305FFFDFBFE0300FA04,06F8F90406050302F9050501F9FFFA0301FB0506FEF9FE01FA010307FE06FCFBFD00FE0004050503FDFD050606FEFEF7FCFCFF03FAF8FF0001FDFEFDFFFEFD01
,050608FEFAF901F9F9FC0204FA050106F9FF0500FFF704FFFD03FCF9FF00FC01FF0001F803FF0001FBF80604FF0100FA07FFFCFC0103010505FBFD0202FFF9FC,FAFB04FBF9FB00010301FAFF02FA04FEFEF80A06070505FEFCF9FBF902FE0505FFF6FE0100FCFAFCFF01FC030203000501FE070204FD05FA02F901FE07FFFAFC,0501FC04FBFB00FB05F902FAFB02FCF90000FAFEFFF7FAFAFDFDFDF9FFFA050500FDFCFBFF060007FAFD05FDFFFBFC0106FAFB000406F9FCFBFF0606FE020100,000305FA02FCF9FBFA0202FAFE02FE06FE01FB04030605FA0103FE0104F9F9F9040305FA0804040200000103FC06FA02FF02FC0004FE0100FE0401FC05070102
,04FC03FDFA040502050000FF0701FFFFFC0303FEFDFDFDFDF9FB0601FA0400FF02FA0202FD04FD01FA0502FAF9F9FDFDFB0404FA03FBF8FE0206FF01FE05FF01,FFFFFF04FD0304FEFCFEFFFF0603FBFF00F9050000FBFF02FBFBFEFB060406F90201FA060104FAFC01FDFD0005FC010003FAFDF90002FFFF050202FF05FEFD00,FFFF010505FEFAFFFE04F902F8FB04FFFE0205FCFC06FA0305FA01FCFFF9FF010206FDFD04FD01020103FB04F9FBFF05F9FCFD05FEFEFEFF0206FA0502FE0606,FDFE01FCFCFFF90304FBFA06FF00030005F906FA05F903070203FE0100F900030202FDFF04030208FDFFFDFEFBFD04020205F8FD0406FBFC03050006050304FD
,FFFCFC0600FE02FA0203FB0301FB0102FC00FAFEFE06F80304FE030405FBF905FCFB0605FE0400FD06FAFDF9FB02FAFBF900FA05F8FF03FDFF060201FFFE03FB,06FF04FBFC04020106FEFEFDFFFBFAFB02FBFD0301FE0104FBFB02FAFE01FDFCFB0107FCFD070102FB03050302F9FFFB06F8FFFFFCFC020501F9FC0502F9FB01,FBFC010002FBFA000006FE00FC05FB0103FBFB02FC06FE0203FB020500FAFAFEFAFD02FEFF03FF0300FD0001FB00FCFD0202FC0503FE05FFF900FE0003FBF8FC,FE0202FDFEFF01FFFDFDFAFC03FF01FF000300FEFCFDFE0002FFFFFEFD04F7FAFE0806FD0502FDFCFD0105FCFD0301FA05FD040305020305FBFAFBF802FAFA04
,FDFDFAF9FA0005FB0005FB0004060506FA05FF0003FE040503FFFC03FBFDFCFAF903F90103FFFFFEFE01FCFC05FFF9010002060104FFFE0500FEFDFBFCFEFC03,06FE00FEFB02FC06FDFB06FCFB010105FFFE04FB0603FA07FB03FF0406FC00FF020402FCFF060200FC0202FCFFFCFBF9FEFC05FCFAFC07020403FBFF00FFFE02,020605FDFA0505010000FB0201F906FD01F9F9FB00FBFA0004F8FD0604FB070105FE04F903FAFE07FDF903FF020602F700FFFB0004FCFB0503040506FB02FD02,FA00FAFA05FC03FA07F900FDFC0300FA02F9FE0601FC0104050404FB0205FC050004070203FAFE05FDFAFCF9010000FA03F9FCF9FDF9F9FD03FEFD04FF0500FA
,F8030105FAFFFDF805FDFEFC03F9FAFB02FF04FFFE00F90208FDFC0B0A0105FE030F0204FBFA0805FDFEFBFD070000FFF8FAF9FDFA0300F904FA020302FCF8FA,05FAFAFD04FAFB0502FE0203FAFC01FEF9000A020502FE0205FD05FFFB0204FA03FA04FC04FFFEF8010201FBFF02FD020300FE05FAFE01F906FF0600F90403FE,02FCFEFAFCFC0004FE00FD02040307FF02FF05FBFDFBFF0607FE030002010003FAF8FDFF080104F9FA0206FB05020605FF03FEF90003FEF903FAFDFEFD00FFFE,FD0003F90402FA010504FCF9F8F900F8020201FCFF000103FF03FBF80304FA02FA060502FEFC01FEFBFFFBFD010200FEF90606000006FE0108FB02FC03FBF800
,03FC03FCFDFBFEFDF901FAFB02FF01F8FA0105F8FBFAFE02FEFF020106040202020104FFFD0506090501FDFCFFF90504010602FBFC03FB00F8FBF900080205FF,00FCFBFBF9FA06FBF9FF02FFFA01FD0106FDFC00FB060202FEFC0204FEF9FD000505FB0404FD0200FB06030200FF0008FD05FBFCFDF806FEFBFCF8FDFD0707FE,FD05FEFDFB07FC0304FAFEF906020306FA0406FF0006FCFD02FA01FA0201FE06000604F9FC00FD0501FF0003FC0103F9FCFB0300FB04F9FEFBFBFDFB01FAFEF9,04FBFD04020005F8FFFE04FA050202FF04F90201FE05F901F90301FDFF06FB04FCF7FA040701FE07FFFFFFFF03FB030303FCFCFC000507FFF9FFFFF907F9FC06
,0300030500FCFFFC0506050000FC040101FEFC010608FAFF0101010204FBFBF801FBFAF904FBFE02FBFEFE03FBFDFBFFFCF902F9F9FCFA0304F9030201FA01FB,FAFDFE0401FF00FE04FCFAFFF804FD050303FFFAFF0300FE02FFFFFCFDF9F8FEFBF705F903FFFC03FCFD0200FDFBFC05FAFDFFFD02FD0201FAF9FCFEFC00FF07,02FB0303FDFFFF050603FDFBF9FEF9FF0000FF06FB05FE04FBFD02FF05FAFD04000203FC00FD03FAF9040004F9020508FEFDFBFD01FAFD02F9030106010401F9,0205FEFAFA0505010004FE00FC02FDFFFD01FAF8050701FCFF05FD05FF03FCF8F9FF020405FB060103FEF8FF0003FDFBFDFA0501FC0402FDFDFF06FEFBF80701
,FAFD05FD06FAFD0201F8FCFFFEFDFFF9F803F9FD05FCFA050307FFFEFDFFFB0502F903FB0A060407F904FDFC00FBFC0604F90307000205FD060102F800FD0606,00FA0005F9FE02FAFEFE05FEF80101FC02FDFFFDF901F8020401FD0402FDFA00F8FEFF00FF0001030703FE00FB06040104FCFFFA05FC0300F9FFFBFB0003FBFD,05FCFD0406FF020103FCF904F904FB03FEFB01FE02F6F80205FA0206FDFB0603FEF8FE0305FBFC00FDFA0405FE02FC04FF05FBFCF903FBFBFF0603FAFE060202,00F9FCFD0100FD02FBF9F9F9FD0601FE03FC0300F9070505010005FCFDFAFF00F9FAFFFE00FB05FAFC02030205F8FD040302FD0602FC0000FAFFFAF8FCFFFCF9
,020A00F901F9FFFF05FD04FEFBFC03FA01FCF9F80103FE01FAF9020804020DFEFDFEFCFFFE03020307F8FFFC04FCFFFCFB0104FA00FB04FBFE010901F700F1F7,FFFD00F8FF02F9020004FAFF0004FCFE01FC07FDFC03F90204F9FA0102FB00000503F9FFF900FAF9FCFE05FEF80606FC01FEF9FCFC04F8FEFFFC02FBFFFE00FD,FEFCFF020105FE00FEFA06010401FFFC02FCFF00FD04FB0604FBF8070601020404FA0100FCFC02FB03FEFE02050301040405F801FCFD0607FF0403FC01F801FD,F9FDFC04FDFEFCFB0401FDFCFEFC02FE06F8FEFEFC01FBFBFA01FEF902FE01FD0603FB03000507FE02FAFB00F805F80103020204FC0005FD040205FD03060100
,F80501FA00FCFEF908FA0503F801FEFDF900FEFFFCFBF8FEFA03FFFEFCFE0005FD06F9FF050104FAFFFDFCF9FCFA03FCFC04F9FC01FEFA04FB00FAFBFEFF04FE,00030106FB03F802FEFE0302FC00F903FDFD02FCF8FAFA04FB000102F902FC02FEFF04FF0103F9F702FD01FEF8FEFDFFFDFCFAFC0101F906FCFEFEFAFC060100,0404FAFF060402030300FE07FBFE00FA04030104FE02FFFD0005FE050703FA00FCFE01F9FD0102FC010201FF0106010205F803FA07030303FF060303FE02FAF6,FF03FEFE07FC01FB06FF04FC06FEF8FCF80504F90102FCFEF8FEFC02F7FBFA03040000FEFFFAFD0304FC03FBFBFEFAF7FCF9050203FBF90006FFFBFDFCF8FE02
,0104FCFA000405F802FF0102F804F8FBF9FDFE02FA03F9FC04F802F8FD00FA030505FCFCFA0004FA01FC0600FD02FAFC03FE05FDFBFA0306FE0100010402FDFF,02FDFF050104FD06FA060303FE0701F800060301FEFEFE0002050001F8FC01FCFE01FFFFFF0007FBFE05FC0505FD00F9FD03000000FE00FFFCF9FC0101FDFFFF,FDFAFD03050404FD03F8F8FF04020600060502FC0502FE0300FD0201FEFCFE06FC01030600FA05FDFFFF00FCFE0202FCFA03FCFC02FAFCFEFB03FB02FFF90504,0102020301FAFAFFFEFCF805FE040306FC04FDFEFE05FB00FBFAFEFA000200FAFEFCFFFF03FBFAFCFC0005FEFAFE00FF0003F80603FC0501FA01F9F8FD060401
,0305FDFF0005F9F9FCFA0006F8FE06FAFA03FB050604010003FE00FAFA05FE03FCFCFA0201050504FE02FEFFFDFD05F80104FDFBFD04FDFA01FCFBFE0706FF01,0502040602040602FE00F902FF0201F904FE04FDF9FAFEFC0600FE0105010001F9FB060403FF01FAFD02FD02F905FBFFFFFAF80501FE0504FDFF03FF0600FF00,FAFFFA06FBF8FEFBFDF80104FCFEFEFF01FF00FF0403FCFDFFFB0005FB04FFFF0006FD0203FF0405FD04010307F9F802FFFD020501000107F7F903FE0302FFFE,FBFA0002FBFB06FAFFFFF804FE04FB0700FA0704F9FDFC0204FC0204FA04FAFFFCFF020403FA0404FAF9FCFA030503F70603FF0606FE060205FA00F900FC0004
,FA0601FDFFFD04F40101FFF901FA03030509FB000004FCF60406FD0704FE07010903FCFCFCFA0803FB01FD00FAFB0B0106FE0200050303F9030501FFFF04FFFC,02F8F906F90402F806F9FDFA0001FFFAFB04FE04F9F7FB06FFFEFD0500FF05F80501FA01FBFFFF04FEFEFDF905FC000A0204F8FA03FAFFFE060100010704FD03,FA0703FEF901FC05F9FD06030505FA0105FF06F9F9FA0405FDF806FA0205FBF8FEF901FA03FAFFFCFB01FF0106FC04FD0202FA00FE0305FBFC03FB06FCFDFBF9,F9F900FB02FA05FFF701F904FBFEFDFFFFFB0200FA050300FAFBFAFFFDFA09FEFD020202000505FE050302FEF9F8FCFFFEFE03030402FC0301020302FC04FD00
,FA0001FEF9FBF80501FAFD0205010106FFF90007F9F9F9FC010500F80003010501020000060200FD05FE0003F9030303F9FFFBFF01F905040004FCF904FB0205,FDFAFFFDFE010600FD000204F8F9F9FDFB00FAFC020601FAF805FE040404F9FBF902FF060103FBFFF80304FFFA00F9FCFB0606FFFFF903FAFF000001010202F7,01FD01F906FE01F80000FF04FE02FBFE07FEFE0600F9FBFB02FCFEFFFCFAFA0304FFFD0305060000FB00FCFE06F8FEF80201FCFCFB0304000502040001FB08FD,01FD06F90405FA03000605F9FA0702FBFDFA0306F905FC0103F80001FAFFF8F8FBF9FFFF08030508060102FEF9FAFC0001F90207FAF8FEFCF901FB01030601FE;