; Layer 5: dense biases (Q1.6 format)
; Shape: (64,)
; Total elements: 64
; Quantization: 6 fractional bits
; Range: [-2.0, 1.984375]
;
memory_initialization_radix=16; Hexadecimal format
memory_initialization_vector=FF,03,05,00,04,FE,FF,01,04,01,FE,01,FF,FF,03,04
,01,FF,FA,02,FE,00,FF,FE,01,00,02,FF,FF,00,02,04
,05,FE,03,FE,02,FF,01,01,FF,01,02,02,00,FF,FF,FF
,01,02,FE,01,FF,00,02,FD,FD,FF,FF,04,FE,03,FF,00;