; Layer 0: conv2d weights (Q1.6 format)
; Original shape: (3, 3, 1, 32)
; Total elements: 288
; Quantization: 6 fractional bits
; Range: [-2.0, 1.984375]
; Memory organization: 3x3x1 addresses × 256 bits (packed)
; Each address contains all 32 filter weights for one (kernel_pos, channel) combination
;
memory_initialization_radix=16; Hexadecimal format
memory_initialization_vector=07F9FEFE01FC000200FC07070102FFFA0500F8F8FAFAFFFE02F801F9F806FEF9,FEF70806F8070003FC01F80401FAF7090404F7F8FD01F9F60103FF06FD050206,00F9FCFA06060100F7FBFFFDFC06FBFCF6020708FAFF080204FB0803FCFE08F8,FEF7020600FAFEFDFFFB0800F80600FF0806FC04FCFC08040204FE0404FAFBFF
,FEFC0003F8FBFAFA02F7FDFFFD0605000503020707FF000400FAF8F802040203,0103FFF9F900040505F6F908FDFFFDFC03F904FEF70801FF0304FE03FE05FFFD,F9FBFAFF0506FAFCFB03FBFCFF08FFF9FD080308060702FDFB03F8FBFE04FCF7,FD04F70200F908FA020306F909F70803FDF8F8F80605FAFCFB04FDFF0604F909
,00F906FCF9FDFDFAFEFEF805F9F7F7F6FD06FF0607F9FF05FF0004030505FAFF;
