; Layer 5: dense biases (Q1.6 format)
; Shape: (64,)
; Total elements: 64
; Quantization: 6 fractional bits
; Range: [-2.0, 1.984375]
;
memory_initialization_radix=16; Hexadecimal format
memory_initialization_vector=00,FD,01,FF,FF,04,01,06,01,FD,FF,FD,FF,02,02,FF
,FE,01,FD,02,01,FB,04,00,04,FE,04,00,05,03,00,FD
,01,02,FF,03,FB,FC,01,05,03,FF,FC,01,FF,FC,02,01
,01,FE,FF,04,02,FF,02,01,01,02,00,FC,FC,FF,03,05;