; Layer 2: conv2d_1 biases (Q1.6 format)
; Shape: (64,)
; Total elements: 64
; Quantization: 6 fractional bits
; Range: [-2.0, 1.984375]
;
memory_initialization_radix=16; Hexadecimal format
memory_initialization_vector=00,FF,00,01,FF,FF,00,01,00,00,FF,00,FF,FF,02,FF
,00,FF,00,FF,FF,FF,00,FF,FF,01,FF,00,00,FF,FF,00
,FF,00,00,00,FF,00,FF,00,00,FF,00,FF,FF,01,01,00
,00,FF,FF,FF,FF,00,FF,FF,00,FF,FF,00,FF,01,00,FF;