; Layer 5: dense weights (Q1.6 format)
; Original shape: (1600, 128)
; Total elements: 204800
; Quantization: 6 fractional bits
; Range: [-2.0, 1.984375]
; Memory organization: 1600 addresses × 1024 bits (packed)
; Each address contains all 128 node weights for one input
;
memory_initialization_radix=16; Hexadecimal format
memory_initialization_vector=02FD02FCFE0103FD0202FC00FEFFFC0401010003FF00FF040307FDFF0203FC0403FFFD02FFFDFEFEFE0200030202FF0000FD0303FF0100FC0101FE00FD0100FF01030203FEFC0300FE0304FF01000101020203FD01010201FEFDFEFF02FFFCFD0100FE0202FE01020101010203FE02FFFD02FEFEFC01FF02FD00FF0101FD0000,0102000001FF0003FF01FF0301FD03FE00FD01010300010301FC00FE01FF040201FE00FC0101FFFF0302FD0100010300FDFCFEFC0202FA02FDFCFCFFFD0400FE02FF0201FDFF0204030003FFFDFF0301FCFFFE030101FE00FF03FE02FDFFFC0002FF01FDFEFD000000FD0100FEFEFFFEFDFCFEFF01FFFD0103FEFC01000103FD,010100FE03FDFDFF0302FD02FE010201020201FEFEFEFC040105FF01FF02FDFFFDFDFC0000FF00FBFEFFFFFFFCFCFD00FE01FD02FE0203000203FF01FF010202030102FE0104FEFD03FFFF04FC0202FDFF03FFFE03FFFEFD01010001FD0402FDFE00FC0202FEFFFC02FE03FDFE000203FFFF0301FA0203000104FC0601FEFFFE,02010301000000FE030000010003FDFDFD0104FD05FF0103FC0402FE020002FCFDFC00FDFF0303FEFD02FFFF02FFFF03FEFC03FB00010303FC020302FDFCFCFC030503FD03FF010301FF0401FDFF01FF0200010201FDFFFD03FEFDFDFF01FFFDFF01FEFFFFFD04FF0001FE01FD01030304FCFF01FE03010202000202FE030301
,FFFD0102FDFD00FFFFFD03FEFFFFFEFFFE00FE03FF00FF020103FC0202FD03FD00FC030203FE01FE00FF0002FF00FCFEFFFFFF00FDFF0102FFFD02FFFDFEFF0102FDFEFFFFFDFF0300FD0103FDFCFDFD0200FDFD020203FD02FEFD00FFFFFDFC03FD02FF02FC01FF040201FE010002030403FF0203FE00FCFDFE00FD0003FD02,FF01FF00FE000200FCFF0201FEFF02030200FE01030203FEFEFC0003FF01FD000202FEFEFE0303FEFE0300FC0101FF0200FDFC0203FF00030002FFFC01FFFEFC0001FF01FD0302FD020300010001FFFC0000FD00FF0402FDFDFDFDFE02FD03FF03FD03010202FDFDFC0002FE0101FF02FFFEFFFF000301FFFDFE02FD0201FD02,FFFFFE0202FD020001FD00FF01FDFD00020201FF010001030500FE0501FE00030101FE02FBFE0303FD00FD00FBFD0002010201FFFEFD000102FFFD01FF04020002010103FFFFFDFEFEFFFFFD0402030000FE020001010100FE0104FE03030101020102FF020300FE0400FE02FD000103FFFC00FC02FD02FF0103010004FEFD03,0100FE04FEFE0104FB03FE02FFFFFFFEFFFD00FD04FCFEFDFE01FFFEFFFC04FD0400FF0100FE00FD0004FD02FFFF02FFFE01010101FDFF01FF040504FC0105FAF9FC0702FCFEFE0201FDFDFC03FCFE000104FD00FDFEFFFF01FFFCFE000503FE0301FD02FF03FF020100FAFC03FCFD02040303FFFE00FFFCFD02FEF9020303FE
,0201FEFE02FEFEFEFD0302FE030002020200FE0202030205FF04FFFF00FD0101FDFF01FD0401000102FCFEFEFF040405FFFEFD0401FFF9FC00FDFFFEFC0000010202FCFFFFFCFF020302FFFE04FD0100000101FD030103050003FF020501FF000302FDFD0003FB010204FDFD030205FDFFFFFBFEFCFEFD03FF03FE0203FCFEFD,00FEFF03FEFC000002FEFCFE020201010203FB03000202FBFFFC000402FFFCFDFE01FFFE02030100FEFF0300FF01010002FCFE04FF02FDFD01FCFD020002000102FA03FE02FD00010100FCFE00FFFEFD03FF03FFFEFEFD0602FE00FD03FEFCFB02FFFFFFFFFD0200FFFDFFFF01FE0003FE01FC00FFFF0300FCFEFD01FE00FE01,03FFFDFE010202FDFF0100FCFD020301FFFD04FCFCFDFD01FCFE00FF03FC0001FDFD02FCFEFEFEFD02FF0202FF01030201FF0001FEFEFD0003FCFD03FE03030203FEFE01FEFFFFFEFEFE020003020203FE01FFFD02FF02FFFF00FFFEFFFF03FE010201000001FEFC00FD0400010003FF00FD0100FDFD00FFFFFEFD030400FE02,00FDFF040303010004FF01FF03FF02FDFDFFFFFD01FFFDFC0004FC01FD03FD0101FF03FC020302FF0003FD0204FD030000FC0103FCFDFF03FB03FD02FE02FDFC0004FE040302020000000100FF02FF02FE05FFFC01FD0002FC03FDFC040203FEFCFE0301010002FC020303FBFEFE000101FFFE00FE0003FE0001FF0003FF0301
,00FE0400FD02FFFF02020103FEFC02FF02FE00FFFAFEFDFC02010105FF030202FFFDFF00FEFE0201FDFB000100FE01FD01FF0102FF04FC0103FC0100FD03FF01020001FEFC03FD0304010102FFFC0200FE0102FD02FD03050102FCFD03FFFDFCFE05FF0001FDFD0307FC03FE030300FDFFFEFD0202010001FD00010402FD01FC,FDFF03FD02FF030002FF020102FEFE020301FEFE0302FEFFFDFEFF0103FF01FDFDFE00FC000303FEFD0003FEFDFF020300FFFC0100FF01FE03000001FEFC0302FEFDFCFE01FD0200FD01FCFD03FC0000FFFDFF0203FEFD01000101030300010000FF02FC04FC02FC02FFFD00000201FFFFFE02FDFF03FE010402FD04FEFE0001,FF00FF02020206010302FB0105FE000305FD0101020101FDFD02FF01030201FEFE01FB000304FE06FD0306000202FE04010102040101FFFDFC02FF0302030304FB020200FFFA01FF06FE0303FF02FDFD00FB050204FFFD0304040102050000FD0003FC00020001FE010106FFFEFB03020000FCFEFDFDFE0704020302FEFB00FF,02FE0001FFFFFD030303FE01FE02FD04FEFDFEFFFF00FEFEFDFE00FF03FD0303FD00FC03FD0301FDFC02FFFEFD00FD01FF010303020003FC00FEFDFFFFFEFF000102020301FDFE00FF0103FCFC02FCFEFFFE0102FD0102FFFCFE00FF00FC01FE0200FEFE0002FFFF01FFFF020201FD02FE000002020001FF00FEFF03FEFD00FC
,FF0202FDFEFEFDFE0104FFFDFEFEFFFE00030000FE00010201FD02FE030103FC01FD00FD01FE000101FDFC00FF0101FDFFFDFEFF01FF04FE01FEFFFF00FDFF02FDFC0001FEFE01010001FDFE0400FF00FF00FEFC02FF01FDFC0002FE0003030300000200FE01FD03FC02FF0201FE03FE0200FC00FDFFFD020203FEFF00FDFD00,00020300000200FD02FF0002FD0200FDFD00FFFCFFFEFFFE02FCFD010101FCFFFCFE0303FFFFFC02FD00FCFF03FFFF01FD01FFFE00FC0001FEFDFE00FE00FFFE00FF00030302FCFDFF00FCFF01FFFE0003FE01020100FF03FE00FEFDFFFF0302020002FE030002FEF9FC01030201FF0302FF0101FE01FDFEFEFDFEFF01FF0101,FDFD040001FC02FDFC01000302FDFFFF03FCFEFE0403FE01030202010303FE02FEFDFEFCFD0002FE00020302FC01020303FD020100FEFCFCFE01FC020302FDFEFDFC00FD00FFFC0301FFFF00FE00FE0301040001FE0203FD0201FEFE0103FCFE03FEFD030103FDFFFD03FC03FE0000FFFE0002030103FFFC00FDFD03FD03FC03,FE01FD0100000101FEFEFFFE0302FCFEFCFCFFFEFF03FDFDFEFD0201FD02FD00FD00FEFEFD010100FFFF0102FC01FC00FEFC0200FF01FF0203FD000303FD0300FDFF010203FEFDFF0400FE0001010000FD02000300FE0001010203FDFFFFFF01FD01FD00FD00FFFEFD01030201FE02FCFF0201FE020103FD03FF0000FEFDFE01
,02FFFFFE010300FF02FD01FDFE0002FF0103FD0100FDFEFF010101000100FD000201FEFC01FD0301FE03FD0003000300020203030101FDFE0001FF00FFFE010103FEFF01FDFD00FD07FFFDFEFE03FD03FF02FEFC0301000400FE0204000103FC00FDFC02FD030101000102FFFC03FDFFFFFCFE040304FF0003FFFFFD000103FC,010001FEFC010100010001FC02FE02FD03FF0203FDFF02FEFFFDFC06FDFD0003FDFF020204FD00FDFFFD00FF01FFFDFDFF0202FFFC03010002000103FF03010003FFFE01010001FF0401FF00030100FC020001FDFD0201FDFD03FFFDFEFF02FE0004000300FDFF0001FCFC02FF03FE0000FDFDFE010002FE02FFFB01FEFD0202,FE050100010403FDFE04FDFD01FF03FD00FD02FC0101020400FFFF01FE0202010202FF020303040100FD04FC02FC06FF01FEFEFF0201FF02FEFC0301FCFE0103030701FDFC01FCFE0801FE010602FE000205FD030102020104040302FE03FEFD02FB00FF01FE02FF0403010203FF0501FEFDFFFCFDFFFD0201FF00FF01FCFE01,FDFDFEFE0000FF0203FCFC0303020000FDFD000202FD0203FFFF02FF010001FDFDFDFCFC00FF01FDFCFE00FF0303FFFEFF0003FF03FDFF0002020202FC0103FD03FDFE01FF0403000403000203020200FCFEFDFF010202FCFD01FC010101FDFE02030300FFFE03FEFFFEFEFE02FFFDFE0300FFFF0300FFFE01030302FF01FDFE
,FCFEFEFFFFFF00FDFF01FCFE04FCFC030301040301FFFF01FD0200FDFE03FF000102FF03FE0300010302FE02FD00FEFE01020002FE000002FE02FEFFFDFE00FFFE01FF0100FFFDFEFF0300FD02FD02FF00FE01FD02FD0101000100FC0201FEFD0300000201FD0202020301FDFE02FF020300FFFEFEFF02FF04FEFD0100030102,FFFDFFFDFF030303FF02FC0301FFFD01030202FF0202FEFF0101FEFDFEFF0002FEFC0000000100FE02000102FEFFFFFE00FC0300FCFE01020101FEFFFC00FE04FE01010003FEFFFEFBFC00FD02FEFC0002FE010003FEFC00FD02FF02FD00FDFF0304FB01FCFEFE03FF01FE03010302030302FEFD0300FD0102FFFCFEFDFFFE01,01FFFEFEFCFDFF00000301FD04FC0300FD00030201FC03FFFFFFFFFE00000002FFFEFC0001FDFD010303FC0001FF0000FDFDFE03FEFE01FEFE0301FCFDFE01FEFD02FFFE010203000101FEFF0100FFFFFD0103020200FDFEFFFFFEFFFE0200FC000201FE030101FEFF01FEFD02FEFCFC020102FD02FFFEFA0101FC00FD010200,FC0201FFFD0100FCFCFF03FF0100FD03FEFF02FDFFFE0002020301FEFF000101FD00FD0001010302FFFD00FE00FF00FE00000000FE01FF00FE01FEFEFF01FF030003FE02FF000302FB0201FD0002FE01FEFF03FD000101FF0102FDFCFCFCFD0204FE01FE0102FD0402010003FF0000FCFF03FC00FD00FF02FD00FF030102FF00
,FE03FCFEFD02FF05FEFBFEFFFEFC01010103FD00FC02FE04FD020101FF00FBFDFE0000FE0202030201FDFEFFFFFDFDFE01FD040202FC0203FC0201FDFFFFFF00FEFFFE01FD00010005FDFE030102FFFDFFFE0403010300040303FC01FDFDFC00FF0503FC020000FE01FEFEFEFD00FF02FF02F9FDFDFF0100FFFD0200000101FF,FC04FC0201FF01FEFFFFFF03FDFC00FE03FF0202020303010202FE010000010103FFFC01FF010302FFFE00FE0300FC040000030302FFFEFD02FF03FEFD02FF01020202FF02FF0103000201FE000000FE00FFFE0101FE010102FFFD02FFFD02FF0104FF01FF00FEFFFFFDFE030001FD0000FDFFFD0300020204FCFD00FE01FDFC,FD03FF0301FE0102030203020300FDFE01FDFFFE050303FD0003FF03FDFCFDFFFF000103FFFF03FFFFFDFDFEFEFD02FFFF0300FFFDFF0200FE0002FD0000FEFFFD03030203FCFCFCFD03FF0000FDFD03000000FE0001FD0203020001FEFC01010300FF02FFFEFD0000FE01FEFCFDFD030103FFFDFEFFFF03030102020200FD03,FD03FE02FD01FFFCFF02FC03020000FF0103FEFEFDFF01020401FD02000203FEFFFFFE0201010102FFFD00FEFF00FEFF03FFFF01030202FDFE01030201010200FE00FF03FCFD03FC00FD0001020103FF01FD0303FDFD020102020101FDFFFCFD00FDFFFFFEFFFDFDFEFDFCFCFDFD00FE00FC0303000100FF02FCFFFEFFFC01FE
,0302FCFEFCFD0203FD01FDFDFDFCFD00FC0100FD00FFFCFDFB010001FE01FF0202FDFFFE030301FC0000FD030301000303010102FEFD01FC0000FF02020101FD010103FE01FD01030102FEFE01FD00FD01FEFC0203FF01FEFD0303FF02FC0102FDFF00FE01FEFDFDFFFF0000FFFF0001FEFF000103FE00010302FDFEFDFFFFFE,020004FE02020203FCFD02FCFFFDFFFF00FF0502FD04FFFF02FFFD010000FCFD000002FD03FF020000FD0303FE00020303020301FF01000103FC0202FF02FC000305FF03FEFDFD0101FC020000FE00020101FD02FE00FE00FFFD01FE040204030103FB02FCFE030300FDFF0403FE01FF03FEFDFE00FE0001FF00FEFDFEFD03FF,03FFFFFE0203FEFEFFFEFFFD02FCFC020202FCFD04FE000302030003010000FEFF03FDFF00000000FE03FCFDFF010103FCFF0003FC03000101FCFDFFFCFEFC0203FC02010002020100FDFC0103FCFCFF020303000201010301FC02FE02FDFC01030003FF03FE00FD03000303000300FF0203FB03FDFDFDFFFFFEFE02FF010001,FF02030100FF0300FE0102FF0402030100FE04FD03FD02FF0002FFFE00FD000202030101FF05FEFE04FDFEFFFF0103FEFFFF02FC01FE000001030002FE02010102000103FF0200FD02030301FF00010101FE00020000010200FE00FD03FBFEFDFDFF0200FEFC03FC06020002FEFE0203FEFD03FEFE01FEFF0201FBFDFDFF0003
,01FDFD01FE0200FDFEFFFEFFFFFFFE01FEFEFE03FF0301020302FFFE03FD03FFFDFE01FD0103FEFFFEFCFFFEFCFEFF01FFFE0103FC02FCFFFE030202020100FC01FDFC040201FF0201FC0203FFFDFC01FF02FC0102FF01FCFD020200FEFE03030001040301020200FFFF0201FF0200FD0201FC01FE00FDFBFFFEFE020003FE01,0101FDFC0304FFFEFF01FCFEFFFEFDFF00FE02FE04FCFE01FDFC03FE0103FE01030200FDFEFF0003000000FD0103FF01FD03FDFDFD00FF03FE03FEFD02FF00FF0000010201FF02FFFDFD030201000103FFFE03FE03000201FEFD0102040003FDFFFD00FDFFFD0400FDFD03FFFFFDFE01FFFCFF0302FEFDFF00030002FFFC00FF,000203FDFE000102FCFF0001000102FFFFFCFF01FFFFFCFD04FCFFFF03FDFD03FE03FE0103FFFDFCFC03FDFD02FFFF04FC0304FCFD010201030202FEFC01FE02FE040000FF02000104FCFE03FEFC03FFFD0204FF0200000101FE00FD04FEFEFFFE00FF0103FDFE03FF020300FF0001FF030002FDFF0302FD0204040100FC00FF,FEFFFCFFFE020203FE0200FE02FCFEFFFC0104FDFF01020300FD02FF030103FE0302000306FC0202FC00FCFFFDFC010301FC010002030302FCFEFE02FEFE00FD03FE01FE0101030301FF01FF03FE0302FD0300FD02FF03FE010300FDFF01FDFEFEFE0002FD0001FE030203FD00FD000200FC00FEFDFEFEFCFDFE01FDFFFD00FD
,0201FD0303FF00FEFD03FCFE020102FEFEFDFC0101FD0202FD02FEFC01FF00FF00FC00030300FDFC02FCFFFE0303FEFDFF01FF00FD03FE01FFFF0100020002FEFCFE0201FF00FDFEFFFCFD01FEFD020003FE01FEFEFF03FCFF030200FE00FDFEFEFFFEFC04000202FC0302FFFDFEFD0300FF0202FFFEFEFDFFFF0003FDFEFE02,00FF01FFFD0302FF0300FF03FD0003040302FD01FD010002FF03FEFEFCFF020303FEFC0000020003FE03FE0200FDFF00FF02010203FF01FFFD000101FFFF0201FD0102FD00FCFFFD0301FF03FFFEFC010003FC00FFFFFDFFFDFFFDFDFD020102FFFD030301FD020305FDFEFEFF00FDFF0101020303FD01FC040201FD01FF00FE,00040101FDFD02FE03FD01FF0002FFFE00FD01020302FD03040501FE02FFFDFDFFFDFEFCFD0302FD01010300FE0202FC0203FE01FEFE00FF01FC00FDFD0000FE0303FD01020201FCFA00FFFFFF000301FD0001FC000100FD01FFFDFFFC0103FC030202FE03FE01FD03010403FEFFFCFEFEFDFDFE0201FCFFFD000301FC00FFFC,02FD0300FCFD03FE01FCFEFF000103FF03010200FB0100FD00010002FE01FD02030201FF03FD00FEFE010300020201FF01FE03020203FD0203FEFEFCFEFFFFFF0004FE010201010205FF020203030302FF01FDFEFD02FEFE030001FC0000FF02FEFE03020001000302FDFEFDFE010101FDFCFEFCFEFFFEFFFEFD00FE0200FDFC
,FF02040301FDFD0100FD01FEFEFC00FE00FC0300FF0003FE000001FE01FE03FE0301FD0003FE0100000302010101FD030100020002FEFE0301FDFC02FD010002FCFD03030101010306FF0101FDFFFE03FEFEFCFC01FEFEFDFEFFFDFEFEFFFDFF01FDFEFEFF00FD01010202FD0202FDFEFEFEFDFD030000FF0000FEFEFF000300,FE00FF02FD010001FDFDFDFD00FEFDFC00FEFD00FEFF04FE020403FD03FEFEFEFF02FFFEFC03FEFDFE01020003FF01F900FE02FE03000200FEFBFD01FF020302FC0401FF01FE01FFFFFC0303040200FDFF05FDFC01FDFD01030203FE010102FCFF010100FFFEFA000502FC0100FFFE01FF050200FEFDFFFFFF01FCFFFFFCFD02,FE00FD0000FD03FF02FFFD01FEFD03FFFE0204FF010302FCFFFFFFFD01FFFE030201FFFFFF010203020000FDFD03FFFD0303FDFBFD000000FDFE00FFFD0002010003FD04FEFEFDFD0100FD000202FD00020001FD02FE00FFFFFF0100FFFD0100FFFD00FFFFFFFFFE010000FE0301FDFD0200FF010201000003FF03FC020202FE,FF02FFFFFFFD050303FFFE010301FEFEFC0102FEFBFD0003FF0402FD0101FC01FDFF04FEFEFEFD03FEFD02FF01FE00040203FF00FF0203FF01FC00FCFDFEFE010104FEFDFCFDFD02000000FDFFFF02FFFE0300FEFEFEFDFF00FD01FF00FFFC03FDFE00010303FF000403FF0001FD03FF0202FD03020100FDFFFF0104000302FC
,00010301FF030203FC00FD02FF03FCFE03FF00FEFEFFFD03FBFDFE0101FDFF0003FC02FD0502000102FEFEFEFE04FEFEFE00FEFFFF0000FCFD01FDFDFCFCFD01FFFD03010301010303020102FF0103FF0000FDFFFE03FEFFFEFE01FFFDFF02FEFDFFFE00FCFDFF02FB0002FEFC0301FDFFFFFC02FEFCFD0002FF03FEFDFF02FF,02FF02FEFCFD00FDFDFFFF0302FC01FD01010203020203FD03FFFD03FF01FC02020102FF0000FE0102000103010003020000FE00FDFEFDFD02040100FC010201FDFC0102FCFF0002FE00010001FCFFFF02FFFFFFFC00FE020103020203FEFEFDFE04FEFE03FDFF0201FE000201FD0000FD00FF020103FFFE01FE0304FDFF01FC,00FEFF03030201FFFE00FD01FEFEFD0303FF01FF00FDFEFD01FF01FEFEFFFEFDFFFDFE0203FFFF0301FC0000FFFF020002FEFCFE0000FCFFFDFDFCFFFE020300FE0102030003030002030002FDFCFEFFFD0303FE02FF03FEFD0302FFFE00FFFFFE03FE02FFFF00FD030000FC02FF0103000003FC00FF00FC040202010302FDFD,0304FE01FFFEFF0301FE030003FFFCFCFC030100FDFE0303FB02FDFE0103010202020401FD02FC00FFFFFFFE04FEFCFFFFFFFF000103FFFFFF0001FC0101020103FEFE01FDFEFF01FF01FCFEFC02FDFFFFFFFCFD03FDFE000302FFFF02FFFEFF01FF0201030303FE02010203FFFEFFFD00FE01000300FFFBFEFC0203010001FE
,0100FFFF020103FCFCFEFFFEFC010000FD02FD0005FFFE0303FE02FFFCFDFD01FC0100FEFFFE00FC0300000100FFFCFC0203FDFE0200FD02FE00FCFFFCFFFD02000301FDFDFEFE00FE0303FC02FFFC00FFFF03030100FE020300FEFD0201FFFFFC0201030202FFFDFF02000203FFFCFEFEFDFC02FDFC03020402FFFF00FF0201,01FE0000FEFF04FE02FEFE0104FDFC03FCFFFEFD03FF03FF010202FCFE020000FC000200FD0104FF01FE0001FE03FFFDFDFDFDFFFFFD03FBFF0301FEFEFCFDFFFE07FF0201FE01FDFFFE0401FDFDFD01FE00FD02FCFDFE010203FE0403FBFEFDFFFE0000FF0303FE00FD00FF0001FEFEFF020102FE0403FDFF00FFFF030102FC,030403FEFCFF0103FE01FC030103FFFFFD0303FF03FF020001FEFE01FC0003FDFDFD00FE00FEFF01FFFC000003FEFEFF0003FEFFFD01FCFCFD01FEFFFE0300FEFFFFFD010101000201FD03FF03FDFCFF02FFFF0101FF03FF03000102FD0203FEFFFDFE0201FDFCFF000203FD000200FD03FCFF0202FDFFFFFD02000203FE02FE,000303020201FE03FD0300FFFF0301FEFFFD02FD03FE03FEFFFD000202010303FF02FFFE03FCFD02FD03030300FC01FD00FDFF00FFFEFEFFFEFE000300FF03FF0003FF020001FF0202FDFCFEFC0003FDFC000103FC010303FEFE00000200030000FFFC010000FEFD0001FE03FE0301FDFD0201FDFD03FDFFFF000204FCFEFF00
,01FF02FD04FD03FD00FD0000FE020003FEFDFF040200FC0201040302FC040204FFFE00FE010000FC0202FE01FC000000FC01FC02FF010300030103FCFC0101FF0304FDFC0003FFFE04FFFE0203000000020203030202000102FF0302FFFE00FD03FF0302FC0000FEFF01FFFEFF02FE05010301FEF90002FC00FCFA04FF0302FE,0102FFFEFEFEFD01FF00FE0101FE03030103FEFFFFFD030002FBFDFBFEFDFC01FEFF02FE020002FF0100FE03010302FF02FDFD01FFFEFE02FF0101000301FC0201020102FE03FF0100000101FFFD01FE01FFFCFEFD0103000003040100FCFFFD02FBFD03FDFF0202FE0301FC0001FDFFFE01FEFEFE00FCFD0301FD0200FF03FE,FE01FFFFFE00FFFFFE02030302FFFE000200000000FEFF000301FCFCFEFEFDFF0001FF00FCFF02FCFC010100FE020000FD000102FF03FFFE00FD02FEFD0402FF02FDFF020000FE010201FDFF000100FE0000FF010100FD030001FF01FE010303FD0100030200FE0202FFFC00FD03FEFE0302FDFE0002FFFD010302FE00030002,0303FF02FF01000302FE0200FDFCFF0000FFFDFE0200FBFF000100000200FE0203FD00FD0103FE01030004FD03FD00FC000301FE01010404FEFDFF000000FD00FC00FDFDFF030003000302FD020304FF00000100FD0300FFFEFF02010103FFFC0006FF03FEFFFDFDFC030200FC03FCFEFF03000300FE02010102FF0302FEFC00
,FEFD02FE0303FF0302FF0301FFFD00000002FEFD030003FEFFFEFDFD01FC0300FF01FE02FE0301FFFE00FEFF030003FF00FD01FF0001FFFC03FE02FD0103FDFDFEFD02010303FE00FFFEFE03030303FF0201FEFF02FF00FE0302FF0201FEFF02FFFFFD0000FCFD03FFFF0102FDFEFF000202FF010202FF01FDFFFF00FDFEFFFF,FDFF01FE02FE04FF0102FD01FD02000203FF0001FE01FD03FE0201FF050301FCFE02FC010102FDFEFCFF010105FF01010301FC03020200FD02FD0204FFFB00000206FF03000000FDFF0301FFFE01FEFFFE0101020002010302FF000503FBFE03FDFCFFFF02FDFD02FD020002FC020305040001010002FB0602FFFEFC00FE01FB,03FE03FFFF02FD0002010202FEFD01FD0201040302FE0201FB01FF0003FDFD03030100020201FF03FE01FDFFFDFE02FE01FFFD02FD00020103FFFD0000FC03FF0201FF0203FF020100FFFD02010101FF0301FE000203FD03FE030101FE0203020302FE0201FD01FDFDFFFD0402010202FD0202FFFDFF01FD040300FF01030202,02020000FF03FD01FEFF0303FF0002FC030201FCFFFDFE000304FD030203FD020000FE0300FF00FE01FC02FC03FF03FCFE0101FDFFFE0001FEFC0000FC00FC00FF0000FF02000104FEFE010302FE00FDFEFEFF02FE02030101030402020200FC020303FD01FEFF02010202010003FE030302FDFCFEFD01FE0101FD00FE030300
,0004FD030300FE0502FDFFFEFFFEFEFE020201FCFC020203FBFF0101FE020000FCFEFC030400FF02FE020400FEFF0102FE00FC0400FCFE0203FCFD02FE00FEFD0201FD010202FDFF0000FCFEFCFEFF0201010302FE03FE00FD030301FCFF000103FBFC00FEFDFE00FB020004FE01FF00FDFF01FE01FEFD02FDFDFF0100FCFE01,FF0100FC0100000003FF010103FF0003FD00010205FEFDFE030102FF02FCFC0302030100FDFEFFFC00FE00FF01FF0203030101FDFCFEFF0002FCFCFEFD03FD00030002FFFDFDFE03FEFE0101FFFEFE01FDFF0201FCFF03FFFD0002040300FC02FD0303FC01FC020201FE0202FD0201020000FD00030103FE03000101040200FF,03FF01FDFD000404FD02FE00FE01000004030002FF000100FF060304FDFD00FF0200FFFF00FFFFFFFFFDFEFDFEFDFF02FDFC03FE0003FF01FD0200FFFDFE02FF0105FE0102FEFF02FDFFFFFD00010000FF0200FE0004020202FE02FFFE00FFFD03FC0000FEFFFF0304FE02FEFCFFFD03FF0305FCFEFCFF04FD010203FF0101FF,00010001FD030201FCFDFC03020101FD03030302FF00FCFE030200FAFEFEFE01000100FFFDFC0300FDFF0200FF03FEFD0102FC0103FFFBFC01FE00FF01FDFF00FF020200FD020301FCFE00FF0303FFFCFD0002010003FDFE03FFFE01FF00FCFE000000FC030000FFFF020300FD01FD0302FFFFFF04FC02FD010302FDFF010003
,02FEFEFE02FEFE010000020003FDFEFDFF0301030304FFFFFF0300FCFE01FE00FD010201FD02FD0100FF0301FE03FFFD0001FD02FEFDFDFF010300FC03FFFEFEFF0103FEFEFF00FDFFFCFF03050202FFFD02020203030100FD01FF0101FE01020403FD0003FEFEFDFF04FF00FDFD0304FDFCFDFEFDFCFE0002FE030003020001,0002FEFF0204040001FC01FD00FCFE04FFFEFCFEFE0301FE00020102FC0000FFFC000203FC01010001FD0100FDFEFD03000302FD01FD0301FFFE01010400FDFF0103FEFD00FCFDFEFFFFFF00FFFFFE000300FFFEFD02FE04FF0103FEFE02000101000102FF03010001FE0001FD020202FCFE010103010002020302030003FF01,FF02FDFE02FE0303FF03FDFEFCFEFD02010002FF000301FF02FC02FC020303FEFDFE02FDFF010100000204FEFEFE000202FEFFFFFCFF03FF00FA0001FDFE020000FEFDFDFE00FF02FC0203010000FFFFFEFD02030202FC00FE0402FE01FC02FEFCFFFE04FE02FCFF000303010100FD000302FD01FFFD02FFFD020200FCFEFD00,00FDFEFE03FFFF02FF01FBFD03FBFE02FDFF01FF04FEFDFD05FE01FE0200010101FDFC0001FFFCFCFDFBFE01FFFCFF02FDFE04FEFE030604FF00020102FDFEFD010006000103020100020302FDFDFF01FD0100FF00FF05FDFCFF02FF020103020202FFFF030205000101FF0201FE0301020002FF00FFFEFF02FF00FA0301FF02
,010400FE04FE00FE010202010400FD01FC02FAFFFFFFFF04FBFB03FF0301030002FEFEFC03030203FDFF01FC0203FD01FE00FDFEFFFEF7FE0001FCFC0103FD020204FEFEFFFEFDFEFEFE000004FD0100FD00FFFDFF02FC00FF00000100FFFF0300FFFF020100FEFF0102FFFCFD0000FEFDFD0303FFFD0302FE03FF05030200FE,0001010103FF0205000004FC02FDFF04FF01FE0200010304FF0303030202FB00FEFFFEFE00FFFF00FC0103FFFEFE0002000304FDFC01FDFEFAFCFEFE02000203FEFD04FDFFFCFD020003FDFEFCFE00FBFE01FFFF07FDFCFD030100FC00FDFBFFFC01FEFCFEFDFE02FE00050001040301FC0000FD020104FFFF00FFFD04FF00FF,FDFF03FD03FE0302FF00FFFD02FE0102FEFF00FDFE03FF03FD01FEFC0202030100020101FE00FDFD03FE00010102FEFC000302010003000003FFFCFFFD01030104FEFCFFFE010000FF04FEFF0103FFFE0202010303FFFEFDFFFE04030300FF0100FD01FCFDFF0002FCFE02FC02FFFD01FE0103FE01FEFEFF0201FFFD03020000,0101FFFEFEFD04FC000200FE00FCFD0003FE03FFFE02FDFFFF0400FF040301FFFF0000000201FC04FF03FD00FEFEFD00010303FEFFFEFDFF02FDFFFD02FF0200040302030104FF02FEFE00010003FD0103FE03000001FDFC00FF01FFFBFFFD01FC0104FE02FF020303FDFD000304FF0200FFFD04FDFCFF0300020003FD03FEFC
,FD02FD02FE0201FF0000030203030101FDFFFC02FF03FD03FC05FC03010101020201FE0001FC00FF020102FFFC03020301FE01FF02FCFE000103FDFDFCFD01FE04FCFFFFFDFCFE01FDFFFE0304FD01FE03020002FEFD0200FD00FFFE010303FCFF020002FEFF02FDFEFDFFFF030101FCFF0202FEFD01FF0103020103FDFF03FE,FD00FEFCFFFE02FC010103FDFFFD00FFFDFE0203000002FFFF01000202020102FD0300FDFD01FFFEFF02FCFC02FDFDFC00000200FEFD00FEFF0202FD0100FFFFFE02FCFF0401010202000202FEFF02FCFFFD000200FF02FD000302FDFF01FEFF00FEFF0300FDFEFEFE010400030402FF01FD0203FDFE04FD01020002FE020200,FEFFFFFEFC01030002020001010303FEFEFF0105FE0202FDFD01FEFF01010003FE01FFFEFE0301FC0303FF040005FDFF0301FF0603FFFBFEFFFEFFFE01FD03FF0103FF0401FF010002FE0002F9FDFFFEFFFF00020300FF030005FCFCFAFD0200FB0100FEFE000200FFFEFF0100020200FEFE01000003FE030204FE00FEFEFFFF,02FF0003010003FFFDFF0200FEFEFFFEFD00FFFEFF03FEFEF90100FE03FF03FF03FE02FCFF00FF0302FE00FE0203FD02020303FFFFFC000200FD02FEFD0000020301FC04010301FE02FE04FFFFFC03000001FFFFFF0102FD00020102FEFFFC010204010300FE0301FA0000FFFFFF00FDFD01FEFEFC0201FF01FDFF030300FD02
,0101FDFD02FEFC0100FC03FFFE0100FC03FE000200FDFC02010200FCFEFDFE00FC00FF02000003FE0000010305000203FD02FF02FDFF020102010002FD020003FFFF00FD03000301FD01FC0004FEFD02FDFFFFFE00FDFD0000FC0303FB00FD00FD00FFFC030004FFFAFDFFFF00FF02010303FB02FFFFFEFD00FCFDFD000101FD,FE02030202FF03FD00FC00FDFD02FEFF03FCFD0101FFFCFDFE0400FD0100030001FEFD010001FF000203FD03FCFDFEFF03FD00FF02FDFDFCFEFDFC0202FF0400010100020200FDFD03FD030304FC0101FD01FD00FFFEFEFE01FDFEFF00010203FEFFFF0301FD01FFFA0100FEFDFE030201FDFCFD030102FF030103FFFFFEFF03,02FC0201FF030400FDFC03FFFF03000100FE00FF01FDFD0301FF02000100FFFC0202FD010000020101030001FE00FE030304FD03FD00FDFDFFFF000202FEFDFE010103FEFF010203FFFF04FDFFFDFE010103030204FF0302FEFF0001FE01FDFDFD0000030100FF0102FE030303FD02FE0303FFFF03FFFF00FF00000000FE02FC,FCFDFD0200FDFF0201FD00030203FD0103FDFCFE01FFFC03FDFFFD03FCFCFE03030102FDFFFD010301FCFD03FD000201FE020203FF02FEFEFF0102010103FE0102FE0300FE00FF0005FEFDFD010000FEFFFE01FFFF02FDFFFE0200FEFCFE0002FF0203000200FEFF030301FCFC0001030200FFFFFD02FF02FFFCFE0303FCFEFD
,FE04FFFEFF0004FC02FE0301FD0100000101020000FEFF01F90303FDFE01FF0202FC000203FC02FCFEFCFDFFFDFF0203FFFDFEFCFDFD000102FFFE0202FD0100FE040302FFFBFD02FE0303FF03FDFF02FE0303FF0302FE0003010103FF0200FC00FE02FFFF01030200000003FF03FDFE0403FDFE00000202FE02FE04FDFEFD02,FE02020201FFFCFEFC03FDFCFDFE0303FD02010002FDFB0101FF000304030301FFFD00FD060004FD00030200020002FD01FDFDFD0202FF0102FFFFFF020202FF0101FF02FC0000020202FE0002FF0002FD01FE0004FDFD000402FD02FD0201FC0104FFFD03FFFF000303FDFFFE00000201000201FFFFFDFE03FDFC00FF0001FD,FD00000200030407FD00FEFE020101FEFD03FEFFFE02FA0202FD02FDFC00FFFDFDFE010107FF01FF04FDFCFD00FF000303FEFF00FE01FFFE0204FCFDFD03FEFE010302FEFDFB0402FEFEFDFEFEFC00FD02FC00FE0302FD00FFFDFBFDFEFC0100FE0202FC0200FD02FF020003FF040102FDFDFF03FF0402030400FE0003FE03FC,0101030300FF0003FEFF01FEFF0000020300FC0000FD00FF020102030203FDFCFEFCFD000002FD00FFFFFF0203FE010300FD02FE02FFFF00FF03FEFEFF03FEFF0201FCFF03FD03FCFE0203FFFDFCFFFC03010102FCFEFF01FE0200FE02030201FDFEFF02FEFE010302FDFC02FE0202FE0302FD00FFFDFF03030300020201FE00
,FCFDFF02FDFC0101FFFC020301FFFE00030204FDFCFDFFFF00FB01FF000204FFFFFF03FD02FF01FDFD03FD0203FEFC00FF0103FE03FE030101FFFCFFFF03FE01FF0002010000020100FE00FEFE03FEFEFFFDFEFEFF0100030103FF0300FFFC000202FE0200030201FF00FE0101FF0303FDFF00FEFD0101FFFC000003FEFE00FF,000003FC000002000301FD0004FF0202FCFF01020504FE03030203FF0002FF00FE02FE0300FD0303FE02FFFF0003FD03FEFF03FB000302FC03FEFEFDFE030304FD03FC020003FF000001FFFF00010203FFFF0100FE00FDFE03FF0200FF04FDFCFF0300010001FFFDFA00FF03FF0103FDFF02FF02FE0200010003FDFDFD000001,0001FF03FE0302FF000202FDFE01FCFFFDFDFFFC00FEFFFE00FE01FFFEFFFD01FCFF01FE040102FF01FFFEFCFC00FF0002FEFE01FFFE02FD0003FC00FD03000002FEFE0303FE02FD0002FF03FEFFFF020302FF010000FE0201FF02FE00FFFFFE0200FE0002FC0101FCFC010003030302FF01FF0200FE030203FEFCFDFE03FFFF,00010001000300FE030203FD01FF0000FFFFFDFCFDFC01000302FF0201FDFA03FEFEFE0100020000FDFBFCFFFBFDFC01FE0400FA0002FF0202FDFEFCFC000001FFFFFDFD030103FFFD0200FD0102FE01FEFE0100FEFE02FD00030202FF000302FDFC00FE0301FD0300FD0403FC03FD03020002000201FFFE010202010201FE00
,0102FE020002000003FEFEFD020202FF01FCFDFEFB0201FC00FF0004FE00FAFF00FD01FF00FEFD020104FDFF0000010202FDFE010002FDFE0204FEFD0100010002FFFC02FDFCFFFD0102FC0303FEFE01FDFC010202FE00FE020301FFFF02FFFCFD0202FEFE00FFFEFFFE01020100FFFC03FD00FFFBFCFD04FDFF010401FEFD00,FDFD0401FCFFFD00FE03FE02FE0000FE01FEFEFE02FDFFFDFF0000FAFEFD01FF0001FFFFFDFE01FDFF0003FF02020202010301FEFFFEFEFD0200FE02020203000201FF02FD00FDFDFEFEFCFD02FE00FFFCFDFDFDFE02FF02FE010302FE0200030303020301FCFF02FB0202FFFC00FEFEFFFF03010002FD000300FFFE0000FCFD,FE01FEFC03FDFDFEFE010203000301FD03FDFD0001FDFD00FD01FF0202FD01000001FC0202FD0303FEFD02FD0100FE01FF0401FFFC00FE0300FF0202FD03FC0202FEFD02FEFEFE020100000201FEFE01FCFF0202FD00FFFEFD00FEFEFE02FDFFFEFEFF03FD0303FEFCFF010103FF03000200FF01010000030001FDFF0002FDFE,FE03FE0203FFFD0203FCFE030300FD01030103FC03FE01FC040102030102FC02FFFDFD0000FFFDFD020002FE00FFFEFF00FC0302030201FF03FFFD01FF00FE0000FDFF0102FD02FEFEFFFEFD01FD010002020100FD03FCFE00010200FD01FD020403020203FD01FEFDFF0001000101FDFDFE0002FDFD00FE01FD0201FE03FD00
,00FD00FD00FEFE02FFFE01FD00FCFDFDFCFD0301FBFFFE00FE0003FE0003FFFEFC02FD010003FD0200FE000103FDFD020101000202FC00FE03FC030001030301FD03FF02FFFF010102FF020001FFFE00FE0403FDFDFE0201FFFEFF03FFFD01FE000002FC0303FF0105FFFDFD0300FE0203FCFF0001010301000100FE00FEFFFF,FEFF0101000103FE04FE0100FE01FC020103FE03FC0104FE0002FEFE0104FB01FEFFFEFD01FF0303FC0303FE06FEFD0003FDFD0002010000FDFC0200FC0301FFFE06FFFDFC00FD00FF040000030000FF01FF02010201FCFF03FFFF020100FE000304FDFDFEFF00FD00FF03FE01FDFEFF0501FCFD0105FDFEFF01FD0100FDFD00,FFFD00FDFD00FDFE00FD01FFFD02FDFFFCFDFC02FE0200FCFE04FCFE03FFFF0200FFFF01FE00FD02FEFCFF02FF04FEFC00FFFFFF0202000203010101FDFDFF01FFFEFEFD0302FCFEFB00FDFE020002FF01FFFF03FE030202FD01FFFEFEFF00010300020003020202F900FF04FC030203FDFF0000FF0200FE0203000102FD00FD,FF02FEFC02FD02020000FF0002010300FD030301010202010100FB02FFFF02FFFE010102FEFD0000FE0002FDFF030000030303FF00FFFF000002FDFDFF020302040201010301FDFDFFFF04020101FE00FEFF0001FC020002FEFC0102FC02FCFFFDFF020304020203FFFE02FEFFFDFC02FD02FD01030301FC030300FF0201FF02
,FE02FC0100020201FDFFFCFD02FCFCFFFE00FE02000304FE0002000202FD000101FE00FD03FDFFFEFE0103FF0202FDFCFD010001FDFE00FDFEFFFF03FE020000FC0103FEFEFD03FC0100FEFEFA01FD03FEFFFD02FF00FD01FF01FD02020003FEFDFCFE0000FC03FD010103FD0004FD000202FF0100FE01000003FDFE0202FF03,01FE01FD0201010100FF01FEFDFEFFFE04FCFDFD01FE0102FFFFFC02FF0104FD03FEFFFCFFFFFFFF02FF01FD0000FD02FF03FDFE01FF02FD020102FE00FEFD02FFFFFD0304000002FCFD04030001FD000203FD00FD0200030201FDFE0201FF010303FF03FE000400FC0300030300FEFF0001FD020203FE0301FF02020301FFFE,00FF0101FD000102FD02FFFE01FFFEFDFDFF01FDFD00FDFEFB03FF000203FFFF020200FD020301FCFFFE020102FD02FF01FDFC02FD03FFFDFFFF0002FE03FF00010502FF01040100FEFE020300020200FD020103FC0101000102FD01FE0001FE030300FD0003FEFDFF0303FD03FDFDFE03000101FE04FC00020100FFFD030301,01FDFDFCFFFDFBFDFFFD02FE0302FC0202FE0202FDFE0102FDF904FF03FF00FEFD00FE030300FE01FC02FE02FFFEFCFDFDFF0001FDFFFF0201FEFD0103FEFD0202FD00FE02FE02FD02FEFD01FF01020203FDFD00030003FFFCFC0400000302FCFE01FFFFFFFE020300FF01FD01FC03020203FFFF000002FEFEFF030402FE0300
,0100FF0200FD0203000300FC0102FDFCFFFDFE01FDFDFD00FA0000FE01FDFD03030200FDFEFD0202FDFEFDFEFE01FEFD00FDFCFFFF0102FD03FE02FE0000FFFDFCFDFC0003000201FBFFFC0103FE01FFFFFF00020302FDFFFD020101010301FDFF00FDFF0300FDFDFAFDFE0202010301FF03FEFD00FFFD00FFFFFF010401FD00,030302FD03FE020200FDFCFD01FFFFFD02FE0001FEFE010203050100FF03FCFEFC0102FE03000101FC01FC01020101020104000102FDFC00FDFD0202FE02FD01FFFDFEFD0103FEFFFFFFFFFD000003FEFDFEFFFC0001FC010003020002FD01FCFFFD0302FD000401FA0402FFFFFD01FEFDFF03FEFD03FEFCFDFEFE00FE01FE01,0000FE02FD0201FE0000010003FFFC00FEFD01FCFDFF03FF000702FFFD01010002FE01FDFDFE00FD02FEFEFFFEFD0001FD01FD000200FEFEFDFF0000FFFEFFFEFD0000FFFD030000FD00FD01FD02FD030301FEFEFDFD01050002FEFF0100FF03FEFC030000000201FF0304FC030103FE02FD0101FD0001FD02FDFF0401FCFC02,FFFCFE01FDFE02FDFE01FEFFFCFD02FDFD02FEFF0000010304FFFF00FF02020303FF02FEFC000103FCFD0003FEFEFE00FC01FFFE01FC01FF0102FF03FF03FFFD0300FDFC0302FE00010100FE01FC0300FFFF00FDFDFDFD04010103FD0002000200000100FFFD0302FC03FC010302FEFF0000FCFEFDFDFCFE01FE0004FF010002
,0300020201FDFC02FD01020301000100FEFEFC030001FEFFFE01020402FEFE020300030200FC000100FD0300FE01FF00FF01FFFEFDFFFD02FFFFFF00FEFFFE00FCFCFE02FCFFFD00FDFD000100FFFD0201030301010000FD020004FE0300FF00FE02FEFF0403FFFD0001FF03FEFC01FFFD0103FF0200FE00FC00FFFDFFFD02FD,0002FFFF040002FD03FE0403FD0202FE0203FE0202FFFE02FC06000101FFFD00FF00FEFC0000040005000202FEFC02FE0402FE0400FDFFFC000301FD020303FD01FB00FEFF03FD04FAFC01020402020100FE02FE0104FD0703010002F8000300FD04FEFB00FDFDFFFAFF000501FD0201FF010000FD0101FEFDFFFF010202FEFD,01FD0203FEFD0200FFFEFF00020001FD0403FE01000104FC0106FF00FBFE02FDFE02FDFEFF0003FE02010002FC03FC01FC01FE01FF00FC0401FEFE030000020302FB02020004FDFFFD0103FFFEFF0302FDFEFD00FDFEFDFF00FEFE0402FE03FF0302FC0200FCFF0101FF03030001FD02FCFD0100FD0001FD0003FA040103FF00,FFFE01FD030306FDFFFE03FD0002FEFFFC020200FCFEFCFDFD0003020103FCFF02FCFEFE04010301FD000201FEFCFEFDFCFDFD0003FEFC030303FE00FEFEFF0003FEFC0300FDFD010500020201FDFE0102FDFCFE03FE0204FEFD02FD0000FFFC03FF0402FE00FFFFFAFF01FF020000030103FEFF01FE040201FFFF02040200FD
,0200FEFC00FC01FE030101030301010200FE00FD02FDFFFFFDFEFD0001FD00000102FD0002FFFF0100FC0001FF00FFFFFD02FC02FDFDFFFD00FD020101FF00010202FD0001FE00FFFBFFFE0101FF01000000020103FFFFFF00FC04FCFFFDFDFD0000FD02FDFDFE03FDFE01010300020302FDFE030101FFFE0301040300FF0100,00FE0100FF01FF01FD01FEFD0301020103FEFE03FD020301FFFD020000020303FF03FF00FD01020302FEFDFE0300FEFE0302FE02FF02030003FF01030103FD010300FC01FEFE01010600FFFFFF03FFFF0303FF0003FF02FDFF01FDFE00FDFEFDFDFC02010303FE0302FFFEFFFFFDFD01FFFF020003FD0102FE02FC020101FC01,02FDFE0000FDFF01FD00FE0104FEFD03FD0100FC0103FFFCFE0402FAFFFD03FDFF0200FFFEFD00FCFC01FD01030200000301FFFC020102FF010000000102FEFE04FF0102FD0100FCFCFE03FE0003FF030201FDFCFF00030003010001020300FC01FF01FD00010203FEFFFF02FF00020403FFFE01FE0003FF01FDFC02FF000302,FC00010100020300FFFC01FE030301FF000303030303FE01FE0BFCF9FFFFFE020002FE02020301FE0201FE01FC030302030301FDFE04FFFF0202020000FDFF02FE040102FEFF010201020000FFFCFEFEFFFEFFFEFD02FDFFFE0003FFFCFD01FC00FF020002030003FE03FEFF00030004FF00FB0002FE01FCFFFFFCFEFD010002
,FFFDFDFE02FF00FCFCFE0103FE02FCFDFE01010103FDFF000008FDFE02FE01FD0302FE020001FFFD020303FC00FE0000010003FEFDFF01FEFF01FE02000101FCFCFD0102FDFD04FEFC0302000302FE03FE00FCFF00FD02FFFD00FE01FC0102FFFEFDFE0000FE0003FBFEFEFDFDFF010001FDFE0302FD01FBFC0201FDFF00FF01,FC0200FE000303000202FFFD0102FEFDFFFF04FE010001FD0001010303FCFE02FC00020103FC00000002FE010303FDFE01FF00020301FCFDFDFE03FF00FFFD0103FD01FF000201FFFEFFFFFDFDFD0102FE02FCFDFEFD0302010300FDFE02FF03FD040203FD020301FF03FDFDFEFC01FD0102FFFFFEFDFE030202FDFD04FD01FE,FCFF00FEFEFC02010303010003FE030000020303FCFF01FFFD0001FEFF03FEFDFDFFFC0302FF00FEFFFD01FFFCFFFEFEFD03030200FFFEFF0202FDFF03FF03030202FD0000FD02FC00FFFD00FD010202030303000202FEFC03FDFE03FD01030103FEFF020100FE030503030200FC02FDFF02FC0202FD01FFFF03FEFE01FEFD00,FE00FE020202FFFF03FF00FEFE0301FDFE030002FF030102FC04010004FE00FFFD0100FE00FFFCFF0300FE00FFFFFF01FF00FEFE030100FEFD03FC010201020100FE0003FF01FFFFFBFD03FE0101FE000002020103FE01020100FE00FC0102FF0300FCFD01FD00FFFBFD02FEFEFFFC000200000102FD02FFFD01FC0301FD02FD
,0000FE00FEFFFF0001FEFF01FD00010204FD010200FF05FD02060104000201000200FD0104FF020102000200FC030002FEFEFFFE0001FFFE0103010104FD04FD03000001FD0601FDFEFCFE00FF0103000000000102000001010003FD01FE020201FFFE00FD0100FFFE0500FD030402FD010200FDFC00010202FBFF0403FFFD04,FEFF00FD02000300FD01FE030301FFFF01FFFEFFFEFD01FF01010100030103FF03020102FFFFFD01FE0001FE0103FDFE01FF02FD03FF03030300FE02FE000200FE02FEFFFF020300FC0204030403FFFFFCFD020204FC0000000000FFFFFE0302FF02FC0300FDFF01FB03FD0003FE02FD0003FFFEFC01FCFE040200FFFEFCFFFD,FDFE02FF01030102FDFC0201FFFF02FE02000200000203FFFD05FD01FDFF01FEFE0301FFFFFEFF030000020202FF00FCFFFEFD020100FEFFFE03030000FDFFFC0302FD010202FCFEFE0003FF03FEFFFDFF0003FF0201FCFCFEFF03FF0003FDFF0001FDFE0301FEFF0200010102FF0100FEFCFE020001FDFEFEFC0000FE02FDFF,FCFFFF0200FD01FD0301FFFE000201010102030303FCFCFF0001020200FD0101FF00FC0102000101FE01FDFDFFFCFD0102010500FCFE00FEFD02FDFD00FFFDFFFD00FEFCFC00FE01FDFCFD00000301FDFDFDFEFD02030107FE00FDFFFFFC0301FF0002FCFD020100FC02FE000202FE03FDFC000103010301FEFEFC02FCFFFCFC
,FFFF03000302000203FDFC00FEFFFF0101FFFF020301FDFE0301020102FCFC030300FD02010101FE0301FC0100000000FDFDFE01FFFD0301FEFF0301FF04FDFDFDFDFF0301FEFEFE030100FF01FF0101FE030201FFFEFEFE00FD03FEFDFFFFFEFD03FCFD03FFFF03FE0203FE0002FCFDFF0200FEFEFE00FDFFFE03FFFD02FE03,FFFFFDFBFFFF0501FDFDFBFE030102FF0105FFFD0204FC00FDFE010004FDFDFEFE03FFFDFFFDFC00FE02010204030401FDFB01FCFBFFFF0301FBFF03FFFF040000FF020100FF03FFFFFF03FD0303FC010203FD0002FFFB01FC07FCFE01060101FD0102FDFF0001FEF804FD0005010205FEFDFA01FE0202050207FCFE01000003,02FDFDFEFF020301FE000203FF0203FD00FEFEFD00FE0300F9FC000203FDFD03FFFCFE000201FDFF020200FD00FC0302020303FEFF03FC01FD02FD000100FE02FDFC02FFFD02FD01FD02FD010101FD030301FD01FEFF03FF030104FFFEFE02FE03FD03FD03020101FAFD03FE010102FE02FDFFFD0103FE0203030204FD030303,00FF03030300FF000102FDFD0203FEFDFF01FD00FBFD020000030102FD03FD00FCFDFCFCFE0202FFFE01FEFEFF03FFFD01FF01FDFEFD000203010002FFFD03FD02FF02010102FC02FD02010202FFFF0002FF000200FE03FFFF010303FCFD02FD00FD02FD02FC02010103FEFE00FEFF0102FF02FEFFFF00010003FE02FDFC02FD
,000303FFFD02FB01FFFEFFFD00FD01FFFDFF0101FD010103FD01FEFD02FEFC01FE01FEFE0701010001FFFE01FF0103FDFEFFFCFAFE0104FD03FF03FE00FE01FE020001FD02FE020003000200040100FFFEFF03010401010100FC03FF0001FF03FF05040002FCFB010300FF020203040400FE0201FDFE0001FE00020002FC0302,0101FEFFFEFE03FFFEFF02FF03FF0204FE00FD02FB0102FF0002FB01FE02FEFF02020202FF0001FE02FEFCFD000203FFFDFF0101FE0300000102FD0102FCFD00FD04FEFE000303FEFFFEFDFDFC0000000102FD00FD0002FBFFFF00FEFFFD01FC01FD010002000403FFFFFDFE0001FE02FD03FCFFFE03FD0000FDFE01010000FF,01FFFDFF03FEFD03FEFEFC02FE0103FD02FC00FEFC01FEFC0305FEFF010001FEFFFFFD01FA01FD0101FEFCFFFE0303020301FFFDFE0301FC0204FF0100FFFFFDFF0201FD02FB0004FE0100FD00FCFEFFFDFEFDFEFCFF030003FE03FE03FEFCFF0102FFFD0002FFFEFD010201FCFEFF01FEFEFD01FE02FD0103FDFC0304FEFEFF,FFFF0103010303FEFCFCFEFE01FEFE03FDFE02FD01FE04FEFF00010002FDFEFFFF0202FF00FE0202010303FFFD04FEFDFD0402FD01FCFC03020002FCFFFC0003FF03FC0103FBFE02FCFDFF0100FEFF0003FD030100FD010003FF0100FC020201FD0002FDFD02FD00FFFEFD01FF0404FEFD01FE00FEFF03FFFE02010301FF00FD
,00FE010302FC00FD03FF02FD02FE01010003FFFDFC0304FCFE01FCFEFEFC020101FDFC02FDFE00FE00FFFEFFFE0200FD02FD010400FD000201030202FC00020300FFFC0301010000020304020202000000FD03FD0301FD02FE030401FD02010303000002FEFEFF03FCFF000202FE0103FD00FD01FD00FDFDFDFE0100FDFF0202,FCFE01FD02040400FC01FE01010200FF04FD01FDFDFEFFFCFD0000FDFC020200FCFFFEFC03010102FFFE0300FDFD02FD01000202000100FE0300FD02FEFC01FFFFFD03000101FD0400FDFFFF03000301000302FD0000FE010003FF03FFFFFDFE0002FCFF01FE0001FE020103FE02FEFD0001FC01FF000203FF01FFFEFE01FEFF,FD02020202FDFFFEFC02FDFD03FC00FDFDFEFE01FE00FDFD0405FD02FDFE02FDFF00FF000303FF0202FD03FF0302FFFDFE000303010001FF01040201FEFD010003FBFCFF02FF01FFFD0003FF00FF00FD020101FCFDFEFD00FF00FF00FFFC00FE02020002FD0201FDFC0301FD0102FEFE0003FB01FEFF03FDFFFDFEFA00FFFE02,FF03FE00FEFEFB00FEFE000100020101FC0302030702FBFD00FB0503FD0700FE01FC04FC0000FF0104FEFF01FF02FDFA01FF04FEFEFF000504000204FF0101FF04FF05FF0003040505FDFFFF01FC0103FCFD0301000403FC00FD03FE06FD0400FD020202060404000102FBFEFD01020000FC0002FFFF030202FDFBFF0004FD00
,FD05000403000106FEFFFCFC03FE01FDFFFDFEFCF9FCFD0001FEFB00FEFFFBFD010100FE0000FCFCFF05FDFE0004FEFB00FCFCFEFEFE07FDFF0200FDFC01FFFEFD04FDFC02FC00010102FD0002FD00FFFDFFFEFE0300000003FEF8FF0004FF02FFFC02FDFF02FC000001FDFF0204FEFD00FDFAFD0300FC030002FD03FEFFFD01,02FDFFFD0001FD00FCFE0102FEFF01FDFFFEFF01FC02FB000100FF02FCFCFFFD0303FF00FC0202FDFBFBFFFFFD00FEFFFC0100FCFFFC0402FC01FC01FCFC010201FFFF0401FCFEFFFF03010102FF02FF01FF03FD02FE01FF0404FE02FCFE020102FC0001FDFEFF02FE03FE0001FF000203FEFC01FC00FC030103FE01FEFEFE00,FF010302FE00FEFF00FF00FD00010101FD01FC01FF000200FC0203FC0302FDFDFE0303FD010203FF01FCFE020000FD0102FDFFFEFD02FE03FD02FEFF02FDFEFE0000FF02FEFFFD03FC0102FE03FDFD01FFFF00FD00030102FE040201FF02FE010403FFFD0000FD00FF02FF04FD04FE03FDFFFDFDFDFCFC01000301FE03010203,FF03FDFF01FD06FE03030000FDFD01FD000001FDFE01FFFDFE0302FD00FEFBFE00FCFFFDFF02FFFE05FFFC03000202FCFEFE00FFFDFFFEFE00000201FE03FDFD01030404000103FDFB03FF03FF01FDFCFD05FDFC010302FD02010404FE0201FF0200FF00FF000302000102FE020002030403020101FCFD0302FCFC04010003FE
,FF02020203FE05FF0103FFFCFFFF000404FFFEFDFE0001010103FCFD00FD000000FFFEFEFD030101FFFE02FC00FD02FD030202020003FEFC03FEFEFE0103000203FEFEFD0100FC0202000203030100FF02FD010002000101FEFD0002000201030300FCFE01FD02FD00FF0003FDFD02FD01FFFEFDFE03FF01000001FE000002FD,030200FE000100FCFE00FDFE0003FC03FFFDFE01000203FDFCFC03FDFF00030300FF01FF02FEFDFFFE00FEFEFD030103FDFD02FC03FDFC01FF00FD00020002FFFF0301020001000300FE000403FE03FFFE0100000100FEFCFF01020002FDFD0001FD0103FF0201030101010300000003FEFE01FEFEFF010103FD01FC01FE0303,FEFC02FD00FE0101FB04010002FFFE0300FD0301FFFEFDFD03FD03FF02FE000103020003FC00FA0602FF02000204FDFEFEFDFEFF0300FFFE01FCFDFBFF00FF0400FEFE00FCFFFD01FF0000FF05FD020000FFFFFC0400FD000405FBFBFA04FCFCFF010201FF04FDFE0001030300FD00FDFF01FB040102FEFBFE030101FD01FC00,0301FEFD03FE03FEFEFE01FE03FC0300FFFDFCFDFEFE0401FF03FDFF02FE0003000202010001FF000003FE02FDFFFF01FC03FDFEFCFFFC02FF0100020001FD03FD01FF030002FCFCFE020102FF020301FD0000FC03FCFEFDFD02FE01FE02FFFC03FEFFFE0403FDFDFF03FF01FE0303FEFE030103FFFEFF01FE02FFFEFD0202FD
,010001FDFD020303FCFFFC01FD01FE0001FFFDFC0200FD0100FE05FFFCFEFFFF00FFFDFD01FD01FF01FD0100FF000101FE010300FD0104FFFCFEFEFFFFFE0100FD02FD020300FD010003FCFEFF01FE02FC00FFFC00FF01FD00FC0000FFFE020000FDFCFD0101FEFEFCFC03FC0302FE00FEFFFC03FD00FD02FC0002FEFC00FEFD,01FEFCFC02FFFD0101FD03FEFE00FCFD0200FCFFFD02030102FD0305FDFD03FD0102FC00020302FFFC0300FF010001FE03FEFEFE03FE00FF020002FF00FF01FCFF01FD0400FE03FF05FE02FD0103FD02FEFFFDFFFD01FFFEFDFF0201FEFEFF01FFFC01FE00000303FDFD02FC020304FCFEFC02FEFE00000100FC0303FEFE03FE,01030203FD03FF00FC02FCFE02FDFF01FC0202FCFEFF0203000202FCFF03FEFC00FD03FD02FC02FFFEFEFF01FF03FD01FDFE03FEFDFCFD01030103000101FE0000FDFE00FE030000FD030004FF01FF01FFFC0200FEFFFFFF020300FDFF030201FEFDFFFD0102FD02FE0101FF0200FDFFFD01000202FDFF00FD02000201030200,FFFDFFFD01FEFDFF0300FCFD02FCFC0003FF0300000200FFFE02FE0001FEFDFCFD0102FEFC0100FF0203FF03FD0001FCFC03FD02FD0302FDFFFE0002FC0402FF00FDFF01030300FF000103FE01FCFFFF03FD0003FF03FE01FD0303FDFCFE02FEFDFC00FFFF03FDFDFFFE02FEFFFE02030200010101FDFC00FE000202FE0300FD
,01030301FEFDFEFC00FE010301FCFE030100FD02FEFDFC03F90300FFFEFFFEFEFEFD020203FCFFFF050302000301FF0203020301FD03FC00FCFE02FCFDFD01FE0004FCFF0302FD00FF00FEFCFCFD01000101FD01FDFF020002FD00FFFC0102FFFD04FDFF03FF02FEFF01020303FDFE01FF01FEFE020103FCFF03FE04FF00FD00,FD01FF02FEFC0203FD0101FF0103FEFE0303FD02FFFDFF01FE04000101FE00FDFD02FEFCFE0201FFFD0202010000FEFDFC02FF02FCFF000300FDFCFE020102FCFE0003FE0001FDFEFDFE02FE0103FC0001FF0102FD030002FFFD020001000302030001000001FEFEFC0101FCFC00FF02FEFCFD01FD01FF01020201FFFF0000FC,02FE01000003FD04FCFC00FC0600FE00FEFCFC00FFFF01FEFD050100FCFDFBFC01FE01000401020201FFFC000201FDFC00FDFE04FDFA02FE00FF03FDFE0100FFFF04FC0001FD02FDFC01000204FFFD0000FC0200010203020300FC000304FF03FE020001FBFCFE02FC020402FF030103FD03FD0100FE00FFFEFC01FFFFFE00FC,FD010100FE03FEFFFFFC000302FC00FEFDFE0101FD00FD03FEFDFFFBFFFF000101FD03FFFEFC0100FC01FD02FE03FDFD0304FDFFFFFD01020303FE03FCFEFEFE02FF0001FF02FD02FFFFFE020003FCFFFC030001FEFCFEFB01FE00FF01FE000203FDFFFC03FC02FF000202FE01FE01FEFE0302FC01FD01FFFF02010103FDFE01
,FDFEFE01FEFDFCFF00FDFDFF010200FF03FFFDFFFF0100FDFEFC030203FDFEFE02FFFD01FD0004FFFF01FDFF03FFFF02FFFDFEFDFE02FF02FE01FFFCFF00FCFE030202030202FD02FEFD01FE0001FD0300FEFFFFFF0301FEFFFDFF04FD00FE03FEFD0202FDFD0403FD01FF00FE000000010000FFFDFC03FD0002FC00FD01FDFF,0103FE00020102FF02FF00000103FD0400FEFF0200010100FD0302FF0202020303FC01FE030000FD00FD010102FD030001FD03FC00000201FFFCFDFFFCFEFFFEFF0603FD03030402FBFE030200010303FCFEFDFD03FFFF0001FD03FEFE0002FCFD02FF00FF0200FF000304FF02FE00FF04FDFC02FFFEFE00FDFDFDFF02FD0202,FF02FDFE0002FF01FDFF010102FF02FE03FFFCFDFBFEFEFF01FF0104FDFC0302FDFC000103FF01FD00FDFCFDFEFFFC00FCFF03FFFF04FEFEFFFE03FE020200030101020103000200FF0200FDFDFD0001FEFD010304FD0200FC0200010102FEFEFDFF010100FDFD03FBFD0302FCFF0200FDFC0003FFFDFEFCFFFEFF030203FF02,00FF0200FE030301FFFE0302FCFD00FFFF0100FBFFFF01FF0101FE02FFFEFF0201FF02FEFB02FF0002FCFFFE00FE01FDFD00FF01000301FE03FFFE02FE000103FCF9FFFE02FDFC01FB0403FD00030202030300FCFE0201FEFEFE040100010002FC0104FEFF020001FBFF01FF01FE01FCFDFDFE01FD0203FBFD0301000102FCFD
,FF03FDFD010201FFFE03FE000002FF00FD01FD00FF0101FD01020003FFFC01040102FD00FDFEFF010102010102040100FE03FC0101FE06FE000300FF0200FD00FCFD00FFFC01010401FEFCFFFEFE02020001FD010100FFFDFEFD03FFFD0500FEFD01FEFF01FD02FEFEFEFC030003FFFF0301FC03FCFEFD00FFFE0101FF0000FC,FEFEFD03FE00FEFC01FC0200030303010300FC02FC0202FFFE03FEFFFDFFFF020202020100FD0103FF01FC02FDFFFF01FE0403FCFF00FEFFFEFE03010300FF02010302030302FE02FDFF00FE00FF02010202FE02FE00FD03020300FE00FE02FCFFFF020303FF02FE010100FE02FEFEFF02FD01FFFDFD000203FEFC0103FE0301,FEFE02FDFE040001FF030303FDFCFEFF02FE030001FEFD0001FC0101FE00FEFEFE03010300010003FD03FFFE0302FEFCFFFFFF0300000301000101FEFEFE01FF0300010303FE00FDFFFDFD01FD01010000FDFF03FCFEFD000002FF00FD01FF000001FEFE0201010203FDFFFC0100FF01FEFCFE0303FE0101FE02000202FDFF01,0000FDFE03020103FFFCFD0203FEFD03FEFC0103FF03FE03FD0303FFFE02FFFF0100020001FD0100FFFC01000300FEFD010103000001FE0101FFFDFF0003FDFEFEFD03FD02FEFE010200000003FE0101000303FD00FF0300FDFFFEFD02FEFD01FD000101FE00FE01FD02FFFFFF00FFFE00FC01FEFEFEFE010300FE0202FF01FD
,03FEFEFEFDFE03FCFC0102FD03FDFE01FDFC0202FE00FE01000003FEFEFFFF0203FD0102FD020101FCFEFF01FEFE02030201FE00FFFEFF010101030001000001FE0603FE000201FEFFFFFFFFFF02FDFEFC01030100FF03FB020001FFFF010302FF01030201FDFFFF01030201FF01FFFE01FFFFFFFD0203FEFE00FDFC0103FF00,FFFFFE0003FF04FCFE0305FFFDFDFD0000FEFDFDFDFE01040300FBFEFEFEFDFE0102FCFC01000004FC040503FEFF01FD0003FFFCFDFDFFFF01020300FDFE0300FDFEFE0402FD02FCFF0401FD03FDFC030303FDFDFCFE02060003010004FFFF0003030002FCFD020000FFFDFFFC01FF0100000200FB010000FFFDFDFDFDFDFE00,010301FDFFFCFCFE03FD01FCFC02FEFEFEFF020100FE000101FF000201020303000102FEFBFEFD02FCFDFC01FE0102FF03FEFFFDFEFE0100FE03FFFCFC02030001FF0000FD00FDFE0300FF0103FCFF0301FD03FDFD0000FB00FD00FC02FF00FEFE00FD02FC02FCFE02FF0202000103030203000301030300FD0100FDFE02FF02,0302FDFDFE01FEFD03FEFD00FCFD03FE01FFFE04030103FFFE010000FE04FEFFFCFDFC01FE0301FD03FFFEFDFEFD0101FF000303FE0400FC02FDFCFE03FF010100FE0201FDFDFF03FE00FDFF01FC00010002FD02FCFF030301FC0304FF010001FD02000003FF020001FF0303020202FDFFFC0203FF03010402FD010301020101
,FF01030300FE02FE00FEFD02FE01010103FD020200FF03000302FD01FEFD010202FEFE0200FD02FF0301FF02010303FE00FF030001FD01FF020202FEFF0203FFFD01000203030303FF00FEFEFEFDFE0201FE0001FF0201FC0003FDFDFD0301FCFD03FDFF0103FF030201FDFDFDFE01FDFDFEFC0101FD00FD0203FD010101FCFE,FC00FE0002FEFF0101FFFDFE00FC03020103FDFE03FF030002FCFEFFFF0203FF0302FC0000FD02FE020000FD03FD000001000102FE0002FEFF03FD030003FFFE03FFFE0202FC0101FCFF010302FFFC01030003030002FC00FF020002FF030302FE06010201000103FEFE00FE01040401FFFE0000FF02010203FF00FE01FE01FE,FCFF02FCFCFEFEFD03FE00FF0300FFFFFE020001FC0102030203FD0400FC0001010200FE02FEFC03FEFD0003020303020304030002FFFFFE0101030003FE000203FEFC040302FD0104FC03010402FDFF01FF0401FE010000010001020101FFFD030302FCFD0002FE02FF0203FE01FF01FE03FD0403030200FFFEFF02FE00FCFF,FF0102FEFDFFFEFFFF00FE03FFFDFE030100FEFCFFFD03FFFEFCFEFEFDFCFFFF0000FEFEFD010303FEFDFCFCFE010002020100FF0300FD03FEFFFCFE0201FFFE00000003FEFC03FEFC02FEFD00FDFFFFFF020200FE0001FFFCFD010201FEFDFFFD02FEFE020300FDFEFC000000FEFCFFFE02FF00FEFEFF010100020403030302
,0102FFFEFD0301FEFCFC0100FFFD01FDFEFDFC00FE030102FF00FCFDFF0002FE010103020202FD010300000100FFFEFD02FFFD00FC0200000103FEFE02FEFD02FF02FD0201FD02FCFF0302030102030003FE03FFFEFF0302FEFF030000010201FE00FFFE03FFFE02FFFD030001FD010002FE0103FFFF0401FEFEFEFF00000302,FDFE020103FDFDFFFE0301FF03FDFCFEFF00FF0103FFFF030403FDFFFE03FF02FD0301FC0102FDFFFE00FD0200FDFDFDFEFF01FCFD01020101FF0200FE01FE0001FC0003FE01FF0200FEFF01FE020002020102FCFE0301FEFD00040300FD00FEFE0102FF03FD01FEFFFEFF00FEFC00FE00FD00FEFC01FDFEFDFCFCFD02FC0000,03020102FF00000202FC0102FD01FD02FF00FFFC0001FF02FF02FE02FF0301FDFF01FCFDFE00FEFDFDFEFFFE020203FF0101010101FEFFFE01FF01FDFD03FE0002FF000202FDFDFEFD02020200FCFDFC03FBFDFDFF010302FEFD01FF010101FFFE030303FDFF01FDFF02FF0403010302FFFC030001FEFE0300FE020003FE02FF,010101FE010401FC0003FD0203FEFE0102000203FD02FFFF030000030102FD0300010001FE0002FC04020000FDFEFDFC0000FFFD03FEFC0001FC01FD0101FFFE02FE02FF03FDFFFE03FDFF00FEFCFE01FE0200FCFE02000002FFFFFFFFFD02FFFDFFFDFDFD03FD0101FFFFFDFE0003FD0201FC0100FC03FE02FD02FDFDFD0201
,000001FFFF01000201FEFE0102FE00FFFDFE00FE0601FCFD00FF0200FE01FCFDFEFCFE000301FEFCFF03FDFE01FC01FF030402FF020001FC03FDFD0103030100FEFBFE00FDFFFCFDFB03FD03FF00FC020100FFFE000000FFFD00FD03FDFC030203FF0202FE03FEFDFFFC0104000203FC0103FDFEFFFD04FF03FF00FE020001FD,FD04FB01FF01FCFB02FD00FD03FDFDFFFFFEFE01FD03FC010300FE010302FC0002FD01FD00FDFD03FB02FCFF02FE01FF02FF0101000101FFFD03FE0400FC00FC00F70305FF0002FE00FE03FDFEFF01FFFF04030002FEFFFDFE02FFFDFBFF03FF020604FF02FE03FEFB0202FF0000040300FD02050604FEFC0202FC03FC020002,FCFFFDFD02020001FDFCFE0101FD02FEFD00FEFE010001020001FEFDFE02FD03FDFF00FFFC01FF03FD0301FD03FEFC010301FE03FE0002000304FE0101FEFEFC04F8020100FFFE01FCFFFEFE010201010103FF01FD03FDFB0100FD03FDFDFE02FDFF040201FEFFFFFA000301FE02FFFE0100FFFC0100FF02FFFF0000FC02FCFF,FDFE0100010306FD000103000000FEFFFFFDFFFFFD0300FC000400FE0102FC000300FD01FF0101FDFE01FFFD03FE02FDFEFFFF01FEFE04FD01FF000402FF00000302FD02FFFEFE01FE02FEFF00FD01FCFDFD0302000000020202FE000003FD0301FFFDFEFF02FF000403FD02FE04FFFF0101020103FEFD0102FFFEFF010202FD
,020003FD02FD030100FC020300FFFDFEFE00FD02010102FEFD000300FE01FEFDFCFE000203020203FC01FCFE000100030101FEFDFF010401FE0200FEFDFFFE010205030001000302FEFEFF03FEFF00FD020402FCFD01030100FE03FDFF0000FDFCFDFA0201FFFFFCFEFF000002FCFDFFFE03000101FEFE0403030103FF01FE02,000304020202FE03FD0103FEFEFC0002FC010200FF010100FDFD03FE0102FEFF02FCFE000201FFFDFD0200FD00FC00FEFE00FF02FEFFFE0102FEFD02FE0102FF02FEFFFD01FEFD03FEFEFE0306FF01010103FDFF03FEFF0202FD02000000FDFD000002FE01FC00000103FD030103FD02FF02FFFEFEFE01000202FD00FF010202,FDFFFEFD03FD00FD000002FE030000FFFEFC0301FB0201FFFFFEFD0202FD0001020000FD02FF03FDFD00FFFF01FE010302FF03010003FFFD00FD0302FEFEFDFDFF0203FFFEFC02FF00000301FEFF02FCFE0202FFFD01FE00FFFF0300FE02FEFE030100FC0302FE0300FDFDFDFF04040202FD02040001FFFCFC00FD01FEFFFEFF,0102FFFD03FEFF00FDFDFD020101FDFE0301FEFC01010101030402FFFDFE02FFFE00FEFFFDFE02FFFDFF01FDFD0200000304020102FDFF00FEFFFF02FFFD03FD00FFFFFEFF03FF01FDFC020101FD0101FC0102FF02FD0202FF02FFFEFD03020300FE03020302FFFDFEFEFDFF02FDFE020001FCFD01FEFE0103FE020001020001
,01FE03FC02FF03FEFD030200FD0202FFFEFFFEFFFC02FE020506FE04FF00FD01FDFCFC0202010001FEFEFC03020401FDFC0300FF000002020304FE02010002FF03FF030303FEFC03FE030302FAFF00FE0100010202FEFE0102FEFE0302FCFC01FD05FD03020203FDFF0104FF01FD01000204FE03FEFFFCFC0300FBFEFFFDFFFE,FFFD03020201FDFDFE01FF02FFFD03FFFDFEFE02FD03FFFF02FFFFFCFCFF0101FE02FD0103000100FDFFFDFCFDFFFD00FD03FC01FE01FD01FD000202FE02FD01FFFFFF020301FFFE0001FCFF0001FF0102FFFFFD0301FDFEFD02FDFF020401FC0000FDFFFEFFFE02FCFEFE00FDFF03020001FDFD0300FE0301FEFD04FF0203FC,03FFFDFDFFFFFCFC02FCFFFD030202FDFDFEFE00FC0102FDFFFEFEFCFF010301FEFC01FDFC03FE00FEFE0103FE010100FEFD0201000303FD0303FF0301FDFFFCFCFFFCFF00FDFF00FFFF0102FCFC0002FCFDFFFE03FE000102010002FE01FF02FFFEFD03FD01FD020303FE010300FE03FDFDFEFF02FF0301FC0001FD02020302,FEFEFFFCFF03FF01FDFFFE01FEFFFE02010102FE000302FFFC000401FF01FF03FE00FFFFFDFEFFFCFE00000301FFFFFDFF00030203FEFE02FE01FD000100FD03FD03FEFD03FEFD0202FE04FE0301FE00FD01FEFEFC0001FB010202FDFFFF02000301FFFFFDFEFF020101FF00020102FF03FEFE0202FE01FEFEFF01000301FDFE
,0000FE02FEFE01FD03FE020001FDFCFE010201FE01FF0400000202FD02FFFC01020003FCFBFC0201FCFE0101030202FCFCFEFF020301FE01FF04FF01FD0101FDFE0200FEFF030401FC010100FE02FD01FFFEFE0200030000010201020201FCFF04FBFDFEFDFF0602030204030200FEFD0201FD0002010103FFFCFB030001FEFC,0101030003FE0401010003FD04FFFF0004FCFC010202FFFF05040203010302FDFEFF00FCFD00FD02FE01030302FD00FD0004FFFDFEFDFCFCFD0001FF02FE0303010200010302FD00FDFD0104030200FC03FFFF03FE0001FDFD02FFFE0300030001FDFCFCFDFF01FDFEFF0003000103FD01FFFDFE01020203FDFDFF000403FDFC,FD02FE020400FEFDFDFCFD03FF020201FEFC01FFFF0303FDFF0001FFFFFE000101FCFD00020201FD01FD000000FF01FEFF030102FD02FE0303FF020103000001FF01FDFE04FFFD00FEFDFEFE03030002010002FD03FE01FFFD0301FF0303FD01FDFCFCFF030103FDFDFD010003FE02FEFE03FF030104FF0100FEFC030301FFFE,010200FCFCFCFDFDFE0101FCFE01FEFEFD0002FF04FDFFFE020600FCFEFDFC020403030204FDFF030404FE02020002FE010402FD0200FD02FDFD01FF0002030300FD0004FC0500030202FC02FBFE04FEFF03FDFCFE010001FDFD03FD01FD0301030204FD04FE0301FCFC04FE010102FDFDFDFEFF040100FF02FE0002FE03FDFF
,FDFC0201FDFFF90002030202FCFEFD00FD00030203010002FDFBFE03FD0103FD0201FDFD0200FDFFFFFD0103FFFCFD03FF02FDFEFC000402FF03FFFFFE00FEFFFFFD01FFFDFF00FDFF0300FE00FEFEFEFD0101FF03FD03FF02FF0400020100FD0103020300FCFDFEFEFEFF0201FE03FF03FC00FD00FC02FEFF00FEFFFF0301FF,FCFC01FDFCF90800030301FC02FD010000FFFA0205FE030201F8FE040102FD0305FFFE01FCFF00FFFE04040101FFFC03FFFDFFFEFD010202FDFE01FC020000FEFB03FE0504FF01020202FA02FE0305F9FD01FC00FFFD0502FD010000FFFF0300FF0602FF0301F9FD0002FFFD05010103FEFDFF020606FFFD0101020300020404,FF01FDFD030100010203FE00040301FDFDFEFE0301010101020202FCFF03FF02FFFDFEFDFFFC00020200010000FE01FE03FF00FF02FFFFFFFE0202020302FE01000101FD02FF02FEFFFF0102FEFEFEFD01FF02FC00FF0301010401FD0000FE02040001FDFFFE010202020000FE010202FFFD01FE00FDFFFF01FEFF020203FD01,0001FE03FFFDFF01FDFDFCFC0100FEFE00FE0303FE030100FF02FEFF000201FFFFFFFD03020002FFFE0200020002FEFF03FFFEFD0001010200FFFFFF00FE01FEFD02020000030201FDFEFFFE01030002FEFC00FE0101FEFEFDFF04FDFE0301FE01FE0303000103FFFE02000101FEFC00FEFE0201FEFFFE0200FF02FFFE03FDFE
,000000FEFDFF0403FF00FFFE00FF0002FD000003FCFE0200FEFAFD0401FD03FD01FFFFFF00FF02FF010003000002FDFC01FD0102020300FE03FF0001FE0201FF030102FFFDFD0000020402FF0100FD03FD010102FDFDFD020101FF03030303FD02020102FEFF0002F8FEFD000302020401FD0001FDFDFE0404FC01FE0003FEFF,FEFDFEFEFD01FC03010103010102000103FFFE03FFFF02FDFF04FEFFFEFFFE0002FD0102FEFD0100FFFCFC01FC00FDFF00FFFDFFFCFEFCFF03FD00FFFD01FD020301010002FE0001FE000003FDFC00010100FF01FD03FEFD03FE0003FEFD00FF01FDFFFFFFFE0401FCFD02FD0200FEFFFFFF01FEFE02FFFDFD03FDFEFE020101,0303FFFC0101FF0403FCFD030401FF00020301FE030200FEFE0203FDFEFF010202FF0002FE02FFFF0102FF02FDFE03FFFE00FDFDFCFD03FF0300FE0101FE02FFFD0001FEFDFF03FFFF010101FDFE0301FF040302FD02FE0200FDFEFFFE000303FE0601FFFDFC00FEFD03010200FE03FE0400020303030200FD02FDFD0002FF03,FE04FDFD04FC020200FE0101FE00000002010003000202FEFE00FA010200FEFDFC010003FD02FEFFFFFDFF01000003010104FC01FFFCFDFEFEFD0002FEFF00FFFFFFFFFF0101FF0303FEFD000601FE0301FEFFFC03040103020001FEFDFEFF0301FEFD01FDFE0002FC030302FFFF0203FFFFFF0203FD02FCFDFDFDFE00FEFCFC
,0003FFFF02FF02FF00FCFC00FF00020201FDFC0202030402FFFDFC0202FEFEFF00FF010201010100FD010201FD0101030104FCFEFDFF0003010301FFFE01000002FDFCFDFE030102FF0300010200FC03000201FF02FF01FF00FE0002FFFE02000101FEFDFD0001FF01010201FEFF02FD0302FC00FE010402FCFF01FEFCFFFE01,0300FF010301FEFCFD02FCFFFEFC0001030201FE000102FC00FE03FE00FCFC00FDFFFE020000FE00FC01FCFDFEFD01FE0102FE01FC02FE0303000100FD01020203FFFFFF02FCFE030102030100FEFCFFFD03FCFD010202FE01FFFF03FDFF03FF04FDFFFE02FD00FD020104000102FF01030002FD000101FFFEFEFFFE00FEFF02,0102FD02FE03FD0400FF01000203FFFE010003FCFF02FF040003FF0400FC03FEFE0001010000FEFF0002040200FC00000002010300FC00FF02FEFFFFFE00FDFDFDF803010100FF0301FFFEFE01FCFD00FD02FDFBFFFEFE06FEFE0000FE0300FFFEFDFC020202FFFFFB01FD01030001FD03FFFD020300FE00FEFCFB02020501FD,06FEFFFDFCFDFC0403FEFE0005FB00FCFC02010107FFFD01020202FF00FF04FE02FC03030205FF0101FCFBFD04FF00FFFFFC04FFFEFD040200FD000001FD0200040001FEFE00040001FFFFFD00FC00FFFCFFFAFE010403FBFEFF03FE02FE02FEFFFF0100FF02FF0104FE00010301FD01FFFB03040305FF000104F9FD020301FD
,FF0302FFFD00FF06FE0304000003FDFF01FEFAFE00FEFDFF01030000FFFC0001FFFC000000FCFF02FFFE00FD0202FE0300FFFEFF030205020000FD020302020003020100FEFA03FDFCFDFD04FF03FEFDFDFEFD0301FDFC030102FDFDFEFFFF03000205FE0200FE02FB03FEFEFC0002FF000102FD02FFFE02FEFC0104FA0302FD,000302010503FFFBFFFC00FF0102FD0306FE0003FEFC04FD0001000405FFFDFF0202FF0101FF03FDFDFCFCFD0303FFFE0002FC00FCFF04FE000104FC02FDFDFDFD00FDFFFF03FF0402FE0002010204FD02FE00FF0603FC010102FDFF020700FC010103000400FEFCFEFF00FFFC02FF00FCFEFE0200FBFE01FF00FE0101FF01FF,0101FE0003FEFF02FFFD0300FF00FFFC02000002FDFE0402FDFE01FCFE03FCFF020102FD030202FDFC02FDFCFF040302FE01FDFEFD0001FF0300FF0102FEFDFE0103FE00FF0103FDFC00FDFD030202FE01FFFE02030304FE02FEFDFD0200FDFD030101030202FDFF0003020202FD02FEFD0302030201FE02FEFD01FEFD00FE00,FC01FF01FD020201FD01FF0102FE02FFFE03020202030500FC0201FBFC02FB0401FE0001FE01FF00FDFDFFFD0401000001FEFD01FFFE010101FC01FFFF0203FFFE03FE0002FFFEFF0403FEFD03FDFC03030300FCFDFFFE01FC030001FDFC0304010101FD0001010000040301FD00000202FF0302040102040002FE010200FDFF
,01FEFDFCFEFDFDFD0000FF0003FCFDFDFCFFFD03FC010003FC040001FE03FDFE02FC02FCFD020302FC00FC0103FD0000FD0303FC00FDFD03FE01FDFD02010103FDFF01000202FEFFFBFCFF020203FE0200FCFE02FDFE00FD03000403FC00FEFD020100FD03FDFD01FC00FDFE010301FF02FFFD04020201FD02020102FEFC01FF,FC0200FE02FD00FCFEFD010302FDFF04010303FE03FFFF03FB03FE0200FE01FFFCFEFD01FFFD02FE020003020301FDFD00FDFD0201FFFCFDFEFE00FF03FC030100FD0002FE01FC03FC000304FEFE0201FCFEFE030203FC03FF01FEFFFF0002FDFDFEFF02020201FEFF03010100FDFF03FFFE00FD01FE0103FFFEFCFF00FD02FF,0300FFFF01FF00FE0101FFFE0202FD00FEFDFC0200FCFA0401FF03FFFDFCFB04FEFEFD0305FEFD02030102FE030004FFFE010007FC0305FFFEFF020104FC0104FCFE040302FB02FDFC020301FBFDFD0303FE02FB05FEFE02FE05FC02FB0003FF02FEFBFC03000001FEFD00FEFCFB0303FE01FF040000060402FE0200FBFEFFFD,03FDFDFF02FDFF00000102FC0200FDFD00FC00FDFDFC00030306FD02FD03FCFDFCFFFF000301020201FD01FC0201FFFDFD03FFFFFFFD0103FD03010202FF01FEFE01FF03FF03FC000303030301020300FCFE02FDFE01FF000101FE01FE0302030102FCFD03FFFE0203000302FC0302000201FD02FC03FCFFFF01FEFD01010000
,FFFD0301010002FEFE01FCFE02FC0003FFFC0102FF0101FEFDFDFDFFFEFEFEFE03020001FD01FCFFFEFC01FD04FDFC0002FFFFFC010102FCFF01FE0402FDFEFE0301FCFEFD01FCFF010301FD06FD0201000003FD03FDFD02FD00FEFFFCFC02FCFEFEFD01FFFC01FFFCFD030203FDFDFD01FF01FDFFFDFC0000FC05FD03FFFFFD,01FDFD0102FCFFFDFD020003010202FCFDFEFDFF0100010202FEFC04FEFF00FEFCFEFC02FD010000FE0000FD03FE0001030103FD000400FF03FC0103FFFDFEFDFC010103FD0201FFFC0301FE02FE010201FE03FDFC01FEFC000303FF01FFFFFFFDFEFFFF01FF02FE00FE0203FC0200FEFDFCFD010101FF0302FCFE0404FD0200,FE00020203FFFF0200FD0100FEFE03FDFEFD0303FFFEFD0103FE02FD0201030002FCFCFD020202FDFE03FE0001FFFDFEFFFC01FD0202000000FE02FE00FF02FE01030203030200FE040302020101FEFCFD03FF010204000300FC03FF010000FCFDFC00FE02FD030303FF000303FF0300FD0300FD030000FDFEFEFDFEFF030300,FC030001FEFD0300020100FE00FE00FF02FF0000FD00FFFEFD00000303FF0103FCFEFD020100030002FCFD010100FC00FE00FDFFFE02FF030004FF00FCFFFCFD0101FCFF00040203050200FEFF020103FD0202FD0000FCFBFF0001FDFFFC02FC02FE00FE02FFFDFCFD010000FEFE03FE0300FCFFFF010301020203FF0303FEFE
,FE04FDFCFDFE00FCFF01FFFFFF00FD01020103020202010006030102010103FEFF0103FDFDFEFD03FCFDFD020200FFFEFE0203FFFFFFFD00FD0300FD0002FF01FD020001FDFDFFFF000001FCFE0002FC03020200FF01FE03010300FFFD00FDFE020302FDFFFD03FFFD0100FFFD0100FEFFFD03FF00000402FD0100020201FFFC,0304FF0202030001010103FD01FF0302FEFC01FEFF010002FE0000FF03FDFD01FFFD0202FE01FFFD03FDFC00FDFF0003FDFDFE0202FF02FDFD020300FEFF0201FE0102FFFFFF03FE000201FEFDFE0102FEFDFCFE040000FD020403030101010401FD04FEFDFFFEFDFCFD02FC0302000303FCFC02020400FD0000FF02FE00FDFD,FFFEFD000001FD000100FE0302FF0103FEFE0300FBFC01FE0002FD0201FDFA00FFFDFBFEFEFD030201FEFFFD0004FD0000FD01FF01FFFFFFFFFFFE0300FFFFFE02FE020001030002FE0103FE0200FDFE03FDFF00FBFD0005FE030303FE0103FEFE010100000100FE020001FF00FEFE0000FF01010400FFFF00FE02FB020402FF,00FEFEFDFF020300FEFCFDFEFD03FDFD030101FDFBFFFDFFFE05FEFCFE01FD0202FC02FE03FE02FEFE02FCFE0302FD01FFFD02FF00FE0100FD03FCFFFE01FE020000FDFE030303FFFF01FF03FF0200020002FEFD0100FEFEFFFD01FF02FEFE000200FC01FDFC00FEFC0200FFFE03000201FEFE00FF0200FCFE02FD0100000100
,FCFDFDFF010202FDFE0203FC00FF00FDFC00FE01FF0202FF0304FEFEFE0000FF02FEFE0301FDFEFC01FE010102FDFF0303FD000000FD0301FEFCFE02FFFD0301FF0303030002FF00FFFF03FDFF030301FF0004FF00030100FD0103FEFE00FFFE02FCFF01020203FD020101000003FF03FD01FE03FF020302030000FFFEFFFCFC,0202FF03FE0302FC02FFFE000300FFFD02FDFDFD07FDFF030003FDFFFF03FCFEFF0201FC00FE0300020202FC020003FF0103030601FFFD03FDFFFE020201FDFE0103FD030202FDFFFFFE00FEFD000201010100FFFF0201FC020300FFFFFE0003FF01000103FC00FE0403FD01000103FF03000103FE000102FE0302F90402FDFC,00FD0102FF00FE0101FF03FFFEFE00FF02FCFCFFFF01030102FFFC05FF01FFFC03000301020103000201FCFE020302FFFF0002FD020100FD02000202FDFCFC0103FFFF0002FF000004FEFEFF02FC02FC02FD0002FF02000101FD030203FEFDFE0102FF01FFFDFF01000303FE00040203FCFE0302FF030302FF0102FCFF010201,01010200FDFF05FEFD04FEFFFDFCFD0204FC02FCFF0303030105FE01FD00FD01FFFF03FFFE02FDFEFFFD0100FFFEFCFFFEFEFDFC020000FD0001FEFDFC000203FDFEFD03FDFEFFFD0103FC0000010001FC00FE01FEFE010402FEFE03FF01FD01FD01FEFDFDFDFFFE0203FF020000FE000003FE0104FE02FFFDFF01FD0002FDFC
,FD00FE0202FEFFFC0200FCFF0200FFFBFE020300FD01FD02FFFF03FE01FCFC00FCFD01020000FDFE02FC00FC0200FD01FE02FCFC0200FFFD0205FDFDFDFCFE02FF02FFFEFF02FFFDFDFCFFFC00FC00FDFD00040304FE01FE00FE04FFFD04FD0002FBFD00FC02FD01FBFFFEFFFD03FEFDFDFDFFFF02000303FCFFFF0003FEFE01,FCFDFD0002FD0001FD020300FC0100020000FCFC04FE02FD04FF0100FD00030003FE0201020001FDFFFEFFFF01FF00FFFF010101FD02FE03FFFDFE00FFFC0002000103FFFEFFFCFF01FFFEFF03FC0203FFFF00FE00FE0304FD030103FE020201FDFF01FD01FD04FDFBFE0200FF03FD0303FE00FC02010301FEFCFEFEFEFCFFFC,FC00FDFD03020103FFFCFDFCFCFDFE03FD01FF02FEFD02FD0301FF02FE00FE030202FDFD0303FDFD0201FD020300FD02FE03FD03FEFF010000FE0001FE0300FD02030200FE02FDFEFDFD010103FDFC0300FDFF02FF0103FD02FDFE01FC01FDFDFDFCFDFFFFFFFFFE03040303FEFE01FD0201FEFEFD040400FFFE0100FDFD01FF,0202FDFDFD0002FCFD01FFFD02FE000002FC0201020200FEFE02FCFCFDFC0001FE01FD03FD010000FE0000FFFCFEFE02FD02FC02FDFEFE03FC00FEFDFEFEFEFFFE01FEFDFF00FC0306FE02FD010101FE010203FEFD030100FFFD00FDFF02FEFDFDFBFEFEFD01FD02FEFD0001FEFC02FDFE0102FD00FFFD0000FFFDFDFD020202
,FCFD0002FDFE02FD000102000102FC00020000FEFFFE02FD000304010100FC0001FF02FE00FE04FEFCFF0003FEFEFE00FE0200FFFCFFFC01010302FDFC00FCFDFFFFFD020005FFFF02010302FD03FD03FDFFFEFDFDFEFDFD0102020100FFFDFC00FD02FCFFFEFF0000010100FE02FD010203FC030100FDFF04FE01FDFD00FC00,FEFE030202FE04FF010101FCFF01000203FFFD01040003010104FDFD03010100000200010200010101FEFD0000040101020303FF0204010304FDFCFFFD020003000101FD0004FFFDFE0002FDFD00FFFE02FC0101FD0301FFFC04FDFF020400FD0004FE02FFFF02FEFEFD0303FC0303FCFD00FE030001010102FD0000FFFC0000,FDFF000202010400FF030002FE02030001FDFC01FC0301FE02FB02050303FCFD02FF0001FD0001000201FF02020102FEFCFD03FDFC03FD0103FF030203010003FE030203FFFC00FE03FE01FE06FEFE0000FFFF03FEFE02FF03FF040102FC00FD0200FC0000030300FEFE03000002FF00FDFEFC0102000101030100FDFD020301,0101FDFFFFFF0201010201010400FE00010100FDFFFF03FC0401FFFD03FFFC02FDFD02FDFCFF0001030100FD00010100010203000302FFFDFDFD03FDFF00FCFEFEFFFE01FE030101FE020400FE00FDFC020101FE03FD0402FDFF0302FFFC010302FAFFFD00FE01FE00FF03FD01FD020001FFFCFFFDFCFCFDFD01FD01FD020101
,02010302FD00050301FDFF00FCFE03FF01FEFD02FF01FFFDFF02FD03FDFDFEFC0001FCFFFF02FEFF0405FCFC0400FF01FCFDFE030201FCFCFE0301FC03FC0303020103FD01FE0201FA0302FFFE02FC0204FF00FE030202FEFEFD02FD03FFFCFF0403FC02FE00FE01FF030403FDFDFD0103FEFD01FD010300FFFDFF0204FD0300,03010301040103FF00FC0203FD03FEFDFCFF00FC03FD010001060003010200FD01FCFD03FE00FEFF01FF0300FFFE00FCFFFFFD0201FC01FC01FFFD0303FFFDFD0400010100FEFD00FCFF0202000200FFFF02FD01FE04FFFD02FEFF04FFFE03FC0107FDFFFF00FF0103FE0202FF02FEFDFEFFFDFE0000010002FD00FEFD010102,FC0200FCFFFEFE0100FF0003FCFCFFFFFF01FD04FAFEFEFE0303FE02FE0303FF000300FEFE0303FC00FF000200FCFE03FD0300FE02FEFEFE0200FEFFFC0000000000FC03FF0401FFFEFF030002FC03FEFFFDFF03FDFD03050002FE03FFFFFFFEFFFEFDFD00000002FFFF010301FCFF0003FDFFFF02030001FFFD00FE01FEFFFC,FCFFFFFE03FCFE0002FC00FF00FF0001FD03FE01020203FEFFFCFFFF030100FEFDFF02010201030002FFFC03FDFE00FE0401FD02FFFDFEFEFD00FDFD00FF0202FFFFFEFFFD0102FF02FD03FE0400FFFC02FC01FF00010000FD00FE020203FFFF03FEFE02040303040201FF02FDFEFF03FDFFFE02000303FC03FDFF00FDFFFDFF
,00FF00FEFE0000FF0303FE0001FCFE030002FEFF01FD01FEF703FEFA0203FD02010200FD0103020100FCFFFE0302FF0001FDFC02020101FDFFFFFDFE02FF0201FE00010000FE01FC01FEFDFDFF020203FDFF02FF0003040001FE04030202FF04FDFE0003FD00FFFCFB03FD01FDFCFCFE03FC0000FE0102FF0002FD04FD0000FC,01FF01FD0104FFFCFF01020200FEFE03FDFF00FE02FD0001010000FFFF010403FF01FFFDFE01010302FDFFFF01FCFF01FD03FE00FF03FFFF0303FE00020200FF00FFFF02010203FEFFFD040001FD03FFFD00FF020100FD0300FE02FDFEFD0303FF0300FCFEFF000303020201FE0001FDFC03010200FE02FFFEFEFE01FD00FF02,0202000203FD06FCFEFD0000FE01FE03FF010204FF010200FE05FDFEFF00FEFEFDFDFFFEFD00FD01FCFE01FD0002020000FE0201FE03030200FE000002FC02040405010401FC01FCFE0403FD06FC01FD02FC01010302FFFDFEFFFE04FC0103030100000201FCFD03FC02FE0302020001FDFEFFFFFCFF0003010100FD020300FD,FE02FF03FFFC000003FEFF0100FD01FE02030004FC01FDFEFF0500000102FDFF00FDFFFD000302FD03FF03FC01FD04020204FEFDFF01FC02020300FE01020201FEFC000000FBFFFF01FE02FFFF02FF03FC0002FEFEFFFDFBFD0104FF02030002020001FDFFFDFE0200FD0301FEFD030003FE00FE00FE00FE010203FD02000201
,FDFCFFFF01FD04FF020203FE00FC0201FDFC02030102FE02FC02FD040203FF00030101FF01FE0000FEFFFEFF04FFFF00FD000200FDFE02FCFDFE0100FF0301FE00FD010202010001FB01FEFD04FDFE02FDFFFF00FE03020203FFFE01FD00FDFCFE00020201FF020202010302FEFDFD0203010101FC0201FD03FC03030103FF03,0002FFFD03FD0602FE0203FEFEFFFFFE0401FC04FC0104FD000802060101FD0101FEFD03FD020101020204FEFCFEFD01FF0404060200FFFD01FFFD0303FE0603020200FFFEFCFC010600FEFF07FEFDFE0402FE03010200010101FEFDFD03010403FD00FEFF000004FF0101FC0302010300FB0503FEFFFEFDFDFE00FE01FF01FE,0002FFFDFD0206010002FF03FE00FEFE02FF02FEFBFCFEFFFB0802FE03FE010003FF0203FE0200FC0002040001FEFE0202000000020304FD01FCFDFD0300FFFE0305FD01FEFEFF02FE01040204FE0002FE00FEFC03FDFFFFFF020100FD0100FDFD00040102FC02FE00FFFEFE01030202FD01FEFFFD0204FE0303FD01FFFC0203,FF03FDFF04FE04FE00FCFE00FCFFFEFDFFFE0001FCFDFFFF0304FFFEFD02FF0003FDFC01FFFDFEFE000102FD01FF02010202FD02FE01FEFEFCFFFCFEFD02FD01FF03FDFD01FC0303000204FFFEFEFE01FDFF0302FDFCFEFEFF01000101FD02FDFFFD010104FD02FDFFFEFDFCFFFDFD0000FCFEFDFDFD00020203FEFFFE03FC02
,FFFCFEFEFE00FEFCFC01FF03FEFDFF010302FC02FF01FF03FFFF01FFFFFD0100FC00FFFC03FE0201FF0200FF00FFFD0001FE01FF03FEFDFE0303FF00FDFE03FE010003FF00FCFF02FB01030205FD00FEFEFC0302FEFC01FCFE03FF02FEFFFC03FE03FD000200FE01F900030302FFFFFCFEFF0103FCFD00FE03020203FF0102FF,FFFEFDFC04FDFC0201FC00FE02FD00FE00FE010103FE0202FBFDFC0001FDFE020300000304FFFFFD0102FDFC01FD01FF02FC020002FFFBFC03FF02FD0202FF00FEFE00FFFEFDFD01010300FF00FCFEFD01020303010303FDFD0102020204FDFD03FE0301FC03FFFEFBFDFEFD00FE01FFFEFFFCFEFEFCFDFDFD030002FDFF0002,02FFFEFFFD0101FE0202FF0302FF030202FF01FFFC02FD00FF02FCFDFDFFFDFE03FFFD00010302FF00FDFF02FFFC0200010202FE02FDFFFC00FEFDFDFD03FFFCFFFDFEFE040302FDFE0201FFFEFCFE02FD00FDFDFEFE02FEFEFF04FDFCFDFE02FD0301FC03020303000000FF03FD0401FE010002FDFEFE01FE0100000002FEFF,010303000203FDFEFDFD02020002030100FF01FEFB00FE010107FEFDFE02FE000000030003FF030202FD01FFFD0201FFFE020000FCFDFFFD010100FEFCFEFDFD0103FE04FD010101FD0200FFFD02FFFF02FEFE00000202FE03FF0300020002FF04FDFC00FF00FF00FC04FEFF020001FF01030004FE00FD00FF03FE0203000102
,0201FE0003020203FDFDFE02FDFDFEFFFDFDFEFEFC0301FC010403FF03FC01FFFC02000301010202FD01FF0101FFFE0303000204FFFFFCFC0100FD03FD03FD00FDFEFC02030001FEFEFDFE0100FEFE00FD020400FE03FE01FE010201FCFD03FCFF00FF0202020202FE0200FEFF00FFFF02FC010303FD0302FD01FFFD0200FF00,03FC02FD0000FF01FEFD01FF02FE0100FEFEFDFF0300FC03FD00FD0101FF03010202FC00FE00030104FEFFFE010302FEFEFD00FE02FE01FE00FDFDFDFDFDFE02FCFF0102FE000300FD04FF000201FE0200FFFE03FC03FEFEFE01FE03FD05FFFE0007FE000302FF010103FD00FD0200FE01020302FF02FEFC0101FE01FD03FFFC,FDFD0003FFFF02FC01FD01FFFD03FC03000203FE01FF03FC0202FF0001FD00FF03FF020300FD0301FFFD00FDFDFD01FD0200FF03FF03030001FDFEFE00FD0103FF0103FDFEFDFFFE02030202FE0203FF0001FD00FC00FEFF02030203FC01FDFD03FFFEFDFDFD0201FE02FDFE01FCFEFEFEFCFE03FFFFFDFEFD02FD030203FDFF,FF010200FDFFFF0201FFFCFF00FDFD00FFFD020303FDFE03FFFEFFFD0301FEFD00FDFEFFFC00030200FF0301FFFD0201FFFEFF01FD02FC02FDFDFF000002FF0203FDFE01FE00FF00FFFE0303FCFE0301FF01FDFEFCFFFFFEFE04030203FE02FD010402FDFEFCFD0201010301FD03010302FEFE01FE00FC02030202010103FFFC
,FFFEFFFC020107030300FE03FE0002FEFC01FDFEFAFD02FEFA05FDFFFEFDFE03FCFDFF01FFFE04030300FD020300020302FC0003FEFDFD0201FC010304FCFEFC0404FF0004010503030003FF02FFFD02030102FD01FD01FC00FDFDFDFE0201FFFDFFFE0300FE0101FC0203FEFD05010300FCFC01000301010202FEFF05FDFD02,0002030101FD040000FDFD01FF010203FC01FE00FE0100FFFD050103020202FE0302000001FD02FEFEFFFEFE0002FFFF0201FD0200020300FDFFFC0200FEFE000302FF01FF03FFFEFFFFFE0001FCFFFF03FE00010100FE01FDFFFF00FE03FE0201FDFDFCFEFD040300FD030100FFFEFDFCFDFF03FEFE0200020103FF03FE00FE,0101FEFE000202FC03FFFE03FEFF0300FCFF03FD02FCFE00FF06FE03FF0303FFFDFFFD00FEFCFF0203FD00000401FD03FC010101FDFE01FF0300FF0002FEFEFFFC03FD0201FD03FFFE02FF00FE0100010100FDFD03FF0201FD03FFFE02FC030001FDFC00030001FF0303FD01FDFE0004FFFCFE00FD03030200FD00040301FDFD,00010102FD00FEFD01FFFDFCFFFE03FF0103FE0001FE02FF000301FF0101FFFF010300FD0201FBFC02FD0303FCFFFC0204FD0101FD02FE050103FDFF01FDFE0102FFFD03FE03FD00F804040101020103FEFEFC02FEFF020000020002FDFFFEFEFF00FBFEFD03FF030102FD0200FE0102FDFD010301FCFE0203FD01020400FE01
,03FDFF00010200FC02FC030001FDFE01010301FD01FE0303FFFD0100FE00FFFDFEFCFE0201FD00FE02020101000203FDFDFDFEFE00FEFE03FC03FE00FDFFFFFC02FD00FD03FE02FF05FE0100FE03FEFF02FE03000001FCFEFF02FD010303FE00FDFCFF0202FF030104FF03FFFDFDFF02FE0103FD01FE02FDFF03FEFFFFFDFE03,FE0104FFFD00FBFCFFFFFEFF0204020101FF050202FF0000FE0303FDFDFF000203FDFBFF01FDFEFF04FCFF01030601FDFD0203FFFF01060400FEFE0102FD05FEFC0202FE0302FDFFFD00FC010000FEFA03010301FAFF0001000101FC0301FE00FE030302060102FEFCFDFEFD0100FD0400FD020102FD0000000304010100FE03,FEFF02010403FD02FD02FF0202FF01FEFD030200FE0004FF05020102FEFCFDFF03FDFF01FE02020300FF0203FEFDFD02FF03FC0100FCFC0000FF0002FF030200FD00FFFFFF00FDFD0203FD00030102FFFCFCFD02010101FC01FD00FD01FFFC020301FEFD03FF000101FDFD00FEFE00FEFFFFFEFDFD02FDFDFDFFFC00FE01FC00,FC0203010400FEFCFEFEFCFEFFFFFEFDFEFDFF02FDFE02030001FFFF030303FFFD01FD00FEFF000202FEFCFFFF01FFFCFC0201FE03040103FDFFFE0101FFFCFC0100FCFE01FD02FFFCFCFF0101FEFEFFFD0202FD01030201FFFD04FDFEFEFEFDFFFEFFFC03FF02FFFC01FEFC010001FF03FC0101000100FDFEFEFEFE02FC01FC
,0000FFFCFE0201FC0100FDFE0203FE0103FCFF0203FF0002FCFCFC07FE030200FE030201FD00FEFCFF00FEFFFF0000FD01FF0003FC030101FEFEFE01020201FDFEFCFC02FFFB02FD03FEFD0105000202010303FE0102FCFEFE00FE02FFFF01030203020204010202FB0304030202020203FDFE04FEFEFDFE010202FD01FE00FD,FD000101FFFF000202FFFD02FD0001FE02FE01FD01FE0402020202FDFEFF02FEFD02FD0201FC0200030100FEFD0203FE03FFFC02FD00FC03FCFFFF020303FCFEFEFE00FDFE01FFFF00FFFF00FE00FFFC03010300FD02030202030201FD00FE0300FBFD00FDFDFD020000000301FEFE0301FCFE02FD040400FEFE0105FE02FDFE,0300FE010303FF03FEFE0302FFFC0203FE00FF00FE00FF020408FBFE030102FCFFFE0100FDFDFDFDFFFC0105FF03FF0100FFFFFF0201FE02FEFD030101FF01FCFE05FE00FD02FE01FC0002FF03FCFE0300FFFF0102FE01FC010202010104FE000200FC0100FDFFFF00FD000301FCFF04FE02FFFEFFFE000100FDFFFEFE020102,FF02FF02FEFC0301FEFE02FE00FF01FEFC010001000300FEFFFC04FBFD00FE03FF01030101000300FF02020002040103FDFCFC020102FE000201020001FD00FCFE07FF02FDFCFF0303030101FB0003FFFE00FD030101020102FF01FF02030100000100FDFCFF020003FE00FF01FD00030300010002FEFD01030101FD01010003
,000001FC020300FCFD01FCFFFE020303FFFE0401FEFDFDFCFC0502FCFE0201FC01030000FFFFFE03FFFAFE01FEFCFFFF01FFFE03FE00FCFF02FE02FFFD0400FF0202FD02FF0303FE03FDFE04FFFFFF000001FFFEFDFF00FEFEFCFD02FD00FCFE04FD0303FE020002000302030300FD040303FD02FDFDFE000000FDFD0202FD03,FC02010003FEFFFDFDFEFF000000FDFFFDFF01FDFE0403FCFDFFFEFDFE03FF0001FFFC0103FEFEFEFD00FC00FEFD0301FEFDFFFEFC03010303030301FDFFFF0303FEFC0300FF02FF03FE0003FE0203FFFE01FE020100FE0201FF0001FE01FE0101FD0202FD0304FFFEFF01FD0102FF00000201FDFE0100FEFF00FF0200FE0103,0302FDFEFDFD0102FEFB02FD04FDFFFE00FEFBFFFF03FE00FFFF03FDFFFDFBFD0203FE03FB020202020403FF0201020001FE020502FE0400FEFC01FEFFFFFD0202FF02FE03FF0202000200000403FFFD03FC03FD020200040202FE0000FFFD03FEFFFF0201FEFDFEFE01FDFEFEFE0302FFFF0405000001FF0301030202FE01FE,05FB01FB01FB02030101FC01FD030302FA0101FE02FB03FEFF01FEFFFFFE0104FFFFFF01FDFD04FD05FBFEFC01FF03FC010203FF00FE030305FEFFFFFE02030200020104FB0003020201010301FE0002FE01FD00FC01FEFD0001040200FA0302030100020407FF0104FEFEFEFEFEFF00FF0002020201FE000002FDFC0104FDFE
,FDFFFF0201010204FCFFFCFEFE03FC01FF0202FC0300FD0104FA00FFFD02FC02FDFD0103FF04FEFDFEFE00FFFD01FDFF000303FE02FE01FD040301030102FF030101FEFF03010000FA03FE010300FE00FFFC01FD00FC03FF02FC020302FD03FF000604040301FD02FFFD02FB00FBFF000000000400FD020301010301010103FF,FEFDFF030303FE0001FD01FCFEFE010003FD00FEFD0002FEFC0100FFFD0200FCFDFE020000000101FE02FE03020001FCFF02FD00010300FF010503FF00FF0301FD070101FD02FDFBFFFEFD0200010203FFFDFF040200FDFCFDFC01030004020001FDFEFE04030302FE000402FDFDFFFF0102FD03FB00FEFC01FBFE0101020101,00030001FD01FEFEFF02FDFE0200FC0004FE0401FDFC0103FE04FE0202FC00030000FDFFFC0304FFFD03FC0200FCFDFE02FFFEFEFEFF02FE02FF030000FFFC03FDFCFDFFFE0203FDFD03FE0101FC010003FEFE0302FF0400FEFDFE03FCFE01FFFF0403FFFF020203FC01FF010203FF0402FD020301FF03FC0401FE01FDFC0100,00FEFFFF0103FF04FC01FD0002FDFD0400FF00FC00000303FC01030102FC03FC000301FE02FD020002FCFE0301FF0200FFFFFFFBFEFE00FCFDFDFFFE0201FD03010501FCFE0204FE00010000FFFEFEFFFEFD01000103FE02020201FFFFFF0000FE0304030103FEFFFFFDFDFD0103000100FFFA01FFFF03FDFF04FF010500FEFE
,010204FE0101FFFEFF03FD00010202FCFE0104FFFB00FDFD01FFFC01FE03FD03FEFDFD00FFFC00FEFF01FFFC0003FE0103FC03FCFEFE03010100FEFD020003000301FC000000FD00FF030000FDFF02FFFDFF03FD0300FDFEFFFF0402FDFE01FF01FDFD00FDFEFEFEFD0002FD0102020200FCFFFDFE0101FEFDFF03FE03FDFD02,FF00FDFC01FFFFFFFFFEFD03FD00FE0400FF01FE01010300FD050100FEFDFE0101FEFEFE01FF02FCFDFDFF00FE03FD01000200FF00FFFEFE03FEFF01FCFFFF03FEFC01FEFE020001FEFDFE02FB03FD030103FDFC0300FDFD03030100FD0201FD0200FC01FFFF030102FE04FF020202FE01FF0204FCFD0104FD0100FFFFFF02FD,FF02FDFF02FD02FEFC01FC00FC0301FEFE02FE01FFFB00FC00FE030000020102FDFDFC01FFFBFC02FE0002000001FE00FFFAFD02FD0105FEFD01FE03020200FE00FEFF03FEFD01FCFA0000030301FE0002FF02040200FBFD02FEFE04FC05020201FB010102FFFC04FAFE0100FEFAFCFCFEFFFE04FEFEFF0406FF02FDFEFF0301,03FD02FDFDFDFCFC00FDFF030102FF01FE02030302FE03FD0301FD03FCFC0301FCFF0003FD0202FE0101FEFF020303FE03FEFFFFFF01FF02FDFD01FCFDFEFFFFFFFFFE0002FE01FC01FDFDFEFEFF030003FD030003FD02FE03FEFE01FFFFFD02FDFFFF0000FC010000FEFD02FCFF0002030102FEFD02FCFD0302030300FD0100
,02FE00FE01FD01FEFF01FFFF03FE01FDFFFC010201FE0302FF0100010202FBFDFC0201FF0302FE01FD00FCFFFF03FE0202010003FD020303FE020102030202030200FCFEFCFD02FDFFFDFC00030000FF0000FE01FEFF020103FF000001FFFEFEFDFF010200FC0203FAFDFD00FE02FDFFFD0301FE02FD020101FD0100FF03FFFC,FCFCFEFF03FE00FD00FC01FD02FFFC03FF00FE01FF01FE01FDFFFF020302FDFE0301FE01FF000002FEFEFC03FDFE00FF00FF030200030201FE02FE0100FFFD00FC02FF0000010303FCFDFDFC04FEFDFF010200FD04FE03FBFC01FEFFFFFD00FCFCFD020304FD02FF0100010101FEFFFEFF03FEFFFE0300000202000303FEFDFF,FCFC0303FD020403FEFF00FC00FD0000FF0102FEFC00FF0203FAFF030101FC02FFFF03FEFC030002FEFD0200FEFE0000FFFDFE000202FEFDFCFF0201FEFCFF0001FE0102030004FDFF0202FEFF00FD01FEFDFC02000303FE03FEFE02FFFCFF02010503FE030001FFFF0002010203FFFF01FEFFFD01FF020101040202FE010002,FF00FFFDFCFDFF01FF0300FD00FDFF02FEFCFFFF0303030104FEFDFB0100FDFD020002FDFB00FEFF010003020101FD00FDFE01FD0003FDFD010001FF00FDFDFD0300FE01FC0203FEFF00FE0005FEFF0103FEFD0102FD01FCFEFE01FE000101030301010100010002FD030101000301FEFEFDFEFF02FF0300FF02FC03FD02FDFD
,0302FF03FD010000FCFFFFFF0103FF00FDFE0504FEFFFE03FEFCFFFDFEFFFE030203FF03FEFD0002FDFCFFFFFEFDFDFF030301030103FDFFFE0202FD000200FEFF030003040101FDFC02FD0203FFFFFD03FEFF02FF0001FE04FFFFFEFE02FC04FD00FDFF010003FC03FF0401FEFD0003FDFC02FEFEFFFE02FEFFFDFCFE02FE02,FE01FF00FFFE0503FCFFFEFE0303FF01FEFD0303FC0100FCFD0002FE01FF00FE03FF04FFFC030003FDFC01FCFFFD03FDFDFF0103FEFD03FC0303FC0002FF0100FEFF030202FC000000FEFC00FFFF020000FDFEFE0302FE010204FD00030201FEFE010000FDFEFFFE01FFFD03010302FE0103FE0002FEFDFF0200FF01FE02FE01,01FD00FE00FF05FBFF0101FC0201FDFF0100FF00FA04FC030005FD01FF00FE020301000101FF030000030303FF0305FFFEFDFEFDFD020001000302FDFEFD02FE0305FC02FE03FFFDFFFEFDFD0103010003FCFE04FF03000304FE02FD00FF00FDFFFEFA0201020302FD0200FCFF01030300FE0201FE00FE0101FCFF02010103FC,01FFFD0201FFFEFE03FFFF01FF03030301FE02FD02FDFD000106FE02FC01FD0302000102FFFE0300FFFD00FEFDFFFCFE01FE01FD030101FC01FC03FF020100FFFDFE0202FEFE00010103FFFDFD030100FD0002010103FE00FC0101FEFDFE03FD0300030303FD03FFFD04FFFFFEFF0003FF00010002FD0101FFFE00FE000301FD
,FC01FD02FDFE010200FC01FD02FDFCFE00FD00FDFE010200FDFF01FDFD010203FF0001FF01FD01FC020101FDFE01FE0003FF0100000200FE0300FF03FFFEFEFDFFFEFF01FF0202FC03FD030303FDFD030103FE03FD020300020300FCFFFD0102010002030100FFFDFD0302010202030301FE0202030402FF030002FD020203FC,0103020302FFFF01FDFDFF030102010203FF020200FF02FE0506FC03FF0102FDFD01000100020201FF02FDFDFEFDFF01FC030001030100FCFCFEFCFCFC03FC03FCFF00FFFD000204FEFDFFFF0001FC01FE0203FF00FCFF0202FF0002000103000201FD030301020100FE03FF0001FFFD00030301FE030202FFFE0301FE020302,FFFF01FD0001050001FDFCFF040301FE010303FD0000FC01FF0302010302FFFEFE00FCFFFE00FE01FE0200FE0203020101FD00FDFE00FDFE0101FE03FDFEFF0101FEFC03FFFFFF000101FFFC00FE03FD03FF00FCFF0101FE0101FFFD0201010300FCFEFC0003020001FE010201FC030100FCFD0201FF02FD0001FEFDFF0103FE,FD00000303FE010202000103FE03000000FEFA0200FD00FEFD0401FFFC0302020200FEFFFB000203FDFEFDFFFFFCFDFE02FEFE00FCFE0400FFFE0002FF03FD0201FEFFFDFEFEFEFF020100FCFFFC010301FB0002000203FE00FDFEFEFD00FCFDFEFFFD010303FD01010001FF000201020101040000FFFD00FD03FA02FF030201
,0002FE02FFFDFDFCFFFD0201FF030302FF00FEFCFFFCFCFF0301FC00FD030003FC01FBFFFBFCFFFEFEFD03FDFFFD01FE0003FEFEFEFEFF02FF050102FFFCFD01FE0200030103030000FEFF02FFFC0103FD02FE0303FDFFFEFD02FFFF0202FDFEFEFF000001FE03FEFD03040103FD02FD01000203FC0003FD00FE02FDFF01FFFE,FEFE000200FF04FE030203000102FCFF010202FDFD00FE03FD010002FCFDFF0302FDFF00010103FC01FCFFFF00FEFF00FEFE00010004FE01FDFEFF0001FEFE0002FFFFFE000203FEFF01FF03FFFFFE0303FD020001FEFFFF02FF03FD00FEFDFE0203FF0202FE0403FD02000001FDFF00FDFF000301FE0100FEFEFD0103FF01FD,020400FEFDFF02FE01010201FFFF00FFFDFE0101FC0003FEFDFCFF00FEFEFE00FD000000010203FE0203000303FE010302FDFE01FC03FD0102000202FD01FFFFFF01FF00FF0000FDFE0301020303FE01FE00FD03FE03FDFF03FD0002FEFF00FEFDFF02FD03FDFE0100FF02FEFF02FCFFFF00FE03FD01FF02FD02FE01FFFFFD01,FD00FE0103020003000101FFFEFEFD02FFFFFFFDFD00FF02FE00FDFCFD01FF03FDFFFF00030300FEFF020201FFFD00FE0000FF00FC01030001FE02FFFEFC03FFFD01FD0003FE00FCFFFE020000010104FFFD000302040200FDFC02FCFE0202FC0301FD02FC02FD02FC010000000301FDFD030001FDFDFDFE00010001FE020101
,FD0203FE0302FEFF02FD00FDFF01FDFFFC030303FCFF0101FC01010102FE0003FCFE01FD05FE000103FC02FDFE000001FC030002FD01FF01FF030102FD01010000000300FF0101030400FE000000FD000002FFFD0300FEFCFFFEFF0202FCFEFDFF020101FD0103FD020002FDFF0002FE0102FF0100000303FE02FD01FEFFFC00,020202FD00FF03FDFFFD00010203FCFEFFFFFF03FA010200FF0602FEFE0403FCFDFDFEFCFDFD0100FEFCFDFE01FFFEFCFE0201FFFFFEFAFEFD07010201FCFEFF0404FD00FF00FDFD01FF030002FCFD010202FEFFFF01000202FDFF04FE0400FD0000FFFE02FD02FE0203FE0100020300FFFF01FFFFFC02FD00FCFE02FCFF02FE,FFFE030202FCFD020303010101000100FCFC020301FDFEFDFCFD0001FE01FE02FDFCFDFFFD0301FFFD0301FD00FFFD0000FF0101FFFCFDFD03FF0000FEFF03FD02FFFE000002FCFFFD030200030102FD000101FD0200FDFD02FE0003FC02FCFD00FD0003FC03FF00FC0202FF03FDFDFDFD01FD00030201FDFE01FEFDFDFEFE02,FE04FD0202FF0301FDFEFF03FDFCFEFEFF0003FFFF030400FF0407FDFE0300FD02FF02FE02FC00FDFE02FE02FF0400FFFDFEFFFD02FF00FDFBFDFC000000010201FE000303FEFE02FE03FF0200FEFD01FEFF0303FF01030004FE03FF02FFFEFD00FEFDFF03010004FD01FF0100FD010001FDFDFC01000304FE0001FE030202FE
,FF01FE00FEFEFE0002030202FEFFFFFFFC02FFFE030201FC0401FE04FEFF0003FF00FDFDFC0004FF02FE0102000001FEFF0202FE02FEFF02FF01FF01030201030101FDFDFF00030103FFFD00FB02FFFE0103FCFFFCFE020104FD030101FEFEFF0200FE0200FD000003FD03FD0202FFFD00FC03FF0200FFFDFCFD0103030300FF,01FE020300000301FE03FCFD0301FF0102FCFEFF03020302F9FF03F901FDFD03FD02FEFEFF000301FDFD0100030301FEFC020302FFFE01FF0302030003FEFFFFFEFEFF00FF0004FDFFFF040002FE02030300FF00FE01FE0101FDFD03FDFF03010101FFFEFEFD03000103FFFFFC00FF01FF00000001FFFE020203FD0503FD0000,00FC02FF01FFFC01FEFCFF0001030303FFFE01FF03FEFD030001010103FF01FDFEFF02FEFEFEFEFFFC0402030102FE010002FD04FF00000000FFFF00FDFEFE00FD0300FFFD00FDFFFFFD00FF030301FDFEFF01FDFFFEFDFEFC020403FE02FDFFFD01FD03FE030103FDFF0200030001FE03FEFEFDFE0202FE0201FE0002FE0103,FFFF04FDFFFFFD03FC03030300030102FE0001FE030300FDFFFFFDFE0300FD00FCFF02FD0200FDFE01FD020001FD03FF01010000FE010001FDFDFCFF00020001020000FF0101FEFE0503FD01FDFD0103FEFFFEFD0200FEFBFE0301FDFEFF02000302FF0300FE0002FD010401FCFEFEFEFD0303FC04FD01FF01FEFFFCFE030300
,00FD0202FDFEFF01FE000202030000FDFEFEFDFE04FF0302FD0602FD0101FC0303FEFDFE0203FF0002FF00FC02FD03FFFC0002FDFDFD0002FDFF01FC00FF000002FDFE00FD02020402FF02FF0500000003FFFFFCFD0100FD030304010202FF00FD03FE01FFFE03FEFCFEFF01FF0303FD000203030200010203030305FD0100FC,FD0101FCFDFFFE03FCFCFF00FF03FEFC03FFFFFDFDFE02FF05FDFDFE03FD0102FD0102000003FF03FF010303FC00FFFDFEFF03FF0000FE00010001FE01020101FF01FDFD02FDFE00000301FE0401FEFF0203000003030100FEFD00FD030201FEFEFCFCFCFE000003020203FE0100FC02FF01FD01010103000200FD0201FE0000,000402FFFE02050001FFFD000003FEFE030201FE010202FE01080201FDFE0203FF0003FFFB03FD00020000020203FEFDFC0203FEFDFC01FD00FDFFFDFC0103FE020300FD02FCFD0202FC0101FF01FE00FD030002030302FEFF03FEFE01FDFF03FFFC0303020202FD00FEFF00FEFEFFFF0103010002FFFF03FF03FD02FE020301,FE0000FE0100FB0000FE02FD01FDFC0300FF0403FEFDFEFD05000301000301FF01FFFCFD0103040302FFFD0102FF03FFFFFEFC03FC01010102FD000001FD0303030202FD0104FCFE07FDFD02040002030300FE010003FEFE03FE03FF02FDFCFEFEFCFEFCFEFDFFFFFDFEFD00020000FDFD02FF02FD020001FF020103FF030201
,030004FDFDFE0102FE00FF03FEFEFEFFFE0203FE01FCFD00FD05FF0001FDFD000201FE01FE0000FFFE01FDFEFE03FD0102000103FD00FE0000FD0200FDFC03FE00FD00FC03FF000200FE00FFFE000200030002FDFD01030003FD03FF0203FCFE03FD01030200FC0001020100FE0000FD0000FF0000FFFCFD0002FCFE01FF0201,FFFFFD04FE030201FC03FEFEFF0301FB06FDFFFFFA0102FEFE04FD040102000004FD0203FB00FDFE0000010403FCFDFE0302FDFF000400FE0103FDFEFDFDFEFD010001FF0301FEFEFD000403000100FDFDFE00FCFD010401FDFD0103FEFCFE01FEF60402FEFEFEFD04FEFD010003030100FF01FCFCFFFD00030200030200FF01,FE02010103FD03FFFDFFFF020400FD010203FD02FF0303FFFD0BFE000002FE00FFFDFDFEFF030002010102FF0203FEFE00FE010100FD02FEFEFE0200FFFF0001FEFF0303FCFE030201FFFDFEFD00FC00030001FEFF030003000104020301FE02FEFF01FD02FDFF000000FFFE0002020102FEFFFDFFFE0201FCFDFD010100FE01,FE03FD020400FFFF0101FFFE01FFFD030202FD00FEFD03FF0301010303FF02FD02FD0103000301FC00FDFE0302FE010000FE02FEFCFF010202030001FCFCFFFEFF0202FF00FFFEFCFD01FE0203FCFF00FD0301FD0100FEFB0203FE0102010000010200FD02FD01FE010304FDFDFF03020302FC02FDFEFE0200FCFE030301FF01
,02FDFFFF03FC0001FFFD0101FD010301FDFE020300FE0002FE00FD020301FFFFFFFC02FFFF02FEFC01FE00FD03FE01FFFF00FCFE03FDFDFC01FEFCFE000203FD00FD01000201FF010302FD0303010300FF03FEFC03FCFF010200FF010102FC0301FFFF0000FFFFFCFB03FEFEFE030002FF02FC00FC01FF00FEFC0000FE010100,FDFE0401FD00FA0203FEFDFFFFFE0000010202010403FFFF010103030303FEFF020100030203FE01FEFF0202FFFE00FFFDFC030000FF02FCFFFD0100010101010101FFFF03FEFCFCFE0300FDFFFF03FDFD0103FF0300FD00FDFC0001010101FD0300030103FD03FCFF0000FF0300FDFC01FDFE00FC01FF00000102FD030303FE,FEFCFD00FE03FF03FEFE03FEFE000100FFFFFE01FB01FD0302FFFC0200FDFC02FDFC000102FF030301FF02000202FEFFFDFEFE02FDFE01FEFE020200FEFFFC030202FC030202FE0200FD0303FFFFFFFEFE0300FEFC01FF01FFFC02FFFEFF0201FFFEFE03FEFEFFFDFEFC00FFFE0001FC01FC000003FF01FEFDFE03FEFEFDFE00,FD01030003FF010003FDFCFC03FCFF0103030302010300FDFAFDFFFFFDFEFF02FD00FFFFFEFFFEFD0201FF0301010002FF00FF00FE02FF01FEFCFF0002FF02FF01FF01FE02FE01FEFEFDFF0000FC01FF03FDFFFFFE03FDFEFC040301FEFD000002FFFDFDFFFE04FEFE0101FF030300FFFE00FCFFFEFF0101FEFDFC02FD000201
,000200FEFF0103FFFDFFFCFE03FF0001FFFFFD01FB00FD00FB0200FC0101FEFC0101FD00FFFCFFFE010000FF000300FDFEFF0101FD0103010101FE0102030303040203040102FD0101030203FD03FF02FFFD00FF00FC00FF0103FE0101FCFFFCFEFA0100FEFEFD000003FE0402FD03000303FEFDFF03FD0201FF0100FD000202,02000301FDFEFA020302FDFFFEFC02FDFCFDFCFD02FE01030306FD010304FF0101FEFF03020001FF02FDFF01FFFDFFFF0200FD02FF0402FEFEFC010103FCFC0100FEFD00FC00FDFFF80301000000020000FEFD00FF00020103FEFFFF010300FE01FEFFFD0300010400010000FCFE01FD01FE0200FFFDFDFD0102FD01FEFCFC03,000202020000030203020000FF0200FFFCFDFEFE020300000102FD01010201FEFD0103FD00010102FDFDFD01FE0202FDFD02FFFDFD0102FFFF010000FF0202FF02FDFF00FE02030003FFFFFFFEFCFD04FE00FD00FC02FE02FD01000200000103FE0100FE03FF03FDFEFD0101FC02FF02FDFF0303FE01040300FD0100010300FC,000003FDFE0301000303FEFFFF01FF0201FD0300FDFE00FEFE01020003030203FCFF020302FEFF020102FF0002FDFFFEFCFE01FF0003FE03FFFF01FE0100FD01020101FFFCFDFCFE0003FF0103FFFD04FDFFFC02FE0302FF000000FD0003FE010100030002FE03FEFF03FF00FD01FF03FFFF02FFFC01000100FDFDFEFD0303FC
,03FE03FDFDFE05FE01FFFF0202FDFE03FF02FE00FBFEFDFEFF080202FEFFFE02FF03FE00FDFE040304FFFFFE02FF02FCFF05FD0403FE00FF030200000001FE02FE0200FDFDFFFFFDFE03010203000103FE01FEFCFEFF0301FD0102FD00FDFD030400040001FCFEFF010101FF00FFFF020402FEFD020003FDFE03FDFF02FFFD03,02FDFE02FF00FDFDFEFF0101FD01FCFF02FC00FEFDFEFDFEFD08010200FE02FFFDFEFEFF02FF0001FDFD0303FE03FF01020003FE000102FEFEFFFF030000FCFE0101FDFEFE03FFFDFF01FEFEFDFF020202FEFC01FC000100FF02FEFF0000FFFEFDFC02FF030101030302FF020103FDFFFFFF01FDFFFD04FFFF0402020103FEFE,01FF030000FE0300FF03FFFF00010303FDFCFDFF03FFFF010203FC03FE02FDFDFD000100FFFFFFFFFCFFFEFD02FFFFFEFD02FC000302FCFCFF00010002FE01FEFFFD01FDFD00FFFC010001FF0101FF03010200010301FD0102FF02FD01FEFD0001FFFCFD01FC00FDFCFEFE01FFFE000102FE0103FF02FDFC02FE01000303FDFE,0001FEFEFD02FFFF00FFFEFD030302FE01FCFE01FC02FFFC03FE0400FD02010102FE02010103FF01FC03FFFE03FF0202FC010102FF010100020303FF02FC0203FE02FCFF0203FC0202030002FC0203FFFC0103FD01020104FD01FD0301FD03FDFF060402FFFC0300FF01FD03FCFCFDFDFBFDFD02FEFEFD00FCFDFE0203FD0301
,00040100FCFEFB03FDFFFF00FF03FC02FD03FD0000FD04FC00FB02FEFE020200FDFCFF02FF03FF01000100FF0302000003000102FFFC00FC0103FD02FF0300FE02FFFEFCFDFEFDFDFF030201FEFF0102FEFEFF01FEFFFE000300FF000303010402FE01FE03030103FF0003030200030101FD02FEFE03000101FE020202FE0200,FD03FFFCFEFC01FFFFFBFD0105FEFDFF0205FEFBFFFF0402FD00FF010201FD02FDFEFD0000FDFD0001FEFD03FE02FFFEFEFEFC05FC04040301FEFC03FDFCFD01FC03FD03FBFB0201FB020203FFFD000002FE0203FEFF00FF01FFFEFFFFFD0303FF020301FE00FD020000FB0301020404FDFEFFFEFCFDFD01FF0407FF00FEFDFD,030200FEFDFEFC020200010102FDFE00FC020403FD01FE010401FE0303FDFF02FE01FCFF03030303FC01FCFD0203FE010100FD00FDFEFCFD03FE01FCFEFDFFFE020102FD01FD02FE0203010306FFFE020102FB020000FF0301FEFFFFFDFDFDFFFD03FDFD02FEFFFC0201FDFD020200010400FF00010200FFFE0203FF0000FF00,02FDFEFFFF02FC00FE0003FE03000200FE0104FF02FE02FD05FDFFFE03FD01FC0300010100FF0001FD03FE020300FE00FDFC0003000301FDFF02FCFDFDFEFE00FE02010201FDFEFFFB0204010002FF010201FDFCFE00FF03FFFE010300FDFFFCFEFEFD000303FC04FC02FEFEFE0303020003FEFF01020301FE02FEFDFEFE03FC
,03FF02FE0101FDFDFCFD00FFFDFD010104000100FFFC0303050203FFFFFD0400FF0100FF01FEFE02020100FCFDFF01FD0002FDFD0003FBFCFDFF020101FF0202FEFC01030400FD00020100FD03FC0201FFFDFCFEFDFF020101040303FE0002FC00FD0103FEFE030301FD0202000300010003FFFEFCFF03FE0203FE00FDFCFE01,02FD01000002FF01010100020302FFFD02FE02FE00FEFD00010103FE030001FF010200FCFF010202020002FD04FDFDFD0202FDFEFE02FCFC0201FE040201020200FC01FE030100FFFF03FFFEFD03FEFD02FEFFFF03FC00FE03010003010100FCFF02010001FD03FCFEFCFEFC00FFFDFE00FF020300FF0100FDFDFCFC0103FDFD,FDFDFF0202FEFF03FEFEFCFC01FD0101000002FEFFFCFD00FE05FCFF0000FD0302FFFEFD0101FEFD0002FF0103FEFE0003000304FE03FD0100FEFDFDFFFDFD0002FE00FEFEFFFDFDFEFFFEFD03FF0201FFFF02000104FC0103FF01040305FCFF03FB010203020301FF00FE030002FD0201FEFFFDFFFC03FF0102FC020200FD00,FC0101FDFFFEFE0203FC0200FE00FEFCFEFDFC030202FD0204FC00FD00FD0003FFFE01FC000102FC01FE01FDFFFDFC0103FFFFFDFF02FE030200FDFD00FE0000FE04FEFD01FEFC01FE03FE04FFFD0200FFFF02FD03FDFF01FEFF0202FE03FFFD01FFFE00FE0101FDFF02FE0000FDFF01FC00FDFDFDFF0302040201FBFEFE03FD
,FDFE03FFFEFCFFFE0000020103FD010200FDFDFEFE0003FE010203FFFD03FC0100FD01FF03030403000302FD00FC0304FDFFFDFF02FEFEFE03FFFFFF00FC01FFFC0201020102FD0300FE02FFFE0001FFFEFC03FCFFFE02020300FDFD010203FE02000303FD01FEFEFF0001000004FEFE00FEFD01FD0101FD04FE010201FD02FF,FF0000FEFF0001FDFFFE0101FDFEFF03040000FCFDFE000102FD00FEFEFDFE0003FC02FEFF030000FF0302020002FF020200FCFF010001FDFD0301FEFDFE01FF00FEFDFE03FDFE0100FF01FD01000000FF0201FFFFFDFD02FE000403010101FCFFFEFCFF0001FE01FDFF02FCFD030301FD0201010101FEFE02FF00FD00030201,0003FC030102FF02FCFF00FE02030000FFFD00FF07FEFE0000FC0003FEFE03FCFFFD0101FE02FD00FE0103FE000303FEFE0100FCFD04FC0203FEFE0202FE02FEFEFDFFFDFDFCFEFEFFFEFE0301FCFCFD01FDFE02FEFE04FFFFFEFDFE00010201FF0300FEFD00FE02FF0102FEFEFF03FD00FF00FC010101FDFF01FDFE0302FD03,02FC0303FD010403FF00FC0200FFFC05FCFC000103FFFC00F9FEFFFD04FD010404FE04010200FF010403FEFC0300FF01FBFB040000FD030200000301FC010501FFFD03010102000202FC02000000000101010103020004FF010102FCFB04FBFE0300FC00030200FF02FF0203FDFBFD040202FB03FC00FF00FDFF04FEFB0500FE
,0101FF00040306010002FF01FF010100FCFF01FDFD00000100FE010000FFFFFD010104FFFEFD01FC00020203FF0300FF00FD04FF0204FDFFFFFF020202FF04010000FF0102FFFF0003FE000301FF01FFFFFF01FCFF02FE010202FD0202FF0201FF030000FE0100FE010000FA01000202FEFDFD02FDFF04000401FEFDFF02FE02,03FDFD00FD0006FF0003FDFFFE00030103FE04FFFDFE020203FFFF0500030102FDFE00FF00FCFF0401FF00FE000102FF0202FE00FC01FFFE0100020300FE00FEFF0003FDFFFEFD00020204FE03FD0203FD03FDFE04FDFF040004FE02FF000202FEFC05FF0101020001FF0104FD0300FDFB00020100030200FF03FC02000003FF,030000FE03FF000300FEFE030102FE00FF0203FFFC02FF00FCFF0103020203FFFEFFFE0201FD00FC0001FDFE03020301020001FF0101FF02FDFC03FF01FEFCFF02FEFC00FDFCFFFDFCFF00FFFEFFFC03FE0203FFFD0203030302FFFD0001FD00FDFEFD000402FE03FDFD02FEFE030002FDFD0100FFFE04FDFFFDFD0203FEFF03,010301030000FD01020302FEFFFCFE02FFFC00FF02FEFD00FDFE02FFFEFC00FCFEFD01FF0103FC02FE03020203FEFE01000000FDFD010100FD0102FDFFFE03FFFD00FC030301FDFFFFFFFD010000FFFEFE00FF03FE0203030302FEFF02FFFC01FFFDFF03FDFD0200FB00FE03FDFE010303FF0100FDFF00020101FDFC00FFFFFC
,02FFFEFF04FD02010302FE010200FEFF000200FDFEFC02FF010002050103FC0100FFFFFD04FC0300FDFF01FE0102030303FDFF040300FF01FFFF03FFFF00FC03020202FD01FD0302FDFEFFFEFFFEFF0001FF0102000200FF00FDFD0100FD02FC0302FEFD0300FD0102000300FD000002010003FF0303FC01FD01FF0301020103,FDFD02FD010002FF01FE00FD0200FE03FD00FFFE0100FC01FEFD01FF0400FF0002FE0000FFFF02FD02FF00FF0003FF0300FF0000FE0203FC0002FF020201020103FF000100FEFD0300FD020401020102FF00000103FEFD00000300FFFDFFFDFF000002FFFFFE0200FF0200FD03FDFFFF02FEFDFCFEFF04FDFE02FDFF03FC0003,FC01FE0104FC05FE00FD020004020000FF000404020500FDFC01FC0306FCFE0300FF02FFFDFFFE01FB020503070400FF0201FAFDFF03FDFD00FE05FDFE0402FFFE0400FEFAFF0600FE00FA010300FB03FFFA04FF0001FC04FF01FCFC04FFFFFEFDFF03FE0100FEFBFDFD00FF03000304FC0204FA060004FF04FD00FFFDFEFE02,FE010002FEFEFE03FEFF00FF0000FF01FF00FEFEF9000302FE010302FEFC02FF0000010102FEFF01FFFE02FC030002FE020100FDFCFE02FEFCFF0000010303FFFFFE00FE040000FE020200FE00FD0203FDFDFD00030200010002FD02FCFC01FE00FCFDFF0202FCFF010301030001020300FC0000FF03FC03FDFDFF01FEFF0200
,FF01FE01FD00FDFD03FE0200FE00FD01FEFC02FE00FD020201010104FF0101FF01FE02FC01FDFD030003FD010204FD020200FC020101FE0101FEFF00FDFDFFFE0200FD04010002FD00FBFDFD000302FFFFFC01FF03FFFEFD020002FEFDFD020202FE02FC01FDFF000103020201FF0102FFFEFC00FDFE01FFFDFE01FF00FE0003,FFFD03FEFEFD03FFFDFF02FCFEFD02030102FC02FBFDFEFE0103010002FEFDFE01FF02030100FE01FFFD01FFFE0302FCFC0102FD0103FE00FE0300FDFD03FFFF0102FE01FE0202FE00020201FFFE03FFFF03FF00FF02FEFF04FDFF0003FF000103FF02FD02FCFD0001FEFF0000FE00FF0102FFFF0002FD0002FDFDFE00FFFC01,000302FCFEFEFD00FDFF0203FDFCFFFDFE030303000100FFFF00FD0404030200040202FD020303FDFD0101FCFD03FD0302FDFE010101000101FFFFFD0201000300FF03FF02FC02FEFEFDFCFF00FD00FD0002FFFC01FFFF01FC000300FEFCFCFF02FE0300FFFEFF0001030101FE01FD03FDFD0100FE0002FDFEFCFD0100FDFF01,FE0103FFFEFF0202FFFCFF01FE02FF00FEFDFF0101FE0300F9FE0300FDFEFF03FEFD030001FCFFFF0302FDFFFD0003FE030201FF0200FD02030000FD010102FE00FA02FC02FE01FCFF03FEFD0501FCFFFE0302FC0003FFFCFE02FE01FD000001FF0003FE020100FF00FEFFFE01FF01FDFD03FF03FD01FE02FF020403FC0001FF
,0100FE02FF0303030101030301FC01FF000101FD02020302FCFDFCFEFEFFFFFE0000FC0200FFFE00FDFDFEFF04FE03FDFF02FDFFFC0302FBFD0202FDFE03010200FF020000FEFFFD03FF02FF01FDFF01FEFC02FF00FE00000103030001FD01FC0007FD030201FFFF04FE04FFFF00FCFFFCFF0102FF00FE0100FC00FD0200FD03,FD0000FDFC0100FDFDFDFEFE0201FFFE04FFFEFC04FD01FE06FF0301FF02FFFD03FC01FE0000FDFF01FD0000FD00000002FC01FE00FE02FD02FFFDFCFDFEFF00FE01020201FD01020503000103030101FDFDFD0203FEFEFD0200FEFE0002FE01FDFEFF020203000404FD0200FF0004FCFF02FDFDFEFD01030001FEFEFE0002FC,0103010304FD06030302FDFE02FF03FEFD00FEFB01000300FE000300FDFFFE020003000103FFFFFDFC03FFFE030401FDFE02FD04FD00FEFA00FDFDFF03FF0003FE00FFFCFF03FEFC00FF02FF04FE01FEFFFB010001FCFE0100FF03FF0005FE01FF01010200FE020106FFFF01020202010103020101020508FD030101FD0102FD,FD0201010402FDFD03FDFD0300000000FEFDFFFCFF0203FF00FD0201FE01FEFEFFFE020000FC01FDFFFEFE0302FF02FFFF03FFFD02FEFEFCFDFF0303FFFEFF01FC0102010002FFFFFFFF0301FDFF0202FE0000FF02FCFD00FEFD0202FE000000FFFE010302FE01FFFEFE01FD03FE0404FDFFFCFEFEFE02FCFD01FDFE0200FCFC
,03FD01FD01FCFCFC0202020100FE01020201FE02FC00FF02FF0100020103FE03FE02FE00FD01020000FE0000FDFEFDFC02FF02FCFCFCFFFFFDFEFD03FD02FFFFFE00010004FC000103FE01FF020001FEFF010301FF03020200FDFFFE00FEFC010201FCFE03FF010001FDFFFCFD02010300020101FDFD000000040001FEFF0203,FE0301FEFEFFFD02020103FDFF0000FF02FEFE03FF0203FDF9FE01FF03FDFF01FC00020200FE02FE00FE00FE03FDFFFDFFFEFC0200FEFE0002FC0101FFFD0103FFFF03FD0301FE03FFFF03FD03030301FFFF00FE03FD0003FD01000301FDFFFC03FE0203FE02FEFE04FFFF01000102FEFF030100FE010405020303FB0201FEFE,02FD00FF010102FE0300FFFF02FCFCFC0100FFFEFA01FF03FFFF03FF020203FC010102FEFD0000FD0101FC00020003FF0001FE020201FEFF01FCFD020100FEFFFE0300FEFDFEFDFF02FF010301020002FE03FC00FDFF02FBFEFF000000FEFCFC0300020002FF03FF0201FD00FE03FE01FD00FD03FC02FC0300FD00FDFFFD01FF,FDFEFF00FF03FCFEFD0003FF0000FCFEFFFC0001FEFFFDFC0101040403FF0003020302FF00FEFEFE0301FDFEFD00FEFEFC01FDFC0201FEFCFFFF0202FFFE0203FDFCFEFFFCFD0102FB010203FF0103FF0200010303FDFEFB03FDFDFEFF03010101FE0300FCFDFF04FDFDFD02FDFE0301FD00FA0203030304FDFC0402000101FF
,0200FF0200FF04FEFFFEFEFF010303FEFDFDFF00FEFEFEFFFA0103030303FD010200FCFE01000003FEFDFF04000002FD03FE000202040003FEFB0200FFFF0002020003FCFF00FF02010103FC05FD01FD0001FFFD0500FD0302FF01FF0101FEFDFF03040102010200FE0301FFFFFE0100010000FD00FF0302FFFF01FFFCFF03FC,02FDFD00030300FF0000FEFDFEFC000002030102FF0202FD000300050201FCFF01FE0001FD00FC020003FD000001FE0102FF03FF0000FE02FFFF0103FC0200020000FFFF0000FD03010000FC01FDFEFD01FE0102FDFF02FDFE00FFFE02FFFE02FF020000FEFDFE01FEFFFDFF010303FFFF03FEFCFE0102FEFDFFFDFEFF0100FD,FFFE020200FDFF02FDFC0203FCFE01FFFF0003FF04FDFFFEFF03FE03FE01FEFD030300FE030001FEFE030302FD0400FCFF0103FFFD010301FEFF00FE030303FC0202FCFEFFFD00FE0101FE01FF01FF000101020001010100020202030103FDFC03FD00FCFF000200FF0200FF01FF030201FEFE03FF000003010301FF01FFFEFE,FDFEFDFD01FD0103FDFEFC010101FF01FEFFFF0301FCFDFD0302FEFC0201FFFD0000FE03030001FE010202FD00000302FC03FCFD020202FEFDFE020302FDFD030101FFFFFF00FDFE0203030103FE01FC0103FFFC030300FFFF020101FF010102FF0100FFFD0003FCFD00FEFE0303FDFE020303FCFF02030301FDFD00020102FD
,FFFCFCFE030303FC0204FFFC0000FDFDFFFC02FE01FEFFFEFDFD000100FFFF01030201FC01FEFEFEFDFDFC0201FC02FDFFFEFC0303FD01010301FFFD0003FDFFFE05FCFCFC0202FF020100FCFEFCFCFFFD01FD03FFFEFDFD030302000400FFFFFC01FC02FFFFFCFF01FE0000FD0102FE0304FEFE01FDFDFF02FF00FE01FF01FC,01FF0401020201FC02FF0001FEFDFFFFFE010001FDFEFB00FD02FE03FF01FEFC0202FD03FDFCFE04FD03020303FE02030000FF04FF02FEFFFD02FD020101FE00FD040201FD0204FFFA03FDFF040104000403FE01FCFF020500FC01010100FDFD0203FDFE0102020401FF03010400FC01FF00020003020202000203FB01040102,FC0300FC0402FD00020000FCFD03FC01FF01FE02030102FE020203FF0401FDFE02FC0201FF01FE01FFFDFCFD020302010102FD0001FDFEFC00FD0303FE00FFFE01FDFD01FF0002FEFFFDFD02FE0202010101FE020002FC02FF02040102FDFFFDFD01FF03FE02FFFCFB0000FF01FFFC010003FCFEFDFD00040101FDFDFEFDFE02,FF02FD0202FF00FC0000FD00FEFE03FD000304FD02FE0303030402FEFDFFFF020102FDFE01FC00FCFBFC01FFFF02FFFDFE03FFFEFDFEFE00FFFDFCFEFD01FEFDFDFEFD02FFFE000300FFFC00FE02FD00FFFF030103030102FE0102FE0203FC01FCFB000001FFFE00FEFD0002FFFDFE00FFFD03FF01FFFE0202FEFFFD01FDFD03
,FDFE030200FFFD02000301FE0200FE03020000FDFF0001000103FD000001FFFE03FE00FF0002FE0300FC03FE0101FE020300FD020202FEFDFE030200FEFDFD01030203FDFE040003FDFDFD03FFFC0000FC0301FD01000100FD04FFFFFF00FD00FDFF02FC0100FDFFFE0403FC02FDFDFDFDFFFD03000200FE01FF01FEFEFDFD00,FCFE000001FEFEFE00FCFD0203FC010200FEFE03FEFDFFFFFFFEFEFFFE0100FF03000103FD0203FF020100020304FFFEFD01FFFEFFFC020001FEFC00FE03FEFF01FEFCFE00010003FE0000000002FC00FC030203020200030100030101FDFD02FE01FFFEFFFEFF03020102FF010303FEFD01FDFE0101010003FCFCFE04FF03FE,02FDFD0302030200FE0302030302FE0200FD03FE00FDFFFC01FFFC00FE010102020000FC01020002000301FE0200FCFEFDFD00FE030306FD030200FEFD0000020002FF000004020102FC00FE040100040004FF0102000102FFFFFC00FE0200FF01FE01000200FF010503FD03FF01FDFF03FF0001FE01FFFC01FE00FE02FEFDFC,02FD000201FEFCFFFCFDFCFEFE030202FFFDFF01FEFFFE02FC00FD0301FE030101FDFC0100FF01FF020201FFFEFC000302FD02FEFD01FF0303000101FEFFFD00010003FE01FEFD00030103FD030101FDFC03020002FD03FEFE010302000101020104FDFF03FF03FEFFFFFDFD030002FC00FF00FE020002FE03FEFE000202FC00
,010303FE0201F902010001FE010102FDFD02FE0101010301FBFEFEFFFC01FCFC02FC0301030000FCFC01FDFE0100FEFFFE02FC03FDFF00FD01FF03FD01010200FFFD01FFFDFF02FFFA02FDFEFEFEFDFD03FC02FDFF0103FF02FE0204020104030201FFFE040300FE0003FCFE02030103FD03FEFEFDFC0103FDFF01FF0100FC02,FFFF00FF01FE040202FE030202FEFF0002FD010003FD00FCFC01FFFBFF03FF0102FD000002FD03FD0002FFFE02000303FFFFFD00FDFCFC010002FF00FCFEFD01FFFEFC01FFFDFFFDFF0202FC0302FE03FD0000FC030301030003FD0102FFFDFE04FDFC01FDFEFCFE00FEFFFC00FF000001FEFEFDFD03FDFEFFFD0201FDFCFFFD,01FEFF03FEFEFC0300FEFF00FFFFFE0001FFFEFD05FDFDFF03FE01FDFE010001FEFEFEFDFC01020203FE03FC00000103FDFCFCFE0101FE0101FEFDFCFD000403FE000201FE0402FDFE0303FFFF03FF01FC01FD03FC0300FC01FE00FEFEFD00FFFF0002FD01FEFDFC03FFFF010003FE0401FDFEFEFE0101FC0301FF0300FEFD03,02FC020001FD030100FE00FD01FDFE0003030101FDFFFD020300FF00FDFF010300FEFEFF0003FFFF01FD00FEFDFE010200000002FF00FDFF000003FD0203FEFF020000FE0200000200FEFD0100FDFEFDFFFFFFFF0002FEFD03FD0002030303FD0002FFFCFFFD00030102FF0300030003FE02FF0101010202FC03FFFD03020201
,FE01020100FF03FFFF02FD000302FEFDFF0302FEFEFF02FDFEFB0205FE01FDFC00FF0100020003FD0300FDFF00000201FFFF02FC00FE000201020001FF02FDFC0001FD02FEFD01FD0102FEFEFCFFFFFD010004FFFD0200FDFD01010000FDFF00FD05FEFD0202FFFDFBFC02FFFF0100FF00FD01FE00000202FD02000303FEFFFC,FD01FEFFFFFFFEFF02FE01FF02FF03FF05FC02FF01050202050000FEFEFC0100FE01FD02FCFD03FD0102FEFE010202FD0104FC01FDFE0002010003FE01FC000203FF00FFFF01020302010201FEFCFC000201FCFD0002FE0302FDFF02FE01FD0302FEFF0002FF05FF00020203040000FDFDFEFC0401FEFF0103FFFE00010200FC,FF03030102FCFFFD01FE00FEFF0000FFFEFD000200FEFFFDFD00FF00FE03000101000303FE020100FC01FDFB0101FEFE00FF02FE02FCFF03FF00FF0102FDFE0001FCFF01010001FEFFFFFF00030201FD010201FC0003FC03FEFEFFFEFF0401FFFEFA00FEFDFC0303FEFFFEFE02FE00FDFE02010100000301FEFF03FFFDFDFE00,030301FEFDFF00FC0001FD02FDFD01FD00020103010001FC01FF0204FDFFFE0101FDFE0201000103FC02FE0304FC0102FD01FCFD000001FCFD03FDFCFEFDFDFE00FDFF03FE01FFFF03FD020203030003000001020002020602040201FD0303FEFDFF010102FE04030200FD030203030103010401FDFF030100FF010503FFFCFF
,FE030001FDFC01FB02FF0000000302030101FDFFFFFD0002FDFC0304FD01FEFDFC01FDFC080101FC02FCFDFF00FE04FFFC0400FE01FDFCFEFFFF0100FDFFFE02FDFE010301FEFEFEFF03FD000103000301FD00FF02FE00FBFFFCFD000203FEFF010405FEFDFD03FDFE020003FD030104FF00FE010103FE0302FF0100FDFF01FE,0201FC03FF01000100FEFFFFFFFCFEFEFFFDFEFF0303FEFDFA0201FE00FC01FD01FDFD0205FC0301FE01FEFDFEFDFEFEFFFDFEFEFC02FCFF03FC00FDFC03FFFD02000001030503FF02FDFCFD050100FD020203FDFF02010101FF02FD0000FFFFFD00040303FF00020103FD03FC03FFFF030202FFFDFE03FD0203FD01FF020102,FC0101FCFD0000FFFDFF000200FC0001FF02FE01FF0400FD0401FF0100FE02FF03FFFD0001FC03FE03FC02FC010200FDFC00FE02FEFE01020003FD03010100FDFE000103FDFE02FE0200FF0202FDFC02030103FFFD03FF00FFFEFC0203030001FFFFFE020101FCFD03FD02FDFEFCFFFFFF03FE00FE0002FF02000100FFFD0002,FF02010200FFFD0003FDFFFD0002FF03FEFC010203FDFE0106FD010302000300FC03FF0001FFFF01FE02FD02000300020100FF01FFFE02FDFDFDFDFD0201000303FD01040003FD02FE00FD02FD00FD04FE020302FFFDFCFB0301FDFEFF01020102FCFDFE02FE0202010302FE00FC020303FDFDFF01FE0301FCFEFC03FD010103
,FF02FCFC0100FE0003FC0301FC02FDFC01FDFFFF0300FE0004040001000101FD0303FEFFFDFD0101FFFDFEFFFFFF03FF04FDFFFDFC00FC02FD010101FD03010002FCFFFE01FDFFFD02030302010201FF0303FDFEFCFD0103FCFDFFFFFE0000FFFFFFFFFFFEFC04010504FD04020200FF0300FD04FDFFFEFF020000FBFF000103,0300FFFD03FE01FFFE0101FCFEFE03FD02FC010102FEFFFD0001020100FF03FF01FDFE030200000002030002010203FE0002FC040000FDFB030302FDFFFE01FEFEFF0201FD00FE0101FE0403FFFCFEFDFEFDFDFF0100FE00FE0300FE03020300FE0103FE00FFFD00FFFD0200FDFFFF02FE02FD020203FF05FF02FC00FF01FC03,000302FE00FEFDFDFF01FDFF00FE00040201FEFF00FFFD02FE030101FD0101FDFE00FFFE03FFFE00FDFD02010200FD02FEFC03FEFF02FE0001020301FD00FE0202FDFFFE00FEFD00FD0002FF03FCFC04FE0000FF030001FFFFFD03FC0002000002FD000203FEFD01FD0303FD0000FF03FEFD000102FEFE0203000300FCFC0203,03FD03FD02FEFF010202FCFEFEFDFEFF00FE0303FF010103FE04FEFD01FD0103FD03000203FEFF02FCFFFC0203FCFE02030102FE02FEFD0101000300FCFF03FDFDFD00030003FE00FBFD01FFFF02FD0002FF02FEFEFDFD00FFFF02000101FF00FD00FD03FC0300FFFFFC0001FCFD04FFFF00FFFFFF000301FF0102FD03FD0102
,FDFFFD010002FC01FE000001FDFDFDFD00FF020005FCFCFFFF050200FD0403FFFC00FCFE02FFFE03FE05FEFC03FE02FF0204FD0402FF0300FF0200FE000303FEFEFFFEFD00060203FD000102FE03030001020202FC01FFFA00FE02000002FDFF00FB0100010303FD000001FD02FE01020301FEFE00FB01FD03FC020501FFFCFE,00FEFF00FF0001FE01030200FE02FDFD00FF01FE02FF030305FDFC0303010102FC01FD01FD010303FF03FDFD000100FF03FC0102FFFFFF02FEFCFCFFFEFD010100FF0202FE00FD0301FFFFFCFD00FEFE0200FFFD03FDFF02FE0003FE000002FE0201FDFF01FEFF03010103FF02FE0300010000FF010003FEFDFEFF020202FDFD,FC03FCFE0101FEFDFD01FF0303FDFFFC0301FE00FB01FDFF02FFFF01FE02FF03FDFDFEFD00FFFDFEFE00FF02FD0401FE0002FEFEFC010001FDFCFFFFFE03020102FEFDFE0003FF03FFFD04FD02FF010102FFFEFEFFFF01FFFE01FF0400FDFD02FD03FC00FDFD00FFFEFEFF02FEFFFE04FFFD03FD03FC01FF02FD0004020100FF,00FD0200FD01FCFCFE0202FEFF00FCFC03FE02FF0401FF02FEFFFEFC030302FD05FDFE04FE0201FB01030000010100FE00FE0301FFFF0101FCFDFD0101010202FFFFFEFD0302FF00FF0102FD02FCFC00FDFC010201FF0105FE00FDFEFFFE02010000FFFE010302FD0400FF0002000202FE0101FE02FE00FDFD020203FC0403FC
,FEFFFF02FE01FF0102FFFE0200FEFCFE000003FDFEFEFF02FD00FE06FFFDFE010203FDFD03FC020100FEFE0101FD00FF000201FD0002FC02FE0303020101FE0303FFFE0201FE0000FBFFFFFFFD02FC01FF0201FC02040001FEFCFFFD0202FDFC020303FDFE0103FFFFFD0103FCFE030102FEFF00020000FE0400FE03FF0301FF,0001FB0303FF0404FDFD0302FEFFFFFF04FE00FF07FFFC02FD01F9FE02FF0402000004FEFB0102FF01FD0801FEFD0001FF00030001FF0201FE01FFFEFDFF020203FF0402FD00FFFE03FD010501FDFE01FF05FDFEFF000001000103FF03FF01FFFFFF03FDFBFC02FB0001FCFD0302FF06FFFD000100010002FF030001FCFCFEFE,FE03FDFD03FD00FFFEFDFD03FF01FEFD0200FE01010102FFFA06FD0003FF01FD0302FDFF0300FD010200FD030000FE02FF01030303FFFF0303FF00010003FD0001FD02FF02FFFE0300020003010203FDFEFFFCFEFD03FD0302FD010202FDFDFEFF01010103030401FEFDFD02FFFEFEFF0400FC0102FDFFFD0301FCFEFD0203FF,00FEFDFCFDFEFF01FFFCFF0002FEFC0300FDFFFFFCFF0301FF000001FDFDFF030100FF0000000002FCFF03FE01FEFC000201FEFD00FDFFFFFEFE0301FEFF030200FD020003FC00FF03FCFF01FFFCFE02FFFE02FD02FCFF00FD01FEFF01FDFD00FC0302FC02FD0202FC0303FF020203FF03FFFEFCFC0300000100FC0400FCFE03
