; Layer 0: conv2d weights (Q1.6 format)
; Original shape: (3, 3, 1, 32)
; Total elements: 288
; Quantization: 6 fractional bits
; Range: [-2.0, 1.984375]
; Memory organization: 3x3x1 addresses × 256 bits (packed)
; Each address contains all 32 filter weights for one (kernel_pos, channel) combination
;
memory_initialization_radix=16; Hexadecimal format
memory_initialization_vector=01FA03FDFE01FBF60700FF07FB01F9F6FD05FD05FDF9030108FF07FA00030502,040703FBFEFF0606060700F7F901FCFEFC03F9FC06F8040500FC0702FAF9FEFC,02FDF9FFFAFB07070303F90705030507FBFA0108FB0503FE03FCF604FDFB0006,FB05FF020100F906000207F70506FC0005FDFCFB0702F808FD08FDFDFF040201
,F800F9FC0200F8F7F7F9FA04F9FF070200F90005FFF8FFFAFBFCF900F9FAFBFE,FBFCFF0107FB08FA02FE0A04F8040408F9FDFCFD04FF020601FD0703F9F705F9,0308FD05FF01030104FAFBF8FDF8FA050800040304FD0506FCFFF9F703050605,04F8FCFBFD0400FE07FFFD01FD01FB02FAFA00F90602F906FAFDFEFE030103FC
,01FD060409070600F803FA03070000FBFFFCFC000804FA01060001FCFFFBFCFF;
