; Layer 6: dense_1 weights (Q1.6 format)
; Original shape: (128, 10)
; Total elements: 1280
; Quantization: 6 fractional bits
; Range: [-2.0, 1.984375]
; Memory organization: 128 addresses × 80 bits (packed)
; Each address contains all 10 node weights for one input
;
memory_initialization_radix=16; Hexadecimal format
memory_initialization_vector=FD03F60303F6050302FA,F5050309090DF8F90B05,F40100FCF5030DF6F509,FFFA0305FAFB03F4FFF4
,04F5F4FFF4F5F509FDF6,0B0905060C00FB03F70C,0909F9FF060703FD0C00,0A05FD0B000A09010CF5
,F6FB0B0108060BF90B0B,FE0DF8F804F402FB06F6,0D04F70CF6F508F40305,000504020705FB06F90B
,F405F60A0C09FEFFF605,02FEF9FC08F709FBFD09,020A060C09090804FCFA,FFF9F700090DF7FEFF05
,090603FE09FD040D0704,F404F9FEFEF70001FAFD,F907F4FF060B02FF0C0C,080D030AFF070801F80A
,F2FB0AFB0CFA08F8F601,F8F9FE0801FCFCFB01FF,080BFFF4F802020B07FD,F4FF030AFAFC0300F906
,F502FBFFF9F9FD0A0305,0FFBFCFAFA040102FC07,FD050A0D01010402F6FE,06F7F20CFBF408060701
,010A02040AFFFE07FAF8,F3FF050207FC02FCF408,040D05070204FDFE0001,0809FDF90B0A02040806
,F4F7080305090BFF0803,080408FCFD020BF5F4FE,FA0701F60704FFFB0200,010908F6FDF6FAF601F7
,01F80A0EFD0503F6FAF9,FF06090EF7F703F6F3F6,0A07F505F6F7F9F70401,FC03000A05FA0303FD01
,03FB070CFB040BF70410,F407FE0809F90CF012FA,030907040BFA0CFCF806,F902FEF4F600020C09F4
,00080A070B0BFD0B06F5,01F508FF0802F90C0800,0C0804060B0C00F9F9FF,F40405F7F50706030BFA
,05FFF6F5F7040BFB0806,04F8FC0501F902030504,04FD0002FB000904F508,FDF3F407FFF8F303F409
,08FBF4FD0C0A05FCF606,FEF7010D03F3F8FEF4F7,F50207F703F50BFCFAFA,F4F5060B0A020AFA08FE
,FCFC020507FA0C0AF80B,08FC0A0501F20607F5F8,0D0800FF0BF905000B05,FC0300FB0A0AFBF400FC
,0903F80CF402F6010DF8,F300FD0A0BF9F9F5FDFA,0602FB060500F50C0200,060B09000702F305F5FE
,0BFFFDF8F700F6FBFE0E,FA07F4FB030B0A03F801,FDFC05F909F4030DF6F9,FD0A0CFD06F4FC0C050A
,05FF0800F9F9F5FD0DFE,FEF80FFCFBF504FCF305,07FE0903080B03070A08,02030B010703F5F5F908
,FF0EFC08FBFCF8F4F601,FF02FCF70508FC040B07,070A060706F4FD08FD0A,F605070701F4F40A0AF6
,030FF6F707F205F909FB,01F802F907FD08F3FBFC,F4FE01F5FA040A010001,F40A0603F5FA0D0801F4
,FEFC03F7F3FC070907FC,000C1000040806070806,04F3F7090B07FFFFF600,0AFCF90AF5FB0BF5F9F7
,0C07FF090903F5F606F7,F7F603FAF60A0705090A,040AF4F8F5020A03F903,0A0207F802F704030BF8
,FC0D0203FE06F60C0C00,0B0B0A090104FBFC05FC,0A080D0404FE0708F80C,01F805FDFBF9F80CFF08
,FB02F9FFFBF4F9F80502,06FA0CFEFA0D020108FC,F4FBFEF401F60DF9FD0D,F50905F6FE0C0100F60D
,FD0B0B01F409FC080609,F8F2F80304FF08FC0800,08FF020C0BF50CF90307,0903F9010AF3F9030E01
,0706090A0701FDFAF40A,F808F4F90D0D0509FCFD,04FAFFFAFF02FEF5FF0A,F5010AFBFB060509FC05
,060CFC00F6F6FD00F20B,FF0B00F6000CFB0B0503,09F6FDFAFDFFFA090707,FAF70B0BF50D03000506
,FCFA040BF3F90706F406,030803F3FA0AF4FF04F4,0607FF0C010CFB0A03F6,FF0201050806FDFF0305
,FCFC0CFAFB0CF7F3F403,0A0D0B03FB030405FEF6,050A0BF3F60A080AF3F3,00FB08030AFFFCF4020A
,F902F9FAF80A0601F806,030BF9FCF90705020BFB,04F30307FA00F706FE04,FF00F9050608F70BF5F3
,FAFA01FB070AFA0C0B04,F909F50007F7FAF8FBFE,F80603F20C0007FB0AF2,04F200FBF4030101F4F6
,F3F8FCF6F60DF5F4FA06,07FC0EFFFAFD0AF70700,F90906060BF80B0AFD07,030A0901080406F8FF08;