; Layer 5: dense weights (Q1.6 format)
; Original shape: (400, 64)
; Total elements: 25600
; Quantization: 6 fractional bits
; Range: [-2.0, 1.984375]
; Memory organization: 400 addresses × 512 bits (packed)
; Each address contains all 64 node weights for one input
;
memory_initialization_radix=16; Hexadecimal format
memory_initialization_vector=04FC01FC04F900F7FAFD08F9F905FC050602FAFF02FAFC0606FDFBFD0406FB00FDFBFE0105FF04FEFD050004FFFEF9F80000F6050005FD0405F9020508FCFB05,03000003FB050402F902FDFCFA06FDFE07050304FBFB04F903FAFD02030002F705FBFD01030406FCFE00FCFFFC0005060002FC040400F80102FE05F9FFFC0102,04FEFB010303040701FEFD0200F806FC00FF03FA03FD030006FCFEFDFBFFFA04FAFBFE04FB03FD02050001FF0AFDFD0303F9F7FBFBF703FE02000700FD09FB02,FF02F902FAFA03FC0102FE04FC03FEFCFE0407F9F903FE0204FAFBFA06FEFD00FD04FE000301FEFBFEFD0C00F80406FF03FA04020402F901FE060005FBFE00F9
,FAFB010603FE000305F9020506FE0607060201FEFE070606FF0406050207FEFAFF060506030504FCFBFBFCFDFCFEFC0503F901000201020206FDFAFC03FD0302,FC030403FF03FBF60606F801FBFCF8FFFFFA03FCFA050000FA0706040102FE05FB040400FEFFFD01FB0000FA06FF060107F9FA05FC07FA00FE01F9FB05030207,FB04FEFDFF00FFFEFE06F80101F8FEF9FBF9F9F6FF04FF04FDFB00020602FD00FDFEFCFDFCFFFDF800FE0400FCFB02010102FDF9FD05FD00FCFEFF04FEFBFA03,06F90303FDFAFD01000504FE0001F8FB04FF04FB03040500FF0403F90005FB0104FC030106FE060006FFFB01FBFA05FDFEFFFF04FB00FF0506FEFC00FE060601
,FEFEFBF8FD05FB0400F905FBFEFE02FB06F9FCF903FDF9FC040307FDFF020001F906FF04FFFCF9FBFE00020605060500FE0003FDFAFF02FAFDFAF90502FF03FA,FC0400FF0508020406F905FB04FFFFFBFC0604F8FFF9040400FEFB02060303F9020100020604F902FA04FBF70105F8FB0305FDFD000004FC0506FDFDFBF9FEFB,04FBFD08FFFF04FBFCFD05FF02FBFBFC02FA0203FFFA00FDFA0402F805FF02F9010304FF0704070600F8F7F7FD0000FD050409FFFBFEFC0603FEF905FE07FF05,07FF02FDFFFC00FE03F801F9FD00FE0601FAFF04FBFD04FFFDF90503FEFF06FB0104FB06FCF9FF040003FEFD01FC03FD07FB0606FDF7FF0600060605FFFD01FB
,0201FB05FEFC01FE00F9020604FBFBFB0100FFFD03FD01FC05FFFF0601FDFEFB01020003FFFD01FD06FDFC06FE02FA05FBFAFA03060103FB0603FA00FBFFFD07,03FC01FF0602FCF8FAFCFAFB00FDFF06020403FD0002FBF8020502FA0203FAFAFBFCFC02FE01FAFCFF02FFFE05F9FCFF03FB06060402FBFB04FF0605FF030303,08F9FDFB05FB020102FBFCFEFE03FEFEFA0304FD0303FF06FAFC03FB0400FE0306FC03FD01FE050101FCF8F804F90506FE04FEF804FF00FBF9FEFCFA01FB0205,01FB00FE03FE06FEFBFFFD0001FA03F9FE0600FB0602FFF9FAFFFB0004FBFA00FE0504FB02FFFFFEF90206FD06FFFCFB01FFFB0706FAF9FF06FB04FF010207FA
,FBFE02FB01F6FDFC000206FAF9FDFC05FD0201F903FAFD04F9FDFCFC04070606F907FB02FEFE06FC050507040204FDFFFB0103FAFCFC06FDFDFBFCFF020006FA,030603FAF9050302FFF9F7FF06FDFD01FC01FA04FFFAFBFDFF00FE020505F9F9FD04FA00F9FC060502FE04FA05F700F9FCF8FF0502050202F900F900FC00FEFC,FE0500FAFAFDFD04FB02FBFAFE060400FAFFFAF7FF02F9FDFE000504F807FDF9FCFCF70202FA0105FBFFFAFBFFFFFD03FAFE0604FCFCFDFD050605040406FB07,0902040201F40600F900FDFF02FE03FF07FE06F80204040202030005010701FFFFFD05FD040205FE000901F8FB00FD0206FB000603FC00FFFBFEFF0600FC00FB
,FAFEFDFF0201000501FBFA04FC02FA03FBFDFEFD01F9FDFA01FE06F9010604FEFBFC06FA01030303FEFA0602020506FBFBFEFA050404FEFF0406FF0302060605,F80406040102FAFC00FEFCFF05F9060206FF02030201FDFB03FCFF0502FAFE0407FFFAFF03FEF9FFF9FFFE03FCFE01FE0403020301FDFF00010605000303FE01,FFFE01FAFE0201060205F9F806FBFC030302F8000403FDF9F9FF06FE05FFFFF8FCFE00FD04FE03FF0306FAFD020302040500FEFBFDFEFB04FDFBFB0101FC0205,02FE0105FD0301F9000006FB0105FCFBFD0504030702FFFBFC0301FD00FDFDFDF904030400FF06020004FAF6FDFF01FFFB0304F9FBFD05FAFE0500FBFFFC0102
,060702F9FB05020003FDFC0105FF01FA0500FAFC0301FDFB0704FBFBFF04F9FAFF0303FFFC04FB00FEFD01FB05FE060504FC03FA02FF0303FCFBFDFFFBFEFC00,05F7FE00FD05F9F700FD03FB02FEFF04FBFEFF00FB0508FCFBFB00FDFB00FEFB02F9FEFFF9040305FBFD01F900FDFEFA01060103F8F9FF06FA01F901FAFCFBFB,FFFFFAFBFC0C00FBFF02FD01FDFDFAF8000706FBFB03FE05F901FE01FF00FDFAFD03F903FDFFF80402FA05FCFE0005FC05FFFA04FCFFFE010103F905FF040100,02050106FA0405FE0003FA03FF02050506FBFB020604FBF800FE05FD000006FD03FCFEFE0203040100FE00F80403FC01FC05F9FBFCFDFEF8FFFA000102000505
,FCFCFA05FC01FCFB04FDFEF903FB0105FB0005FBF9FD01FB030102FA000105F906040004FDFB0505FF05FFFA08FD00060305FBFF0404FDFAFD03FE0101070400,02FA05FD03FD040001FCF8060002FF02FF070501FB060805060303F90105FBF80504FFFC05020406FDFEFBFE05FF020301FDFC0203FE0606FC0602FD0506FCFF,FD03030000FEFF01F903FAFC06FBFF00FDFFF8FA0507FFF9FE03FBF9020304FA040504FF04FAFFFB0102020105FDF9FA0600020201FD00FBFE00FBFCF8F9FE03,FC01050402FB04FB08FEF9FB06010406FBFFFB0002FCFB050208FA05FE05FA020401040000FFFCF906F9F902FCF9FDFFFDFA03FC000002FEFFFCFD02FA00F8FC
,000102060705FAFE03F9F80006FFFAFF040200FAFD05FE0706FEFD05F9FB0602FDFEFCF9FCF7FC00FE06FEFA04FB02FD0806FFFC0204030203FC010403050205,FAFC05FEFF0105FCFFFC0100F904FA020201FDFD04FC02FC01010100FBFF01040103FA0006F906FBFBFD05F9F8060102FE0502FA04FB00FD00F80001FEF90702,03F9FF010702020007FF07FB05FE00FBFBFEFA0402FE01FA000103F806FAFF040400FDFDFD01FF01FEFF0402FB02FE01FBFB00FE0500FA0101FDFA0603050008,FF00FB02FBFD02FF020605FDFA02020505FDFE030201FA03FDFC05FC0502FEFD06FD0601FCFEFB03F9FE06030500FC040504040402FE03FD03FF02FF0402FFFF
,FDF9FAFDFFFEFF0405060304FFFCFCFB0402060006FBFDFCFB05FCFDFCFCFEFD05FF05FEFE0700040401FD04FCFEFD000302FA0603FE02FBFAFCFF060105FB02,F904FDFBF90302FA05FBFB010200FB03FF00F900F9FAFCFDFD06050706FEFF060600FCFC06F9FFFCFFFEF801FD02030503F80504FA05FA06FDFFFCFEFBFD04FE,FE01FAFC02060603FFFAFEFAFDF9FE05FCFA020204FE0702FE05020602FEFCFF06FCFF02010503F902FD02FC04F8FF04FFFC05F9FCFC05FCFDFF00FD01FE0207,FAFF07040001020405FA010007FDFBFE0403FC0707FFFBFF0102FCFE06FB00FAF90002FD05FAF905000502F7FD0004FD0003010304FD03FA06FB07FB06FC06FF
,06060000FA05FD0903FB060303F9F8FDFD02FE06FCFF00020406FA01FBFF04FA0100FB06FBFDFD00FEFBFFFBFEFF05FFFC02000206F8FEFEFF03FF05F90002FC,FAF803FE07FEFD0404F9FDFB01FE01FF04000202FEFEFCFC0300FCFAF80204FC06FD00030508FDFFFEFDF804FD05FE06FFFE0104FF05FA000403FF03FEFB0003,FEFBFFF902FFFC0500FF0500FFF801050101FB04FDF902FDFCFBFAFFFDFC01FFFBFA03040204FAFF0006FB00FAFCFBFFFE0606FB0205FEFEFAFAFE01FD070702,FA0402030504FEFCFE010005FC07FFFA03FB03FBFB00FB00FD0104FD0105FB0105FC0100FF02F9FB03FE020205FDFF050403FDFFFE020101FC04F8FB02FAFB05
,030100FF07FDFBFF05FA010302010407020000FEFB0001FFFF0205F9FA0307FAFB05FEFC07FFFE0203FDFBFF06FAF906040104FF06FC060600FAFF0706FEFCF9,0205030203FFF9FA0102FA04FD0104FB060606FCFCFE00FD02FBFE06FFFEFB040201FEFFFF000602050102FB0604FC0002FCFF03F802FEFA030304F9070400FB,FDFFFA05FC03F904030003FCFF05FBFB0003FC02FBFE0BFE0001FA0103F904FBFD0002FE03FEF9FAFBFDFBF801F9F90002F903FE020105020201F80001FC0402,040105FFFBFEF9FAFB00FBFFFDFB0003FEFB060506FDF9FDFF00FB06FFF9FC06FB0405FA030403FBF9FB020106FD01FCF904FEFC05020306050402F9FEFBFB02
,FD03FCFEFD0400F903F80604040003FDF9F80000FD060404FF09FF01FCF9FF01FFFBFF0103FA030404FAFCFA070103FA030106060202FE060606FDFC00FAFD02,F906FBFC03FD020700FD05FCFC01FEFA030300FB01FDFA02FDFE0302F90206FE000505FAFBFB04FDFB01FBFEFB060300F90300FD06F900FBFD05FD05FAFCFBFA,040207FD03FBFFFA02FEFDFA04FE000502FF02FF01060302F9FF06FEFBF9FD0306FFFD02F8FDFC03F900FFF9FB02FB0700FDFB03FB0005FB02FDFCFC03FC05FB,FD00F8FA0303FE0000F9FA00FEF9FA020007060803FE06FCFEFCF8FE0501FDFA030600FCF90101050603FD02F806F9FC05FB06000606030307F9FC04010106FB
,070700F8040306FDFFFDFB03FAFA02FDFEFDFDFB04F9F9FAFEFCFDFD04FD01FE01010403FA03FF01040202FD06FA010606FCFAFEFD0006FB0405FB0401FC0306,000402FEFEF8050404FD070401FD06FB01FDFAFE0602F8FD02FDFDFEFEFD05020407FB0405F8FF02FFFA0706020506F800FDFFFDFDF9FF0601FCFD0004FF04FD,F904FFFAFFFEFDFFFEFDFAF9FEFEFEF90400FA0205FB0602FF05FDFDFDFB00F804000502FB0400FEFF0100FC05FCF902FAFFFBFE0106F803FA02F900FBFFF905,0202FA060701FA0806FB03FA010700FB06FB02FFFF060005F8FFF902FDFF0507FE0700FAFBFD0601060402FC0106FBFD0403FD0005020001F904000001FE0602
,FA05FB01070203F8FDFBF806FDFEFDFB00FEFE01FBFAFE02FA05F90401FEFEFAFE0102000101FB010500F9FD05FD06FAFEFD020400FC0104050003FFFFFC03FE,04FB0603FE0403040504F9050202FAFBF9FAF8FF00FEFDF8FD0701FAFE01FFFFFCFF04FB02FEF8FDFBFAFD0002FDF9FD04FD05FB0506FD0604FBFD010606FBFF,00010200FC0402F8FFFEFA02FEF9FE0106FF04FAFEFDFAFF07FF01FCFC040401F9FE03FE0502FAFFFB05FD050305F9FEFDFA00FBFB0602040107FB0504FFFA05,02FAFBFD03FF0200FCFC060205F906030000FEFB05FDFD0205F904FDFD07050506FF0106020003FCFFFF00FF03F9010604FE0300FB02FF01FC0207FE020006FA
,FAFA070603FCFD00FC04FF01FB05FF0404FA0603FFFA0600FF0200FAFA01FCF9F9FCFCF90401FEFC06F904F80705FD0002050202FA0404FA0300FBFEFA050100,000402FF050200FE0506FC0502F906FDFB010305F804FA000202FC04FC07FEF905F900FE02FFFC05FD020101FC07F9FDFC0601FBFF06FA030002FE03FCFBFB06,F9FB00FF07F90101FFFEFDF905FA07FEFD050402F9F9030302FC04FA05020601FD0502FEFF020704FD04FF0106FB0102FDFC0301FEFD03F8020206FCFCFFF907,01FFF8FB0303060207F9060304FC0503040304FC00F8FAFA01FB02FBFC00FEF805FEFB00050402FA00FE0201FEFE01FF060002FB04FB02060605FEF900FD04FA
,F8F9F9FC05030102FF0507F80000FAFA04FEFFFDF9FE01FE0401FC06FEFAFEFDFFFEFD04FDFB0500F9FE05FE08FCFAFE01F90402F9FF01060002FAFD04FBFAFE,F9F9FDFFF901010500FBFD020505FD05FC03F800030606FF02FFFF02FFFC0606F906FC01FC0700FCF8FF03F8FD0302060005FDFF050101FC06FAF9FB0607FE00,FF03FB030604FE01FBFA03FD0001020705F9050503FD00FAFE03FA020101FEF803FCFAFEFDFBFEFD06FEFE02F90406010104FEFF05060000FB05FC0102FFFB02,F702FA070605FC0400FC050206F90201FDFD04010000070004FF01050401FBFD020302FFFCF7000105F8FE01020002FE06040306FD04FF0301F904FE01FA0403
,0707FEFB03F9FBFBFEFF00FE06FCFE05F905FC02FBFE02FD02FD0206FCFDFBFEFEFE05FD07FAF905FBFE05FB0704010202000202FBF90200050102FB0706F9FC,FD00FFF805FFFEF705FEF903020205040500FE03FA060703FA06FE03FFFBFBFBFC0603FDFC06FE06F8F906FA0404F9FC01020502FA0305FE01FE0605FBFA0300,FCFFFD010305FF0103F903F9FBF8FEFDFC02FF010205FBFF0202FCFB06FD04FFF9F902FCFD07F9FE01FDFDFC01FEFB030300050603FF01010306FCFEFDFAFDFE,06FAFBF8FDFFFFFA0100070500F9FDF9F8FFFEFBFA0705060400030300020105060406FF020704FBFAFA0605FB030200FDFD01FAF9F906FF0006FA0604FBFDFC
,F806FEFA0108FCFFFBFCFDFDFA04F9060602000504FBFB0300FF06FEFF02F906FE06050206FE0005FCFC04FAFBFAFD02070102FA00FA04FF04FAFAFC05FF04FD,FA01FEFF030500FA07FFFEFDFA05FDF9F9F9FF0706FFFEFC00FEFE0006FDFFFCFEFCFF04FEFD06FAFCFC05FF00FDFE03FD04FFFD060105F905FBF904FD0105FC,08FD0001FDFD04FC04F804FB03010201030301FD00F9030407FAFBFC05F9F801010002FF0101F9FC05FFFB020600FEFFF9F9FFFCFAFC010002FAF8FEFEFEFD05,05FBFBFA05F90503FFF9FC0504FAFA02020500FAFEFDFF0102FD000601FAFAFF0404F9F90303FE05FFFE00F7FFF9000104FDFE030003F9F8FDF902FDF8FA05FD
,FCFBFCFEFE00F9FCFBF9FFFCFCFA06F90605FEFB030200FE01000205FC06FB06010403FCFAFB0001FFFDFDFC02FBFFFB00FFFB0602FD010602040505FAFB0404,FBFCFB02F9080102040002FDF90300050402FC01FC02FFF9FBFEFB05FB06010602FDFB06F907FCFEFB00FBFD01FB0202FFFC00FA0502050007F9FEFD05040602,F9FDF9FCFDFF0003FF040202FE06F9FB01010405FA070000FD00FFFE07040100FD06050405000602F8FBFCF903FBFFFAFD0206FBFE0206FC07FF02F9FD02FF04,FD02F9FF0103FAF807FD05FCFCFF04FB01010300FE04FBFB0605FBFFFD02FEFC06F8FE0304FCFDFDFD0200FEF901070101FEFEFAF9FC0201FBF8FCFA05FB04FE
,04FF02F90404010503FBFB06FAFF0603FB0304F901F8FD05FE030401FAF9FC0406FE03000304FAFEFB0406040504F70206FFF7030003FFF9FFFEFB0704FD04FC,02040305FB070002FB00FFF9FE0100FA0507F9FBFA0504FDFC010203FAF905FFFAFF0201FF000405FCFBFA04030203FB04F9FCFB02F904FBFDFCF9FF0301FDFF,010A02FFFF0103FB0700FAFFFEFA00F802FCF90506FF0300FCFC02F9FEFAFCFEFDFC03020105FAF902FD020203FB04FD04F801FCF9F9FCFBFA03FDFCFCFDFDFB,010107FE0700FCFB00000401FFFDFEFAFEF803F7FCFE08FBFDFE04FCFBFDF901FDFC00FA00FFFDFCFF020801FE01FA06FD0301010405FAFD04FBFB01F902FC02
,06FD00FAFC02F9F901FD05FD0203010302FAFDFB04FA03FA0005050305FEFFFEFB01000300FB010603FC01FD00FC0002FAFB02FBFBFEFFFD07FFFD00FD060603,FCFAF902F9F901FE07F8F9FB07FAFFF907FD00FCFEFD06040005F904FAFB030004FE0003FDFEFAFA0100F90202FC010303FCFD010302060103FBFAF90101FE04,080403F704FD00FE00FB01FCFDFEFF00FCFC0403FCFAFFFDFE02FBF90401010301050301FF040303FFFE0001FC03FD02030501FBF8000005FE00FD0300FDFEFC,FD0102FCFB03FD0604FCF801FEFBFCFB05FDFD03F9FE0400FC06FDFCFCF9FF00FEFAF90601FD05F901FDFB04FDFB03FFFEFFF9020000FE02FBFA0202FAFB06FB
,000502FE02FB05F905FB030203FC0202070506050503FD04F905FFFDF8FE05F90003FFFA01FEFE00FFF8FF0403FBFFFB0403FB01F8FBFCFDFAF8FD0505FAFAFB,FC05FA05FA0201F705FEFD06F9FC0201FEFB0002FEFD04F9FBFAFF05FEFB0102FA0302FC000502F905FBFBFFFDF803FBFD020504000506FFFFF900FE00FF0403,05FC0002FD00050BFFFDFB02FF06FFFC00F90404060201F9F9FFFEFBFEFB00FEFCFD0506FC07FAF9FA01030C0503FCFF01FB01040204FB06FE06F901040305F9,FBFAFFFF01FD0506F905000302030401FAF906FF040101FCFF03FD06FF0301FF050702FC030001FB03FD00FD020304FA0503FDFAFEF9F902FBF9F905F9FFFC03
,05FBFE05FE0500FC02FB0001020200010200FAFE02FE0506FBFA00FAFBFC00FF06FCFFFBFC04FF05FBF9FC06FE04FF01FDF9FC0206F80101000202040000FCFA,FF00FB050001FC0103FBF90607FD02FE06FBFE030302FEF8020103FAFDFD05000304FEFBFBFB0601FC04FF02FFF9FF05FDFFFD0303040605FBFC0500FD010401,FD0005F9F9FBF90304FAFE050100F905FE00FFF600FC05FD01FD02FA05FE04F9FAF80103000200FCF80301FE0002FFFEFB05FEFBFEFAFAF907F9FE00010304FD,FDF90000FD040503FB05FBFC00FCF9FD00FB0407FF05030507F9030606FF06FEFFFA03FC03FB0201FEFEFD0904FE05020400FC010006FE05FBF903FB0503FA05
,05FBFB0004FDFEFD00F9FEFA00FCFEFCF9FC060102F802FFF9040603FBFE00FDFA02FA06FBFC030204FFFB05FCFAFCFE0302FFFE01FD04FA01F903F907060406,FAFB03020307FFF7F9FA0003FEFD04050601FA0400F8FEF8FEFDFBFCFDFAFBFB02FC020003FE03FBF905060304F9010102FDFC07060606FBFDF8F901FCFE00FE,FFFFFD020601FB020706020000FFFEFB01F902040403FA06FB06FEFDFBFBFC0204FE0106FDFEFB0605FFFE0104FFFCF9FE0300F8FAFE00FA00FE00FE00070402,05F901FD0603FBF801FE05FE010301FBFE04FA04FC02FA0301FF05FC05030100FB05F8FCFB05FC03FE0204000205FCFD07FB03F9FD00F9010006FCFEFB0100FC
,01FAFC00F90506F8F9FF04FF0704FBFFFCFDF9060705FAF9FA0704FC0101FBFA0500FBFE02FBFE010501FCFDFC0202FB020204FF03000600FCF903FE00070302,F9FB01FD0100FBFEFC000206FFF9FD0106FB05FCF804F8FD02FEFFFA03FF0401030303FF0500FFFCFDFFFE0103FBFA0300FE04F9F9FD01FD040205FE00FEFA03,04FEFAFBFC030000FFFEF902F9FBFE05FD05FE050306FD03020004FC01FCFD010701F903FD03F905F8FE05FB01FB04FFFC05FBFDF9FBFCF9FB0403FAFCFEFE06,FCF900FDFC0504FF02FEFCFA01F9FA030401050506FF0204FD00FAFAFD02050000FC04040602FAF904FBF907030605FBFF0201FDFA0202FCF9FC00FFFF020702
,0008020100FDFBF9060501020106010503FD05FAFB05F80701FE05FBFCFE0200FBFAFD00FF06FB0606FDFA02FFFAFE000806FE02FEFCFCFCFC04FA0600FA0605,FD0606FAF90200F907FE04020203FDFB02050600F90201FA0406F9FD06F9FD03060603FB04FCFEFEFDF8FB06F905FCFB0101FC030706FBFFFFFEFC0303FCFE03,FAFC04FBFCFA0206FEFAFAFA0604FB04FB04FE0602FE010100FF040800FAFD0707FA03FFF901FA06FAFE02FCFEFDFD0701FFFEFFFEFCFCFAFEF8FAF906F901FB,FC02FEFE020201F7FBFDFDFE0401FF00FA07FA03030601FDFF01F8F804FB0505F805FFFEFEFFFA000106FF0205FDF9FD00FD0105FE03000004F9FBFFFC04FDFB
,FAFD0604FBFEFB030504FD0500FF07F90403FCF9FB07FFF9F90002FDFEFF0200F903FAF90307F9FFFBFEFC00030205FA0206FEFEFC01FE06FAFD05FFFF04FD06,02F8FE030007FFF8FA06FAFA0603FDFE0305FBFE0603040505FDFA02FDFFFFFDFBFEFF01FB0205FA05FD0401020203FBFF0503040005F9F804F9FB070501FF05,0204FE0306FD0402F90502060304FF01FB0002FDFAFFFE06FBFD0506050103F803F8000500FBFE04030103FBFF02FDFDFFFFFF06FD050502FB00FD04FE04FBFF,FF060503040602F90004FFFE0000060501050403FDFBF9030707FA0501010101FCFC060505F90103F904FBFEFCFC00FA02FFFFFC0102FEF9FFFBFA00FF03FF00
,0301FCFB0104FAFCFF00FB04000202FF0005FDFEF704FF07FB02FE07FA06FFFCFC01F9F90401040202F905FC06F70504FE0006F904020406F903F9FBF801FAFE,01FFFA00F9FB01FDFA020501FF02FFFB00010003FE010000F9FC0607FD05F900FD03FF03FF03050405F9F9FFF9F9FE07FEF901FEFA0605FA01FDFCFFF906FCFF,0803FBFEFBFD02FEFC03060402FF02FEFCF9F9000505FCFBFEFEFE00FB05FD05060000FBFF03F8F80301F80005FFFEFA0705FFFCFE0001FC01FEFAF904FC05FA,0602F9FF02F700FDFF02FC02FCFBFFFE0302FAFB03F9F8FEFBFBF804FDFCFBFBFCFBFB0101000605FEFEFC05FEFB02FC02FF050403FBFEFFFCFD060104FA02FC
,FE0202FEFBF903FAF9FC0306FBFB03FD06020100FB0103F903F9020600FAFFFFF800FE04FDFF0605FFF9000005FEFF04FDFEFB0001FFFFF9030504FD02FEFA02,04FE06FD00FB000006FD05F9FDF9FAF905FB00050606F9FAFEFA040206F905FB020304FE0700FBFB0105FEFA01F9FE0400FC040105FFFE04FB0102FEFFFB05FD,03FE0003040405FBFC05000504FEFB04FEFCF9FCFA00FE02FA00FA01FCFA0204010502FCFBFC01FDF90005FBFB00FE03FC0304FA0200FFFBFAFA050601FCFAF9,000401FD0201FF050504F9FF02FFFEFD05FE01FF04FFFBFFFA070202FA0002FA01FFFE01F9FDFD0502F902FAFF0401020503FE05FBFD03FCFEFE0305FE040102
,FD0506FDFC0101000700030005FC030501FC00FE06FAF901FC03FC010006FAF9FBFFFF02020503FEFA0307FEFC06FC060500FCFA0500FC05FA0603F8FEFC06FF,00FFFBFEF9FBFBFD0401FA0006F90300F905FFFD030204FDFD060606040201030108F8000203FFFEFA030506FD0802FF01070203F901FD00FCFCF90105030300,07FDFAFB03FE0707080004FAFBF90402050103FFFE00F805FEFDFC000104FFFC00010401FA0507000506FB01FAF9030404F8060505FF02F9FB0606FE05FFFF04,F8FCFFFC0302FCFB06010505F9FEFDF9FC040304020602FC04FBFAFCFBFAFAFF0106FEFFFA0202F9FF0405FA00FD0200070306F9FC06060106FF010006FEFF02
,FE04010106FFFCFA00FFFCFFFC04F90207FB06050607FB050502FCFEF8F900FBFCFE02FB0103F9FA04FC0206050304FBFEFAF901FA03FF01FB070100FD000404,02FDFA06FBFA03FDFF01FBF8FDFB020303FCF903FD00FFFF0507FA0403FF02FCF901010201030200040401FAFC0402FEFE00FEFFFD02FE0106FBF9FF00F90404,050306FA05FC0103F9F906F90504FF04FE07FE01030503FEFA0100FCF9FA01FDFEFC04FF00FB030300FFFBFFFC02FE02FDFD0106FFFF06F9FBF9FE060401FC04,01FF0301FCFEFBFD03FFFDFDF9FB06FC030000FFFDFAF903FFFB03FA0302070304FFF902FFF8FC0205FF06FF00040301FD070303FF03040002FD02FF00FF00F9
,070402FD02F90307FBFF0504FC050803FDFC010404FCF60206FBFD03FD0604FCFCFD060605F9FAFC0504FFFF0604F9FA00FB0202FE01010002F9FAFCFD0000F9,F9FFFE0703FE0103FD02F90500FFFA0306FDFD05FD050500040503FEF9FF02FCFAFE01040201FAFA06F9FB01FD040604FC0202FEFFFB010104FC04FDFFFDFD05,01FBF9060301FEFDFD0204010201FEFE02FBFC08F902FF0405FCFF02FA04FCF9FF000302FD00FDFCF903FF06FFFB000603FC0300FB06FA04FCFCFCFF0405FD06,04FDF906FA03F9FBFCFEFDF906FBFE0005FB03010401F9FDFE060107FE00FB05FFFBFBFD00FC05FE07FBF8FFFAFDFBFE07FB03FF0505FC0404FAFD03000301FD
,0506FFFBFBFCFDFCF9FEFEF9FE01FDF9060702FD0101030103FC0502FB00050005FC00FAF901FDFD030405FFF9FD04FA02FDFBFD0604FE00FEFEFBFD000401FB,02FF05000302FB05FAFC06FC0705FCFD04FD0004FFFDFFFFFFFCF9FCFD0202FBFC05FA00FB03FA07F900FAFFFB04040307040503FC0500FA01FC0505FA0201FE,F80600FFFA0202FCFB04040205FDFEFF05FEFDFB01FD06000003FC01FEFAFF04FBFEFDFEFB03000105FDF8020300FDFB0605FEFBFBF9FB050700FDFC0200FBF9,01FDFEFFFBF906FB06F900FB0100FA05FD03040101FD00060002FC060201F9070204FF0400FA01F9FCFEF8FF06FBFC06FFFCFC0103FAFB0505FBF9FF020001FE
,FC01FFFCFEFDFF020502FE0406040600FC04FF01FDFDFF0502F9FBFA01FCFEFDFA060705FFFF01FDFFFFFBF90004FCFAFEFAFD010601FFFF02FC040403FAFCFE,FAFFFEF800030007FB00F90206FDFDFEF8FBF9FD0102FF02FFFB01F9FBF90607FC00FD020700FBFCFE0006FFFBFA010200FBFDFD05FF0404FCFA000506FDFE00,FD05F902F901020007FF03FB020002FBFD01F90BFA06FCFAFE0504F90503F807FBFD0302010202FF04FA0700FD02FF060202FD0503010306020400FB020100FC,06F80306F901FFFEFEFA03F9FEFB050305FBFBFF0106FBF9FF03FCFD00F906FA0400FA02030000F9FCFE05FC06FBFA03030301FB03FE030305FA03FB0504FF05
,FFFC06FA0001FF02FA03FA0500FFFCFBFA070505FC0005F9FA050601FBFF07FAF9FE010403FC01FD03FCF90806F9FF050501F90002040303FDFC04040603FCFA,04FB0004FEFA04FA05FAFAFF050700FD06FCFE04F801F8FCFEFEF8FA0007050006FB04F904FFFFFEFEFC0800020706FBFDFE04FDFDFA06010102FF0405FF0401,02FDFD05FDF800FFFC0301FEFAFE00FC0603FC01020300FC03FB05FAFE050304F8000104FBFAFE04F903FAFD0303F9F902FAFD05010502F900FC060600F9FEFB,FFF9FAFA0404FDFBF9FAFFF9FB0504FCFA0507F805F9F8FCFEFAFE01F9040201F900FEFF01FBFD06FCFB03FEFCFC0300060309050302F902FD02FAFAFDFFFF00
,FC0403F8FBFEF8FC04FEFE05F9F9FCFFFBFBFEFF05FBF903000402FC0600FC06FAFD04FA06FCFDFDFFFCFB06FF0901FBFC00FFFA0006FCFAFC00FE02FAFB0705,FF03FF0600FA03000302FAFBF9FE0504FC060505F8FFFEFC03FBFFFBF80402FB020602000201FB010006FF05FDF900F9F8F903F805FE02FDFC04060302FD0400,F9FBFFFAFEFEFE02FB0003010505FFFCFAFD0408FA02FF00020301FFFAFA0301FBFC01FCF9FBFB03FF03FDFB0001060201FAF8FDFD05FCF9FDFBFCFC00FFF901,03010200F9FDFCF90005FFFB08FE0003F9FD0501FB0602F8FF05FAFEFD0502FA06F9FBFA02FD0300FAF90402FB02070404020001FF05FAFE02FDFF0604FFFC01
,FF060403FB05F8FD04FC0503030304FE05FDFAFE050105FC04F90003FDFA03FC0007040500FF0203FF00FE02FDFD030303FD0300FAFB01FC020602FC050204FE,020201FFFE04FE010400FEFCFA00040005FA05FEFB01FE02020405FF04FB030402FBFAF906060100FA06FEFDFFFDFDFEFF0200FF03060403FAFC0105FE0304FA,04F9FEFFFA0302FBFFFE01FD0003FAFCFDF90205FDF9FAF90205FC00FC01FF02FB0406F8FAFBFFFD05FDFB0205FE04FAFE0602FDFFFFFEFDFEFDFAFA020201FD,04FF0403FCFBFA01FFF900F9F902FAF8FA0306010400FAFEFBFF01FFFCFFF90705FDFC00F9FA0002FE05FAFA0205FE05F9010602FD06FCFBFB02FAFCFEF904FD
,0607FFFBFAFAFEFC05F9F9FFFD0600070201FD01FDF90202FE040406F8FE0304FBFEFB04FB03FBF8FCFA0202F9FEFA05FBFCFBF801FC00020306060003FB01FA,000505FDFE020400FEFD00FD0305F800FCF9FA0000F903FE05FC01FF0401FD06FFFF01FDFC00FE05FDFCFA0500FA02FA02FFFD0005F900FC010506F8FE020105,050105FA0405FDFEFFFB0203FEFE06050001FFFCF807F8F9FEFFFCFEFEFC010105F90305FC0202FDFDFB03FFF9FCFFFA02FCFC0706FD00FC0406FD01050303FA,FA04000204FFFD0205FC050007FC06F8FFF80504040301FB0401040200000201FCFD04FBFEFAFF0604FDFD0302FD05FCFEFE0402FAFD07FDFD040300FF00FD00
,0602F903FDFF0403010305FCFE05FC04FA0202FEFAFCFF03FF03060204050302FFF80602FD0801050106FDFEFFFCFA0604060200FBFC000003FE05F9FCFDFF07,040203FDF9FA030007FEFFFEFF0004F8FFFE03FFFF0100FD01F80000FB0505FCFAFDFDFAFE02F901020006FC00FD06040306FDFC06FCFA0306FAFB0400FFFB05,FE01FBFEFD0104080002060202FBFA05F9FDF90602FA04060001FF01FB05FAFB01FC02FEFE01FF00FD0206FFFBFFF900FDFC030707060506FDFDFAFAFDFA0605,FD0205040300040301FEF901F907FE010300FA04FCFC020307060203FA010408FBFEFEFFFCFC06FA00FC0602FEFD04FBFA02FC0304FC0100FCFC00FB05FEFF00
,FAFD010107FDFE020105030206F8060505F704FFFE020400FF0300FD020200FDFFF9FAF90106FBF9010302FD04000103FF06FAF9FFFD010205FF03FF0101FC04,000300FBFF0503FE02FD02FE06F906FB01FEFBF8FCFE05F8010402FA05050302FA01FFFD05F9FEFEFDFE010002FF0104FEF9FE000204F9FE050001020403FA03,05FE05F9FC0602020003F90504FC04FB0200FD080702FD01FD010200FAFDFD0600FCFEFBFF03000204FA0600FCFE08FC00FCFDF8FE08FC03FCFB0002F906FC04,FE08010201FE02FE0204FF0401020600F8FEF9FE07FF04FA06FBFAFBFB0305FAFCFD00FD010301FFFD070609FF0402FBFBFA01040007FE0500FF040604FBF9F9
,FEF9FFFB0702F9070302F80104FC04FD06FDFCFF03060201FB06FD04F90604F9FD06FC04030203030300FD01F8020103FA03000400FB00F807F9FBFEF9F903FB,0707FE03060102F803FB02FDFF05FDFFFB0204FBFDFBFD020704FBFA0003FA040405FB010205FE00FDF9F801F9FAFF03FDFB03FCFE0000FBFDFAF9FAFBFEFB00,FC0104FA0402FFFFFB0401FBF900F80503FCFFFDFEFD010202F901FC02FAFCFBFCFD03FDFAFB0405FEFAFE04FEFFFBFC000108FC0502050500FAFFFD00020002,05FE0003F9FCFF0907F9FEFE040607F8FB040102F902FCFB0102FBF90503FBFFFAFDFD060508FC0504040407FAFF050304FBFEFD01FBFAFFFB00000503030503
,050703040406F9FE0600FE01F900FAFAFD00FCFEFCF90501040700060305FD04FDFF00FEFDFEFA01FC01F900FB0100FA03FCF801F90701FD020500FAF9010502,FBFA04FCFA01F8FF0503FEFB030403FA050704FEFCFD0306020305FEFC0602FBFB040606F900FF060206FC01FE04030501050801FF06FFFD0002F8060502FEFA,03F6FAF9FC01FE06FBF804FAFB01FF0404000406FBFBFFFEFDFA02FC02000304FA0205020307FEF904FEFB0004FDFC0300FCFFFBFAFFFCFAFEFCFCFE07FC01FA,FD0606FAFEFB00FF02FFFC0105FBFC00FBFAFB01FC050305FDFFFDFB0202010304F90002000202000106FEFCFCF9FBFA060502F9F90502FD060506FE05FD00FE
,06FEFF00FE000100FDF9FA00040401FF06FE06FEFB01FA01F9FEFD01FE07FD0001FC04FD06FCFA0204FA02FF03FA04FFFCFB0101FEFEFC040001010202020406,02FDFEFC06FCFFFFFD0406FEFE03FA05FA0105FDFBFA01FDFBF9000703FEF900FFFA06050603FDFE00F901040202FAFB01FD0305040502FAFCFD0502FEFCFA07,FC03FC00FFFCFC0001FA01FA040101F9070206FC04FD0501030403FDFBF80400FFFD01FA06020205FD030101FEFC07FF00FAFDFD0107FF02FBFAF9F906FAFAFB,0000FD06FE0407010602FE05FCF901F900FE03FEFAF9FA0601FBFAFF0601FEFD0301FEFE000005FA02FE0505F900FEF904F8FEFDFFFB0506FC050207FC04F905
,07FDF80000FCFC050703010604FC02FA0304FA05FF050507FD03FEFCFD02010104FD04FDFFFC0303060000020105FC0107030207FCFFFF06040005FFFF000201,06FAFAFD0001F902FB04FCFB060305F8FA0300FEFCFB0203F9FC03FCF8FFFC010201FEFE020503FA03FD07F903020300010204FEFA02FF04FAFDFE00FDFA01FD,FB04FB0100FDFCFEFE06010106050406FCFAFFFFFEFAFE03FF03040403FE01FE04F9010600FA02F800F8FB0700FBFAF901FFFDFEFDFDF9FF0305FFFF03FDFC00,00FD0201FA000707070607030603FA04FC04F90004010102FAFAFAFB03FDF9FA02FD03060609FBFD0107010300FA03FF00FEFE0202F904FBFD00FEFBFC040000
,FEFCFF01FFF9FE00040004FE05FE07020205FC00F9FE0006FA03FCFE010501FDFB0605FFFE00FF060101FC0400FD0004FDF9FD02FEF9FDFCFEFFF80306040500,000006FBF8FF070402030006FC00FD0205FA00FB05FFF9FB03060200FDF80401FB0705FA05000000F9FBFF07FA04FAFE03FD01FC0203FF03000105FC040502FB,06FCF905F903FBFDFBFFFEFEFA04FEFC06FCF8FE01F9FD05F90404FCFA05050703FAF9FFFC03FBF805F9050304FFF9FDFF00FFFEFAFFFC05FD0303FD04F904FB,FEFDFAFFF8F900FC0204FC020403FBF9FBFF02010101FF0506F902FA00FD010103FD06F802FDFCFB02FF000107FFFB0102FCFCFFF901FF0505FD010200FE0007
,010006FD0500FFF90401FC04010407FDFD050104FA06FCFBFC0001040403FBFEF9FC02FFFDFA04000106030701FB0201FFFB010104FFFB00FA02FEFA0502FC03,F9FE0202FDFDFEFDFA05FE0205FBF9FEFDFFFDFBFB06FFFE0107FFFAFAFA04FBFFFBFDFCFA01FDFDFEFC0507FEF901FDFE07FBFCFD06030603FAF8FF00020805,FA02F90503FD01FB01FFF8F904040406FC0203FEF9FFFD06FB00FBFF0706FCFA06FEFCFC0503FDF900F804FB02FCFBFC00010001FFFF0004020504FC0104FDFD,04FEFBFF06F902FAFF0201F90701FCFAFD040301FC0302FC07FAF804FA03FDFC00FAFE020405F80604FF0405FEFF02FA00040602FD01FBFDFCF801FC03FF00F9
,07FFF805FA0102F80402F9FC030206020306FFFB0306FE00FF01FD0301FD0302FD04FCFF0604FF0603F901FE00FFFC04FDFDFD060005FE050600000702FA0505,01FE040405030600FD00FBFDF9FF01FC00FAFAFB00FD0604FEFD02F900FC03FB06FFF8F9FFFFFEFB06040001FD05FC01FD020006F9FE00000103FCFFFC0501FE,FF000004FB04FE0202FBFF050303FE060300FF02FE05000305FEF9FBF90606FFFDFCFCFC01FC070200FFFC02FCFDFC0304FEFF0503FBF8FE0207FC00F805F901,010100FA06FA06F9FE0003FB00FA0304FD010202FC0501FB02FAFBFF04FC06FD0000FDFBFE05FEFAFD04FBFE0006FCF9FD010302FC0604FDF9F9FE05FD02FC06
,03FB050307F9FFFFFEFA0105FB05FDFDFF0005FCFF0302FFF9FBF901040001FA04FC00FC0702030205060201FD0102FB02050605FF04FAFD0500FEFB03020302,08030601FEFB05FBFCFF04FE02000004040505F9050301F9FAFCFB00FEF8FCFF0604FC0102010001FDFFFD00F800FD00F906040702F901F902FCFD04FC0402FB,0101FFF8F9FFFD00020503F9FB020102FE02F8FD0004FC0002FC02FB05FE01FAFEFCFD0602FE0203FBF804FD00FBF90003FF0203FAFE0105FEFEFB00FD0107FB,FE01FDFE0107FEFF05FEFD02FAFBFDFD0201FFFD01FAFC030302F802F9FFFF03060502FFFEFA020604FFFF0AFE04FF030505FFFFFDFFFFFBFCFF00FA03010605
,FC05F9FA00FBFBF803FE01FEFA05FAF90600FC05000304F9FC01F8F9FF01FDFBFE06FF06FCF9F803F90602FCFFFD040206FD05FF0502FC030006FC06FB040104,080202FF02F80101FDF9FAF9FE0702FFF903FDFCFE00F9FF00FA01050501FA01060206FAFD000407FAFD0105FD06060405FE050003FBFC01FF05FB050505FBFF,06F8FA03FF02FE040502FC0203F900000202030201000402FBF9FB02F9FAFAFAFC000502FAFEF70105030606FD01FDF9FE0505F803FAFDFE08FB01FF0400FFFA,03FA02FBFC0506F7FFFD00FBFC06FAFC060202060004FE00FB0004000100FA03FD0601050305FF05FCFCFB000107FBFE0700FEFC00FC000401F8F9FAFD0104FF
,010001FBFB07FF0506FA0200FDFEFDFA0200FE03050600FC00040203F90302FE0400F806050300F901FE06FDFF0005F9FBFFFDF9FAFE050606FC03FF05030401,0406F9FC0202FD09000603FB0107FAFAFE01F8FCF8FBFE05FEFAFE0305FE02FCF9030503FC00FE00FE000300FCFF04F80301FB0606FF000303FEFE04FE01FA06,FF08FAFC07FBFF0204FBF9FA05FB00FBFB0000FF03F9F904F9FAFD0006FE06F8FC020301010506FBFC03FBFCFE01060109FC000602FB01FF0701FEFFFD0405FD,F8F801030103FEF904F903FD01FDF9FEF9FC0305FA000603FBF90504FFFBFFF806FE030002070404FA0304050301050101F8FD00FFFFFEFCFC0401FFF9FEFB00
,FCFB03020305FC02FB02FF00FF05FAF9FAFCFC01030004FC00060101F8F900F9F8FBFD01FC04FAFA0400F904010302FFFC010403F9FFFD030704040500010103,FE08FBFD0604FA07FEFD0800FF07FE01FCFFFC0104FC01FCFAFFFE04FEFD0002FBFDFD00FC0702FF0106FE0004010704FFFDFF0200FD0000030402010307FEFE,FEF8FCFA03FAFB05FEFA00F800F903FBFB01FFFF06F9FBFFFA02FF04FBFFFA01000200FA05FBFE040200FF00FC03FCFE03010201FB02FDFE05FDF90402FA02FB,05050407FEFCFEFB01060604FB030601050403F80106F90205FE02010100FFFA01030200FDFC0003FEFBFE0506FD010601FF020205F8FEFD00FE000601FDFBFA
,FBFC02FDFC01F9FDFF020703050302FDFEFC0503FFFFFAFC0107FD0000FA0104FF04FF07FFFDFEFCFB00010302FD0001050004FCFA00FF06FDFDF70105FA01FE,FB01FDFC03FC01FFFEF9F8FFFC04FDF90400FCFC03000606FEFAFA0305FB02FE0102F9FAFAFA03FFFF02FAFFF907FB0401FE07FDFB05FCFBFDFB0505FFFD0504,FFFB05FD04FA0104FAFB0203FDFEF903FE01010303F9FFFC0201FD03FCFC0502FDFF0201FBFFFF00F8F902FDFC0003000405F9FBFF040101F905FCFFF9FAFA03,0201FDFF010204000402FC02060201FCF90501070600FCFB00050406000203020004FB05FC0002040303F803FDFEFAFA010100FEFF0306F9FB06F9FFFAFA0601
,0001FF0306FA06040703FF06FC03FCFCFCFB0206FE02FCFF02FB05FEFAFA06FB03FA05FC0507FCFCF90100FE0105F903F9FF010305FFFDFEFD00FF0400060304,0502FEF904FBFBFBFEFCFDFFF9FCFDF901040206FB0604FC06010204FA03FEFFF800FE010207FC01FEF8F90205FE0604FEFAFF050306FCFFFC00FE0101FDFC05,FCFBFC040302FC03FA060504FB02FA0302F9FFFCFD0504F902FDFA020505FDFD00FD0203020400FBFB0200FD010205060200FB01FEFBFC03FF0002FF03FA0401,FCFCFDF801FBFF0105FAFEF80503040203FF01010405FDFEF9040102010305FBFAFF080205FCFB0306FEFAFD01FFFA0403FDFB040400FD060301FEFFFDFB05F9
,02FB05FE00FB01080806FD0104F9FD02FF05010102FB01FFFD06F807050103F800F9FE00FF0103FEF9FD0407FEFE060101FAFAF9FE030401FFFE02FD06FE0303,0603FAF900FB0501010100FAFA04FB00FD0501F9FFFEFAF8FBFBFF040403FBFC04FFFEFBFAFDF9FAFE05FF05FCFBFB0303030103F9FA0002FC01FA010603FB04,03FCFC00FE01FCF605FCFF040303FC0405FDFA0AF8060404F904060401FCFE0402FFFD0104050000FBF8010200050305FF07FCFE05FF04F9FA0601FAFFFF0406,FBF90201FD0304FC03FEF9FD03020206FEFCFC00FA050003FEFEFFF9FDF9FDFBFB07FB0305FC02FF05FC07FAFF0206FD06FDFE04FF0603FCFFFE02F9FAFF0001
,04FCF9FDFAFA06FF05FAFEFCFC0005FC01FE000501FD00FC02FFFE0505FCFD0201FE0002FB06050506020207FC0401F90701FC0303FD05010202000400010305,FEFFFBF80001FFFF080002FF02FBF80402FB03FCFDF9FC0206FC010403010003FF0403FF01040505F9FD000AFCFC0200FD02FAFB060206FA07F908FA0004FF05,F90105FB0001FC0404FAFB03FD0000F9FEFA0207FC0302050605FA0404FD03FEFAFE0203FCFD02FF03FE04FE0506F90001FC000605FA010002050401FC02F903,010901FEF9FE01FEFBFC02FAFDFD0200FE04FDFE0502FCFFFA04FCFEFE08000804FEFBFD070307010200FE05FC08FA04FD0102FBFC00FCF907F808FAFBFAFDFA
,040600F904FFFAFAFFFB0606FEFA05070004FFFEFE01F906FBFBFF04FFFEFF0606FAFFFD06F906F905FF0102FD02FB0300FC0406FCFB00F9F803FB05FDFF0205,FC05040105030205010604FFFCFD050002060505FCFBFFFA03FDFDFCF900FCFC020003FBF9020006F803FD02050206FCFDFC03F80101FCFD04000401060002FA,F903FDFDF803FCFBFA02FBFAFD05FEFA02FE0205FB05FEFCFBFE0500FFFEFF03F9FEFAFFFD06FCFCFA030301FBFDFDFB06FCF6FEF90504FBFDFBFD0303060402,04FD030502F8FE080602F905FF0400FBFE03FE0506050105030304F9020704FAF9FA03F9FEFE08FFFC0201FF0105FF010900F9FDF9FFFD03FC00FFF8FC05FFFD
,08FFF80603FBFE020205F9FF0102FBF9040103FB00FB0600FA03FC06FC050500070100FB02FC06FAFA04F9FD0501FB04FC0000FCFEFC010604030200FEFDF9FE,060605F9FBFCFEFFFFFF04FD03FFFD030406FAFC06FB03F9FD02FEFAFD04FF06FE0302FB04FBFFF901FA01FF0104FA04020103F907FAFF03FA000605FE0704FE,0105010401FCFCFC04F80402FDFC01F8FEFB02FC02F8FCFC00FCF9FDFFFC05F902FD0304FEFC00030402030202F7FBFA02FA06FE0401FCFB0606FBFA0405FDF9,FBFEFCFCF904FCFF0101030207050101FCFC0502020301FAFF05FDFE060602FEFE03FFFCFA05FB05FAF9FC09FF02FE07FE04FB050606050302FFFEFC03FE02FA
,01F9FFF805FD010000FB00FCFD03FAFBFBFAFB00FAFF01FA0701FB00000004F906FC04FE0302FBF9F801FAFFF9060104FB0403FD00FEFD05F9FD04FCF90402F9,FBFAFE00FC030200FDFEFBF906FAF901FD0304FFFFF9FD02FC05FD050602FDFB01FCF804FB03FE0100FFF9030402000307FCFDF901000000070505F903FF0402,FDFBFEFD000800FD03FE020008000600FDFB0106FEF902FFFBFCFE0505060006FB02FBFFFD02FF07F9F9FEFFFC04F9FB04FF02020005F903FF05FD06030002FC,06FAFD000201FC030003FB03FBFD03FFFB020204FEF9FC06FAFD0300FEF904FCFFFA03FE02F902F9FBF9FDFFFFF805FD0200FDFF03FC05F90701FCFAF8FFFC07
,FA06F906FE03FBFD01FD0300FF00FC0403F906F903FF02FE02FDFF06FBFDFA04FFFDFB030000F9F802FD060405F9040706FFFEFD00FB01FB0402FBFC06FFFF07,FD09FF040706FCF803FA04040003F907FE060305040602FD02FF0600FC07FFFAF90600FFFBFCFFF906FF0602FEFD010003FFFD0601FD07FCFE0604FC04030301,FDFBFF04FA05FDFFF90103030204FE01FE04FE020006FFFAFDFC0005F9FB0206FFFF01FD02FE01FEFEFE0003FF06040505F901FAFCFA00040000FCFEFF010108,060501FBFCF8FEFD01060003FF0503FC07F90404F9050106050504FCFDFA02010305FC05FEFEF906F9000305050103FE03FCFBF90600FBFE00FE020305040704
,0505FFFAFA04F90200FBFDFC07FB020404FCFC0602FFFFFC08FF07FC00FB05010301FEFF0300F902FF05040504F902FB010002FF04FD06FCFCFBFC0406FDFC05,F705FC01040602FC02FA030305FBFC030605FB0105FC000400FCF9F9050505060405FA0505FFFEFB05F903FDFF05FBFAFAF905000604FD00FDFAF8FDFD000102,FEFA01FE0401FDFD0404FEFA03FB0704040301FDFB00F8FF01FBFF0001FFF9010505FAFAFC0300060005FD0803FA07FC0704070403060102FDFA04FA03FC0500,F90103000500FF03F9FF04FBFB0302FBFC0400010202FF050705050400FFFCF802FDFC0404FE090506FB05010808FA0005F9FF0104FDFCFEFDFAFFFB0602FDFF
,FDFF020700FB04FB0404F9FEF907FEF907F903040001030007060506FEFCFC05F9FE01FFFF0205FA0104FBFD000604FE07FDFCFFF9F90303FD00FB030404FA00,FC00FC0503FAFDFC0301FAF806FAFA05FFFFFEFA01FF05FC02040205FCF80401FDFE02F905030501F90602FF06FAF9FFFCFB06F803000706FAFAFF04FDFF0400,FAFEFC03FE04FEF80601FC0602FAF9FBFDFB04F903FF06FEFF01FFFDFC070005FB00FE00F9FBFF05FAFDFBFBFA01FB03FA010000FAFFFFFE02000408FFFFFBFB,F9F905020601F9F907F800FAFBFA03FE02FEFBFF04FE06F907FF02FE01FEFD050403040000FDFAFB010107FF00FC01F904F9FE060505010006FCFAFF0601FAFB
,F90300FCFCFB01FD00FE0206FAFC06FA0201FE01FBFA04F901FDFF01050100000402FCFEFC0405FEFC030107FCFCFC02FC01FDFFFE07FD01FF010107FFFCFBFA,F8FDFD03FCFD0202FD06030706FB0005F907F9F90103FB02FC05FCFC04010306050000FE00FD060400FB0405FAFE0605FAFEFCF901FF05060404FFF9FA05F905,0200FEFC06FC02FE0405FE000504F9FE030607FFF9FC020000FF0601FB06FD08F9FAFBFFFDFD000204FCFEFF010205FD08FE080002FE00FD07FBFCFE0000FD00,FA02F800FBFB0003FEFAFDFE02FB040204FE0402FBFEFE020601F805FCFBFAFBF9FCFE06FD02FFFF04FD0605FE060606FF0602F80100FFFEFF04FD0501FE0207
,02FBFF00FBFC03F9FF02FBFC03FDFEFF0406FCFD020106FA05FFFF0606FA0005FB07FE0501070100FC0004FF03FEFD06FA03FFFCFF03000003FD02FEFF010506,FB04FBFEFDFEF803FC03FE0307FBFBFF0300F8FB06FDF8FE0600FE00FCFDFAFEFAFB01FFF9FBFAFFFFFD030107030202FE0706010003FBFD040306000207FFFD,030001FFFC020204000203FEFA0604F806FB0106FC01060006FA00FDFAF90405060204FC05FF05FF05030101FDF800FA04FC05FFFD01F9FE01FA0205FB02FFFB,0704020402F706FF0005050500F8FB01FD0404FCFA0304FEFD02FC00FCF90602FF00FBFCFAFE03F9FD06F8F603FDFDFF030500FE040502F9F8FAFE010100FAFD
,FBFCFAF801FCFAF9FE03000000020605FA05FEFB03FDFC00FE07FB05FA04FA00F905FC0201FF05F8FF06FD0008000006050604FF0104F902FD000005FA0201FE,FFFB02FDFCFD00FAFA0602FD00060303040504FA0502000607F9F8F9F8FC06FC01FBF8FEFA050306060003FCF8FAFFFFFDFCFD04FD010105FBFCFCFAF902FAFB,FFF9FEFB03F805FB0304FAFBFBFD01020200FB02030101FAFB05FB0105FDFEF9FE0705FA00FA08FFFEFF0007FE0302FE04FD03F901FE0401F9FDFBFAFAFCFB03,05FFFCFC0103FC01FE0502FFFF02FAFE01050104FF02F705F9FE05FFFD0204FEF902FE01020605FFF906FEFFFE01FFFB06050005020504FE0403FDFF01FD04FF
,FE010602FBFFFF060603FC05FE040401FFFE05040505FAFFFE00FA07FC02FCFFFE030005FE03FEFFFFFB04020104FEFAFF03FB02020505FC07FF010002FE00FE,0601FE01FDF9F902040206FD05F9FFF8FFF906FBFE01FDFC04FF060503FCFA0000000005FB05FF01F9FC0207F9FD04FDFF0501FBFE040206020605F80600FC04,0302F800F80100FE05FA0601FD02FA0403FFF9FB0001F8FB0205FFFC0401FAFC06060302FB0404FBFEFDFDFE010103F8FE0100FDF8000203FF0504FBFD06F9FA,08FD0206FA02FA01FAFB02FEFEFE0206FA04FB02F902FA03FD0001FCFA02FEF9FD07FC01FF010302FB050300040506030300FE02FCFFFDFDFEF906FF06FC0002
,FAFFFCF8FF01FEFF010201F901FB06FFFE07FE08FAFC03FD02FC000505FBFDFE04000401FF0102FDFA0202FD050704FBFFFDFEFCFC0207FAF900FEFD05FF02FF,000606FDFCFD000807F902FFFC0203FEFE0400FF03050101FAFDFFF9FA03FEFFFA0506060100020300FCFFFD0303FFFAFBF9F901FB01030702F90003FFFDFE07,FD0306030305020505FA01FD0101FAFF06FFFD06FD04FBFE05FF05FEFAFE02F8FE0705FB050001050302FD04FFFB04FA06FD01FA0401FB04040504000800F904,07F80204FBF8F9FC0603FA02FCFFFD04020404FD0203FC06FE05FFFFFC06FD01FFFC03F9F9FD04FD04FE01FAFB0003FDFB05FDFFFFFB00F8F9FB0405FA020700
,FC02FAF902FE01FEFA0303000603000506FA03FD00FCFFF9F9FF00FB04FFFDF90605010301FC020301FE05FFFFFFFF040302FAFBFB050500FBFD04FDFC070106,FF04FFFFFBFEFDFA0100070102FBF90106FAFAFA0402FBFDFC0605F8F9FCFFFEFF04FDFF050904FAFFFF0005FD01000704FDFD0105FF0107F903FFFD05FAFB04,03F9FA02FCFD0404FBFF0004F902020103FAFCFF05FE02FD0207FFFCFA040005FB02FD050205FF000108FC00FF05040502FDFE04FDFCFB0402020500F90203F9,FBFBFCF9FDFDF9070705FAFB020002FDFA060602FCF903FDFDFB06FB00FE0407FF0207FB03FE01000202F807FC00FEFA050300FC0500FD06FC01FA0106FAFAFA
,FEFCFDFBFEFEFF06000004020207FB04FFF8F903FE06FBFB0405F8030101FEFF03FD01FDFFFC05FEFBFE00070400FA0506FA0AFDFDFAFFFE0200040401FC00FD,0804FC04FCFEFEF60206FF06FC01FA0301FEF8FE04FA05FA00F804030007FD0303FEFE00050001FCFC04FFFE00FB01FAFFFCFFFE0406FFFD0505FB06FC020301,FAFE00FE0305FEFFFBF9FEFAFFFBFE01FEFC04020001FD0405030606F901F900FDF900FA00FBFAFA04FEFE02030204FD070200FBF9FFF9FAF8FC02FD04000404,01FBFBFC05030000FAFA00FF05040102FFFCFD0102FA00FBFEFEFD0704FE0103FA0405FE010503F902FBFBFE08030300050000FEFBFDF9F901FFF8050300FE00
,FC030502FE0201FBFD01FD0001FE06FBFA070204FAFCF90002FB0506FFFD0706F9FB00FE060700FFFF0404FFFFFF0201FC0705FCFC0004FCFDFD040006FD02FE,070106FF04FE01FF00FBFE0606FDFA010406FA01F90301040601F90701FA03FD00FC05FB0402FFFFFE03FCFF0102FA0501F90906FC03FAFBFCF9030605FEFA03,FD04FC05020A01FF05030503FEF80401030303F903FB03F803010500FCFC010604F8F8FAFD0502FEFAFBFB03FA06FAFFFEFB02FBFAF906FDFEFA01FB05F90002,04FBFEFFFCFC040401070106FCFFFFF80200FBFD0600FB03FF0602FE06FDFA0204FEFB010402FD00F8020003030003FA05FBFD0604F9020404FDFF01FBFC02FB
,04FBFBFF02FDFA020404FC01FCFD020403030600FFFA0505FB030306050102FC0402FE0206060403FD04FC05FB04FA02FD040500070607FBFBFEFC070304FC06,01FD03F806FA060806FBFAFD0604FF01010404FAFF000100FE05FAF903070004FAFDFB07050402FCFFFDFE09020305F9FD06F904FE00FA0001FCFAFE05010201,FC01F903FA06FCFFFD060802010500FAFA0306FFFF0400FCF9FFFBF9FE01FF00FD05FF05FD01FEFE04000005FBFBFD04FD00F9050307FD06FB03F9FF040106FD,FCFA05FE0101F900FBFB04FFFC04FE00FB06FAFCFBF906040706FBF80001FE02FD01FF0303F9F701FE0605F6FD00FBFB01FE0405FB05FA00FE00FCFA030207FE
,FF08FA05F9FB0601FAF9FD04FA040406FF05FCFA0506FB000305FC00FBFEFAFD0502FA06FC0000FC0001F904FEFDFBFFFAFDFCFFFC04FEFE060401FD04FC00F9,FA060102F9FBFAFA0500F905FE06F900FCFDFAFD0400FEFA03FAFEFDFBFD03FDFFFFF9FEFD000404FBFD06FBFA0103FF0501FA05FD05020302040005FEFCFFF9,0300FF050201040206FE0202FEFEF9FE04FCFBFE03F9FE00FB0703FCFBFEFC01F904F901FB00FF0204FBFBFDFC01FA0602FB01FA03FBF805F80000FDFB02F901,040800F9FA01FAFDFF01FBFC00FEFA00FC0404000503000201FBFB0403FCF9FA05FF03FC070302FDF9FD00FE00FCF9040604FE05FC02FAFFFAFC080302000304
,FF07FAFDFDF6FFF804FD05FEFC040604FA010706FB06FD04050601FFFC0104F90300FEFBFD050203FBFD030202FBFEFB03F904FE040203FE050206FAF8FE04FD,FC01FDFF010307FE01FF00FA0501FCFC020506FC0505FA0104FCFDFA0102FFFAF90701FE05FE070300FDFDFEFFFCFFFB0303060502070004FC050306FCFC05FD,FDF9FCFA06FCF80606FDFD04020002FDFB0300FEFDFF00050603FBFE03FBFF01FC03F90107F9FEFD0002FE0402FCF9FAFDFF0300FD01FA01FE04FEFA00FE0401,02FFFB020404FE0700F90201070207FEFBFAFEFF03FCFEF8080402FD020403F906FD02FEF90600FA00FA04FCFD0603FC04FF000502FE0704FD0304FAFBFFFDFB
,08FF00070203FC0301FB05FBFB02FAFDFCFEFF02000006FD03FFF9FB03FC0007F90405FB03FB02FFF9FEFB01FB05FEFC00FD04FC0401FFFC0603FDFF00040005,FB02FF0002FC0502FB05FC05030701F8F9020002030306FBFF01F906F808FF04FBFBFE02F902FF06FAF801FB07FDFD02FE010203FC07FBFC05030301FCFA0401,06FCFEF8FA09FF06020103FAF90103FAFFF9FFFCF9FF0300FCF8FE0403FFFFFAFF04FCFF04FA0700040703FD000304010003020101F80503FC050400FEFDFE01,000404050203FFF703FD04FCFB02F9FEFAFFFCFB0602FC06FDF9FB000604F90700F9FEF80105FC03FD010101FCFE01FAFF000305FAFAFC00FC0102FB010602FA
,FCFE04030107F902FF060100FD05FD0504FD030002FBFE02FE0604FBFEFB010000FCF905FDFA0101060202010604FE03FF0501060205F900FF03FF020405FD04,FA08FDFAFDFD050307FC00FFFEFBFA00040402FFFA02FC04FA05FF02FF03FEFE00FB04FDFD00FE06FAFC02FE00FBF904FB02FD00FB07020106F9000005FD0102,03FEF8F9F9000200FAFA05FE05FBFF05FAFCF906F803FA00FF02FF0002FFFFFA0600FDFAFE030A050501F9FCFE05F90002FBFE02040604FF0603FBFD010306FA,FAFDFF0202FFF9FD03F8FFFE00FDF9FE0106FFF9000202FFFBFD05F904FF03000207FAFC02FD02FBFD03030004FEFC03FB050001030501F9FDFE01FF05F9FBFF
,01FB03010602FFFE01FC0107F906FF03010600FAFF0301FE0502FE03FE02FEFB00FAFB0205FCFE00FC040203FE0500060307F8FD060606FF0603F90101FEFB04,FF04F8F900FC0402FD0206010200FCFDFD05FF0300FDFC060703F9FF040702F8FD03020703000402FA0604FB07040602F703FD0404FFFDFCFAFC00F80401FE06,F701FCFC00FC000400FDFDFEFBF901FAFB0305FC0203FDF8FDFBFD05F905F9FBFF040204FF00FEFB02070603FA08F70600FDFC0503FBFF06FCFEFBF9FAFEFBFA,01FF000207FD07F908FC00FCF9020503FF0600F9FC0503FAFA0000FDFCFF07FB07FCF8FFFC0607FCFA04F9030102FEFAF90301FBFD04FA06FAF9FD0500FFF904
,FFFCF905F9FF06FF0605FEFE07FFFD0404030406FE03FFFF02FD04F9FB00FAFB0304010104FA05FEF90208030407000407FD00FC04FEFAFFF9F9FEFAFBF9FF07,FF010404020404FF05FC01F90501FDFF000001FB01F9FEF9FE04F9FEFEFD01FBFFFF00FEFF0100010002F901FD00FEFBFDFFFD06F9FE03FFFF05FF030205F903,FDF9FD05F9FB0005FCFBFDFC01FDF9FFFB00FA04F9FA02FFFB01FD0204FF04FBFFFCF9FA030200FCF80004FF060400FFF9F8FAFA040003FAF9F80406FC0506FD,03FE0400FBFD0106FFFF01FB0804FDFBFDF7FC0305FC00FD0704FEFCFB03FDFC03FBFF0506FDF9F804010601FC07FEFBFEF8010302F9FB06FDFCFA05FDFB03FC
,06F906FC06FFFF0607060504FBFB01FB0101FC04F9FFF9050504FFFFFEFCF9FEF9FDFBFAFA0306F9F80400FB05FAFFFD010405060205FF060401FCFA01FB05FD,0402030607FFFCFE06FB02FE03FBF9FA04FE04FFFD0600F9FD02F806FB070402FAFF010401F9060406010204060602FEF9FD05FCFFFDFE010306000604FCFA04,0405FDF9FE00FB01FFFEF9FB010003F8FC02FF02FD0508040603FD040302FD05FAF804FC03FAFBFA05FF05FF04F9FEFA0300FCF905FF06FF04FD020002FB06F8,FE060000FBFDFE0202FA00FCFF0205FCFAFAF9010303FAFF00FC040302FAFBFBFF020401040301FF0100FAFFFC0200FBFA05FD01060702FFFE0103F904FF04FD
,0205FF06FF01FA070102020405FD06FB05FCFE0003FEFEFFF90300FA04FC03040602FF02FB04FFFA03FAFBFF0405FFFF01FB0503FEFA04FC0202FDFC00FDF802,00FFFB05FB0501FCF90104FE06FEFD00FFFDF807FDFBFFFC07FA03040003F903F901FDFB0506FEFBFB04FBFFFE04FB00FBFA06FA01F9FA0506F9FBFDFA01F9FF,FC08F8FEFFFFFD03FCFE010306FB0002FEFDFEFA0006FB030301F8FEFDFD0206FC01F80003FF040605FCFC040301FE0507FCFDFC0706FEFB0204FFFD05FD04FB,02FE0300FB01F901FA0400FE040600FD04FD05FE0702FB040502030601FE05FEFB06FB0306FB03FE02050608F9FD05FFFA010306F80001FEFB0406FBFA03FDFA
,030403FCFE0704FD050504FA00F902000104FB0404FE03010404F9040007FF01FF04FD00FBFA010502FA02FC0303FD0601FB01020103FE0307F907FF02010505,0204F9FA07FDFEFF020000FDF8FAFBFC02030404FD00FBFAFAF9FBFEFE0600FBFAF8FE0407000502FCFCFE07FD0602FF03FBFC010109FCFBFF03FAFD04FE0003,FFFEFDFCFAF704010400FF000706F8FCFA0103FC050001FBFA000303FDFA00020102FFFFFAFCFD05FC01FD07FEFDFBFD0103FFF900FEFEFCFC0402F9FC01FAFF,FA060203020106FA050005FFFF06FA03FE04FD07FCFA00FDF9FAF90100FEFC03FCFA0201FEFDFF06FA02FE09FC00FBFCF706FEFBFEFF06020701FEFD0404FAFA
,FFFC06FBFBF90504FA06FE0204F903FF0306FEFBFE03FEFCFAFCF804FE04FA050600FE00FEFB01FC03FD0004FB03FF0201040001FE030204FC0601F8FBFA00FC,FCFA04FAFA05010401F905FD01F90402FEFD010507FE0202FA01F804060802FE01FAFFFBFFFC03F905040501040600F8F7050303F803FE040004FEF902FD0604,F70403FDFF0304FA05040304F902FDFC0002FC00FA04FEF9FCFFFBFB05FE000505FEFFFEFBFBF700FA05FC040502FDFB040501FAFC060200FFFBFBFC0605FCFA,FB030202FBF6FE07FAFBFDFD0600FA01FDFB000805FD00FBFB02F908FB00FBFF02040005F9F909FBF800FC0009FEFE0505FC04FCF902FB06FC08050203010300
,FDFEFCFBFD03FAFE02F80401FF050106FCFD02000500FCFFFCFFFFF8FE03FE00020604FFFF0002FB06FFFB07FAFD0600F8FEFB05F9FC03FCFDFE06F9070500FD,00F9FC0006FE0407FEFA0401FAFFFC05FBFA060505070206FEFE03030107FBFCFDFA06FDFAFD04FDFB0406FF02FEFFFCF9F9FFFBFFFC050506F903F800FE0106,FC0000FBF9010103FA050406FBF902FBFC04F90303FDFEFD02FAFDF8F906030305FDFD04FAFCFFFFF9FFFE020103040002FAFA06FBFEFEFCFA04F905F9FDF9FD,000303FF0101FD03F9FD02FCFAFE06FFFE0001030403FAFDFDF9FE02FDFFFBFCFA0101F9040303FF00FF05FE030304FD0505FF06F903FAFD000304FCFAFCFAFF
,06FB0506070800FAFC0501FAFBFB04060105FF0503FDFF000501F804F9FFF802FBFBFBF80001FBFEFFFAFE00FE06F90405FC01FEFCFC01060103FA0302FCF9FA,FB0104FA0404FC0306F9FCFFFAFD040503000503F8FFFDFBFC02FDFE04FCFEFBFB01FE040501FD0000FDFB0201FBFB0500FE04FA0002F907FA000102FD010406,FA0005FD0502F9F7FD05FB02FF06FE03F8FC05FC0305FD02F905FDFD03FC0507F9060502010306FAFF04030506010400FEFE02FBFEFEFD0402FAFEFEFBFDF901,FFFDFB06FB03FBFD01FFFA04FA03FE03FF0405FB00FEFC030303FF02FA06FAFA06FE05FBFB0204000600FBFFFA00FF03FAFFFFFBFD010102F9FC06FC04030604
,FCFCFE0306FE03040503F90005FF0400FE0701FF0705FF040503FD060405FCFCFBFDFCF90703FDFD05FC01FB04030502FDF9FEFAF90006FA040306FF0407FBFE,07FB00FFFF03FC05FCFE08F906FEFEFD01FE02FEFB040105FD03FB05FEFB03FFFC04FC060608FA02050003FA00FB000305FD0204F9FCFDFEFFFDFE030003FAFC,050501FFF9050003FDFE030500050003FC030106FBF80305020100FCFB07FA06FBF907FF060304FFFBF90401FA00FDFCFBFF000604F9FFFF05FE0506FB05FDFF,FF04FEFFFEFBFD02020409FEFF010105FFFDF90200F90401FB0605020701F9FAF9020500FA08FDFBFB0601FC0403010001050602FAFBF9FEFF01030103FD01FF
,0107F80302F80503FE03000302FD0304FC01FCFBFAFC01FF08FCFCFB00FF04FE0503FDFE0605FC060407070603020102FCFC0205FB0202FCF80102FCFB04FE00,FBFC02050101FE0502FF0004FA01030302F90503F90404FFFBFEFBFFFA03050402020502FEFA0804FD04FEFD0100FCF9FDFAF6FBFAFC0703F901FF020003FC05,FF07FE01F9FBFE0006F80401FBFF00FFF90005020305FE06FA04FF04FD02040300FC03FA05FE00FC05F80304FF0505FA000506050302010203FDFF04FF050104,FF01FB00FDFCF9F9FF03FCFDFE0206F9F905020402FAF900040604FFFF01FE01FD0303FCFEFBFFF900FE0702050507FFFDF908FE0003FCFBFCFBFEFEFDFF0504
,0503050606FD03F9FE0200FA0507FDFE0602050201FD03FAFE06FCF9FCF9050405FCFC0105FC0405FF06FCF9FC0104FBFB0502FEFC00FAFA0804040106FFF905,00F9FA06FDFCFDFF01F901FD0102FFFF0700FF05FD0005F9FF0301F906060404FAFA04FD04FBF8F9F8FCFBFBFC07FEFAFCFB0101FA00FB04FB020006FC0206FF,05FA0604FFF9FD05050208F9FB03FD03F9FDFE00FB05FEFAFCFBFFFE01FB0006FAFDFC06020300F9FCFF01FB04070005F5FE0205FDFF02FC05F9050400030002,FD06F9000602010305FD070503FE06F906FD03FF00040505FDF9050503010103FAFE050002FDFF040202FC02FDFC04FD060201FA050301FCFDFDFF0004FA0407
,FDF9FC02FAFAFF000003FF0102000205F9FCFAFC00FAF905010702FC03FEFA06F908FF04070603FF01030508FFFA05FBFEFB02050001FAFE07FDF9FE00010401,FE06040203FC00FF07FD05060403FB050405F901F8FB00F9FBFB0605000601FF0003FCFDFF0BFC0204FA04FDFFFD02FF03FF02FD0101FCFBF90000FFFF070106,FA0501FE01FF0204F90502FFFCFC0204F900020302FE04FF01F9030504FDFEF905FFF902FE01FA0206FA06020503F90603FC0605F906FAF80202010105F9FEFF,FA06FA06FCFEFE030002FBFA06FD0206050204030405FB0101FBF901FFFDFDFBFFFDFEFC02FAFB030100FBFDFE00FC0500F9FEF804000305FDFFF90000FCFB02
,04FFFEFFFBFEFDF9FDFB00FEFE0106F9FA03F901FE03F9FE05F9FAFD060506FF02FDFC04FE04FFFFFFF9FCFC0103FBFEF8FEFDFD0102010502FAFD04F905FFFC,FDF8040306F903FA04FE020206FFFDFC01FAFCFB03F90402070204FD0601FD0104FAFBFD0403F702FFFEFC01F9FAF9040105FBFAFAFBFF000203FC020601FB07,FF0102F901FBFE0806FE0203020406F9FEFDFAFDFCF8040406FDFFFEFB01FEF8040102FAF9FF040104FE05FCFBFD06FFFDFA00000302FAF9F901FB06FF02F904,01FF020500FE04FB0403FFFDFB0204FC02FD01FD0602FC02FCFF0600F9060200F9FCFFF9FC03FC01FF05F9000601FF070004FBFBFD0406F902FB06020001FCFF
,00F9F9FCF904F9FCFB060300F800FAFEFDFFFA040405FCFF0004070102FCF9FDFD06F904FCFDFB020704000302F7040006030800FAF9FFF9FAF900FEFB00FAFD,FC010005FDFAFAFCFB03FAFEFD0601F9FEFFFA0505FD06FDFD0604FFFE0204FD06060505FCFDFC020503FFFAFAFEFFFFF7FEFAFC0501F900FBFD05060506FA03,FE08FB010500FA05FC0400FDFFFF05FA0402050205FBFA05FFFDF902F905FF06FCFAFD02FB03FB04FC04FDFCF8FF040207040200FE03FFFDFFFCF8FC01060704,FFF80407F9F7FDF90106FF0104020502FCFE080400000001FC00FF01FC01FFFA00FAFE0302FCF8F8050408FBFD05FAF904FC070005FD01F9FBFD02040206FD06
,05FE0203FD0507F9FB020301FF05FF0603000100FDFAFFFDFAFDFE010301040302070203FE02FAFDFC050305F8060602010504FF01FE0102FE06FBFB05FF0506,05FAFC02FB04FDF6FCFF06FC0203FC00FCF904FC04FEFD04FCFCFC0406F904FB00020404FB07FCF9F902FFFB0002FFFFFA0605030104FF010101FBFC06FBFE02,00FC010403FE040000FD0004FEF9F9F8FEFD02FCFEFA0500FEF905020000FA0700F803F906FD040303FEFEFF0206FEFD01F9F5FC00FD07FA02FB04F9FF0201FB,FCFDFF05FA09010105030601040200FCFCFB03F9FBFF0301FA010604FFFDFAF805000001FAFEF9FAFE020606FA050303FF02FCFD0304FC0006FB03FFFCFB01FD
,FF000100020203FDF90306060005FDFDF9F9FAFB0201FBFF0501FD0306FDF9FBFDFD020504FA04FEFA00FF0200020606FC05020603F905FAFA040001FD03FE02,0202FFFD0004FA0704FCFD0605FC02030401FAFCF70005FE04FAF8FC05FE010402FC02FB02FFFC05FC05FEFCFEF9FE02FFFC01FBFE000301FD06FE04FCF9FE02,01FBFFFBFF06FE060003FDFCFE0404F9FD01FBF804FDFA02F9F906030408FF0403FF0102FBFDFE02F9060003FF0604F904FBFE0206FC00050202010200000300,FFFFFFFBF9F900FE06F9FBFD05FF040206FF06FE0404FFF9FEFF04FA060306FFFBFC0204FDFDFDFE06FFFDFE05FB020204FDFAFEFAFEF8FF05FE04FF0004FE04
,04FBFBFA0705F9000500FFFA010304FF0203FFF9FA05FE01020200FEFFFD030507F90002F906FBFE02F9F903FEFDFE01F801FBFDFD04F902FE060104FB03FA03,F8FBF9F90400FCFAFD010506010205FAFAFDFF07FA00FEFC0100FE04FD05FF06FCF906070702FAFF0506F906FB000606FFFB00FC0607FF00FBFEFB00FA02FD01,04FAFE020005F800FBFC05FE0203FBFD07FF01FAF9020106FAF9F806FAFC020404FFFF04FAFBFBFF000005FB00F9FBFAFEFB0700FE00FFFA0000FA03FF0406FC,05FCFD0401FBFE03FD06FF030005FAFA02FC060202FE04F9020700FCFAFAFFF800FCFDFCFBFCFF030101FFFCFF0903FCFF05F80301FD020002030106FCFAF707
,00FCFB03FAFAF80007F9FB03FDFD04FD0300030203FF020208FD0102F9050107FDFD0504FE04FA0406000403F9000405FDFF03FE05FB03FF00FE03FB00FA02FE,0301FC03F9060001FA04020602FA07FC03FCFE07FDFEFC05FE0300F8FDFF0301FAFA0504F904FC030305FEFCFC04FD00F7FAF7FF03FEF9040405F9FF02FB05FF,0602FF01FD03F7F60401FA05FAFAFBF701FCFFFDF7FFFE0500FC02FA0402FAFD0302FEFDFA04F8FE02FF02FAF9FDFDFF0104FE02F903060307F903F9070505FC,FD03FBFFF8FA00F9FE040504FEFBFA000603F9FE04FC0303060003000101030004FDFA00FA02F8F8FC05FFF90002FA0606FA04FB02FB010101FAFE010400FC06
,04FCFE0507F9FD06FEFB0203FCFAFF0306FAFDFAFFF9FBFCFC0103FEFB0206FCFBFBFEFCF903FF00F905FA0404F90504FFFD0800FC03FFFDFFFEFEFD030601FB,01FE06FF06FF0003F9FE05FB04F8FC02FB02FAFCFE04FA000606FB02F900FC0306FB08FCF9FCFEFE000102FCFCFCFCF9FEFCFAFEFA010305FE0400FBFCFEFE00,0003FEFF0400000300F801FAF8060104FCFE0202FB02F905FAFDFD05FBFFF8F9FCFC01FBFF050300F9FFF906FF0201FCFEFEF50200FD020301FE05FEFF00FF03,0106F903020201FC08F9FA00FD070306020606F8F903F80506FD0606F906FFFA04FC0201F903F8FB0000FA00FEFC0105FCF7FD040200FFFB07FFFA03F90406F9
,04FBFEFB0100FBFAFB04F8FB04FF00020303FBF9040400FC01FDFC0004FEFC06FAFAF9FDFA04F9F903FF0008040506F901FE0AFCFBFEFFFC0201FDFD03FEFBFF,F905FA0306FF05FD0501FD040303F906FFF804FAFDFB0501FF030403FDFF05000003FCFBFA01FD02060605FC0400FB0505FBFEF80705020603F903FAFBFFFAF9,FDFFFB00FCFBFF0402FC0201F9040702FBFCF900F8FBFCF9FB05FC06FAFC01000006FA0304FB020504050301FF0502FC030502FDFAFAFAF903FB02FD09FCF9FE,03FE0500FAFAFD03FDFBFAFE05FFFDF9FE03030005FEFC000200FAF803FB06FDFA070703FEFE0003F9FBF904FFFBFD04FEFCFAFA03FE040500FD0002FE040202
,FB00040001080300FD04FF01F8FEFAFDFFFB01FBFBFDFDF906FFFD01040005FC03020504F804F902F9050202FF0103FFF7FCFFFFFB03FE06FD07010100FFFA02,0607FEFB03FD01FB030104F904FA04FC02FB00000502FEF90403FB01FBFEFBF8FDFFFA03010106FAFAFC04060703FEFC02FFFEFAFE0304FCF9010102FEF9FEFA,FDFB02FBFFF8FE02FDFCFB02FA0403FD01FE03F9F901FE0603FB05FCFCF9FE020103F803030100FAFD02FFFCFC020202FBFB030100F9FAFFFF05FAFF00FB06FB,F80406FCF9FDFD030506F9030403FCFBFB02FB07030103FCFB060501000201FB0604080102FE050100FC030403010706FBFDFD030208FA0007FA0601F9FE0108
,FCFC03FC010202FF03FFFF0701F8FA05050005FE0201FDFB04FA01FA04F9FC01FEFAFEFF0603030605F902F8F902FB0003FB080101FF06FC00F9FCFFFBFC0106,070104FA060004F704FAF905FFFCFA03030203FDF8FAFA02000202F8FEFE01FB02000206FEFF0703030002FB04FEFA01F904F9FB0604FCFEFBFCFF02FA030201,FDFBFCFBFA01FC0702FAFA040806020007FBFFFCFAFE0204FCFD04F9FDFC05FD0407FFF906050600FFFD02020405FFFC0206F9FFF9FB04FCFB030201070505FB,01FCFD02FEFDFD0202FFFA050606FDFF00FB03FEF8FD01FAFAF903FB05FB0005FBFE050002FCF80500FC050103FD000003FD01FF06F7FD010603FF040100FCFA
,05FAFE00FC02010200F903FF0106FBF8FCFC03FF02FEF9FDFCFC0600FD020102FFFA0504FDF900FAFD05FEFC04FDFD02FF0103F904FF000503010503FE02F9FA,FE06040003FC02FEFFFF04F802F80402FD01FBFAF9040204010000FFFC01040103FD0501FD00FC03FB02FA0605FE00F9FAF9010604FD00FAFD03FB0403F9FAFB,0102F9000503060702FDF9FFFAFDFDFFFFFDFEFE0001FCFD01FC040506FDFB01FBFBF8F9FA0401020007FC010504FBFC00080002FC03F80406FC03FFFDFEFFFD,FD00FE03FFFD02F6FD0106FFFC03050202FFFDFF0005FC05FB05010400FE01000206FB030301F80301FB07000303FD030404FE00FAFFFCF9FEFF0006FD070001
,FFFE01FEFEFC0603030100FEFB0501FC06F9010303010405F90304FBFE01020506FA0302FF0103F90101FB02FB0606FE06F906FA0502FD030505010402020606,FEFDF9F8FE010506FDF8FAF904FA0401FD050600FB03FF05FA02FAFA0506FC03FB0600FF040600F902FA03020107FFFDFFFA0503F9FAFA0404FA00F8F903F9FA,020501FD01020003FB050200FE0602060703FCFEFF0403FCFEFC04FFFF03F9FBFE07FAFA04FFFB0000FF02FE0007050100FD0805FE02FDF905FFFAFB01FC0005,06050205FC0201F9FA0605010002FE040405030305FAFAFC05FBFAFBFCFC020006FC0004FDFD0504F90501FCFB0300FBFAF903050407FDFCFD02F9FE00050007
,0107FCFEFBFC06F7FBFAFEFFF9FDFD0702010505F9F90303FE02FCF900FAFFF800FAFEFCFC0305FFFA0206030301FDF902FDF8FDFD0601FAFE03F903FEFAFDFE,02FEF90106FCFFFDFCFE01FB02FB03F903FAFDFEFF050303FF0606FBFBF9FAFAFE040505FBFCFE0000030209FE02000503FB01FB01FEFAFDFDFEF90205FDFF06,FE06FC0200020100FEFBF7FCF9000204FA01FDFCFFFFFBF9FFFFF9FD0100FAFCF801FBFEFC0203FA00FF000006FC04F90204FDFB04F7FA0005FFFD05FDF90600,00FC05F9FEFB05050305FFFDFCF9010002F9FDFC06FD0206FA07FAFE02020301FFFE00FC020308FA0206FE05040605F8FBFEFE0603FBFDFAF9FFFB05FD07F9F9;