; Layer 5: dense weights (Q1.6 format)
; Original shape: (1600, 128)
; Total elements: 204800
; Quantization: 6 fractional bits
; Range: [-2.0, 1.984375]
; Memory organization: 1600 addresses × 1024 bits (packed)
; Each address contains all 128 node weights for one input
;
memory_initialization_radix=16; Hexadecimal format
memory_initialization_vector=FD01000002FC01FD020100FCFE01FE02FC03FE00FE00FDFEFCFD0203FDFD000100FFFE02010203FD0302030304FD00FD05FEFEFD03FE000301FDFD030000FAFD00010101FDFC03FCFF02010200FEFFFFFC02FD02FF02FE03FB0402FFFBFE02FD03FC01020003FDFDFEFFFD03FDFE06FEFDFD0001FE02FE0104FB03FE01FCFEFD,02FD02FDFD0002FDFCFEFE0103FFFEFFFFFFFF02FF030203FFFF00FFFDFEFDFD0201FDFD02FDFF03040101FDFE0304FEFDFE030003FEFFFD03FEFFFDFC03FFFC00FEFF01FF00FE00FE030300FD01FFFDFDFEFF000104FFFC0403020003020201FFFE03030100FE01FE03FD00000304FF020303FD000201FD010001FF04FDFFFE,FEFDFDFD0303000102020000FC01030101FCFDFF00FFFEFDFFFDFF03FF00FDFFFC0002FDFE000003FAFD0400020303010501FE020000FD01FC00010004FDFE030101FF00FDFC020203020104FE0101FFFEFE01000402FE010001020000FD02020101FE02FFFD0302FEFE0302FCFFFD00FCFEFEFF030000030200FE03FD0204FC,FEFDFCFC010301000303FF03FFFE030103FD01FD020003FEFF00FFFD02FF0000FC03FB03FEFEFC03FC01FE00FF0103FD00FDFDFF00030000FFFE0200FC02020101FF0302FFFF02FEFCFE04010102FDFF03FF01FFFE02FC01FE0004FEFE010302FF00FDFE03FC02030301FD02FD03030001FE02FF01FD02FD00FF01FFFDFF0100
,0301FE0202FF03FF03FDFEFCFC00FFFDFEFC0401FFFF03FDFF0203FDFD00FD00030102FD00000100FFFE0000FD01FD01FDFF03FF040000FFFE0202020102FE01000103FEFFFDFE00FE010100FC02FFFD0102FD02030003FDFEFE0002FF00000100FDFD0300FCFEFE0003FFFE00FD02FF02030203FC00FF0302FDFF0201FF03FC,03FEFC0103FEFF020203FDFDFDFE00FD0202FDFDFD00FE00030201FDFFFEFE0302FDFD02FC020002FDFEFDFF01FDFFFDFF00040003FF0001FE0304000101030202FD020100FD0103FC01FEFD02FF000103FEFE02FC040101FAFC03010000FF0103FF02FF00FFFEFF000201FE030101FDFD0202FDFCFD04FD0102FC010002FEFF,0303FD000100FCFF020202FD01FF0302FF00FF0401030102FFFF00FCFDFF00FE04FDFF0200FDFEFDFFFE00FF01FFFCFD02FFFFFD01FCFDFE020100FFFF040003FD00040003FD020202FCFDFF000300FC01FF02FC000002FBFF02FFFE0202FF0203FE02FCFD01FEFFFEFD000000FDFD01FE00FFFDFDFE01FD02040201FEFE01FF,FEFEFDFCFEFDFFFF0303FEFCFD000000FEFDFC0203FEFE0001FC00FFFE00FC0201FEFF0303FDFDFE02FFFC03FDFEFF000403020303FF02FCFFFEFC02FEFFFDFC0300FFFD03FE01FEFD0301010001FF020002FD01FDFC01FE0201FD02FE03020102FC000000FC03FCFF00FEFDFFFF010302020201FCFEFE02FEFEFE0201FF0201
,01FE00030101FEFF0201FEFF0300FCFC03FF02FFFFFDFD00FFFD01000104FF02020100FFFFFEFCFE0401FFFF020001040202FD0000FDFFFF02FFFB01FDFF03FD0201030001FEFDFDFCFFFF020303FD0200000101FE020103050101010002FDFE0000FD02FE01FD01FD01FD03FE010200FE0002FCFFFD03FE030100FE050302FF,FF01FE01FC030100FEFF030001FFFF0102FFFE01FD00FEFFFE02FFFDFD0100FFFE020001FE0302FF00FF01FE01FD0002FF00FF00FFFEFC01FCFC0001FEFE030200FD01040003FF030100FDFD0203FFFFFEFFFEFDFF000200FFFE02FE020304020300FEFCFD02FDFEFF00020002FE010200FEFE04FF030103000201FFFEFD0101,0202010102FCFF010103FCFF03FF02FF01FC010302FDFE0302FD03FF0302FDFFFD02FF0002FF0000FF00030300FD02FD0101FFFDFD03FFFEFDFE01FFFC0302FF0001FC000200FE0103FD0603FD03FDFEFD010200FF01FEFD0003FD03FEFEFE01FEFE02FEFE02FFFE01000104FD0300FCFE0101FEFE02FD0102FEFEFE02000100,03FE00FCFDFD01FCFF0401030100FDFF0302FFFE0303FC0101FF0201010201FCFF01FD02FD00FEFCFD02010303FE000002FEFDFD00FE00FE01FF01FC0003000303FE04FD0104FDFEFC0102FF0203FC0303FDFFFC02FF0102FD0100FD0000FDFE01FFFE010301FD03000203FD03FE020302030303FE010201FE0201040001FEFC
,FFFFFFFF01FD02FDFEFC0103FDFF00FD010302FDFDFCFD000103FFFE0403FEFEFEFFFE01010100020103FD03FDFEFD00FCFDFEFEFC03FF01FE0100FC00FF0302010004020001FEFF00FCFCFEFCFDFD00FFFFFC030300FFFDFDFE030300020003FF0201FEFD00FEFEFDFDFE0203FDFEFFFD00FE03FF02030104FEFD0100FE02FD,03FE010201FF00FEFF00020102FFFC020000FE020201FC0200FEFF03FE09010002FDFFFFFDFD00FE00030101FC000300000102FA0201FF000100FDFCFF01FF03FCFEFF00FFFFFE010001FE00FD03FE02FC0303FCFEFEFEFE00FD00FDFEFDFE00FFFFFD01FF000201FEFDFF04FF00FF01FEFD010201FD01FFFEFB0102FDFD02FD,FE00FFFFFF0301FEFD000202020003FD0202FD01FC00FEFEFFFFFD02FC00FE01FF03FFFCFD00FD0201FE0103FFFDFF0004FEFCFFFFFDFEFD000200FFFC01FCFFFD02FE02030000FF0202FF0101FD01FCFC0400030302FEFEFBFE0200FEFD0204FF0102FD0100FCFEFDFF0002FFFDFEFE03FC03FDFFFEFFFE020300FE01030402,FF030103FF00040202FEFFFF02FC00FE02FC0201FDFCFF02FF03FCFDFD0700FC00FDFF000302FD0303FD00000301FF03FB0001FE00FCFFFE03FF01FF0102010201FEFE00FE03FD02FEFDFE040000FD01FF00FE00FD02FFFEFF04FDFDFFFEFF00FE0203FEFE02FF000101FD010102FE01FC010303FDFFFF030101FE030401FCFD
,03FE01FFFF01FF00FF01FCFF03FF03020103FCFFFD02FFFEFE01FF020102FDFF00FF0100FE02FFFE01FEFD03FE000102FFFFFEFC03FD01FFFE00FEFEFDFF01FEFFFEFDFE0107FD01FF0201FCFC01030002FD0003FC01FE00FB04FF000103040101FC00FD0103FC03FC01FD00020202FD03FD020301FF0300FD0201FF04FD01FC,FCFDFE00FE0100FD01FE0002FDFEFFFE0203FE0100FC03FD01FDFC0001FF0101FDFEFBFDFF0200FD0001FE01FE0200010002FEFD01FD02FF0302FF02FC020301FE03010301FFFE03FC0202FFFF00FE02FD0102010201FEFEFFFC010200FF03FFFFFCFEFCFD0103FCFDFF0100FDFE010300010103FD0304FEFEFE04FEFD0103FF,0301FF02FCFFFEFFFD03FD01010301FFFDFD0101FEFE0200030203FF0002020002FFFC010102FD0003010302FEFFFEFFFEFDFFFE01FE02FDFDFE0101020000FFFDFE01FDFFFCFDFDFFFDFC0000FEFDFE010203FD02FEFFFF01FE0202FF010100FDFFFDFEFE0102FFFD00FE000300FEFEFDFDFEFFFF000102FC030000FF000202,FDFE0301FD0002FCFDFD0204010101FF000303FFFCFDFEFFFDFDFFFEFCFE0101FC03FE01FFFCFFFF07FDFD0100FDFD02FD02FDFE01FDFC030203FDFFFF010200010303040000030101020400FCFDFF02FCFF02FF010000FF0201FDFDFEFE00FEFFFDFFFCFEFE0102FFFFFD0102FD01FD030101FDFF03FF00FFFDFDFEFD00FEFE
,03000200FFFF00FDFD010100FEFDFE0202FD010400FE05040000FCFCFEFE010000FE02FC00000202FF03FF02FF00FEFD0303FD020200FDFD0203FD00FE02FF0101FCFEFE00FEFD00FEFF0202FE010001FD01FFFD0403FFFF0203FFFF01020401FC03FF02FF02FEFFFE02FEFE000100FF00FE0202FE02FFFF0303030200000201,020001FFFDFF00FEFE030103FFFF01FD00FF0302FF00FC0003FD0002FE03000302FFFE03FDFD02FFFE0201FEFEFE02FD01FF03FF010003010102010103FD00FC010303040103FDFCFDFD000402FFFD02FF00040201FF02FE00FF0001030000FFFDFFFEFB02FD02010002FF02FFFD03FD00FE020102000203FD03000103FD01FD,0303FE01FEFF02020303FDFDFFFDFCFD010302FF000302020204FD01FC0203FF020202020201FE02FC0303FC0103FFFDFD010003FDFD00FFFEFFFD0202FDFD0102FE020202FFFEFE000300020003FE00FEFEFFFD00FF01FDFEFD00000001FFFE03FEFDFDFFFE01FDFFFE00FDFE00FCFE04FE0301FE000100FC00FEFE030302FD,02FC03FD010200FEFEFE01FEFCFD00FF00FDFDFEFFFFFFFCFE01020203030303FF03030003FFFC000603FCFE020001FF08FEFD0302000201FFFD02000000FF0103FFFE01FFFBFFFF02020300FE020100FF0301FD01FF03FDFE00FCFE010204FFFE0303FEFD03FDFFFE030202020100FE03FF0102FD0100FFFD0001FC01FF0000
,02030002FDFD04FE0003FD03FE02FF03FDFFFC03010202FFFF0304FD020203030102030202020103FF0002FE0203FF01020001010301FE000202FC00030203FFFF00FD01FFFFFDFE0001FF00FCFE0203FE0302FD04FE02FD01FCFF03010301010002FC02FE03030100FC01FC020001FE02020303FDFC03FDFDFEFC030101FFFE,020200FDFFFFFB00FEFF0303FE02FEFEFD00000002FD020103020302FEFE010302FFFC0100FF00FFFEFEFD030204FE01FAFE0301FDFE010102FE0300FDFF030000000302FEFCFF01FD0202FD00FFFF00FE030001000103FD02FD0400FD0301FDFF00FFFD0201FE0102020101FFFF00FEFFFD030003FF00FCFC03FD03FDFD0003,0303FDFC000301FF0100FF00030103FF0003FF0302020200FF04FF0003FEFE020002FFFEFD00FCFC040201FF01FE040003FE00FD0002FCFF0002FFFE02FFFD0101FE030000FD03FF03FCFF0100FEFFFDFD00000200020000FE0300FDFE0300FD0202000103FF0202010300FD01FD010303FE0401010000030400FE00FD03FFFD,FFFDFE02FDFFFD000402FDFE0100000003FF00FD0301FF00FEFD03FC0102FF02FF03FFFE00FFFDFEFB01FF00FFFE0302FD0301FC03010100FE000000FEFD0003FF03FF030500FDFE02FFFFFD0001FD00FE01FEFE0303FF0003FEFC02FFFE03010001FD000002FDFEFE0001000401FFFE03FFFE020102FEFFFEFF00FDFD030302
,FC030003FDFD02FEFF00FD02FC0203FE0202FC00FCFF02FE01020200FDFE00FFFFFD01FCFFFCFD00FFFE0202FDFF010302FE03FFFFFFFE03FF0103FFFD0002FFFD0303FEFF02FF0000FDFE0300020003020201FD02FFFEFDFCFE010101000203FDFEFF01FE030102FD02FCFCFC03010103FFFEFEFDFE0203FE0000FFFFFF0100,010001FE01FCFF00FCFEFF0201000102FDFDFEFC02FD04FF00FEFDFF0202010103FDFCFC0302FE00FE02FE04FEFFFEFEFBFCFE00FDFD00FD01FF0001000203FD0301FC03FEFD0302010101FF03FD0301FC01FEFC020101FD020102FDFEFDFE01000301FEFD03FDFFFF0204FDFDFDFE02FE02FD03FD03000302FEFCFD010204FF,01FE03FF01FD030302FD03FF000003FF00FC0303010302FE0202FE04FE0300FE0101FF00FE03FCFE040202020300FDFE02FEFEFC0202FC030203FFFD03FFFE0201FE03FD01010000010002FD01FEFD0004FF02000100FF02FDFD03FEFF03FC030100010103FFFFFCFEFE0101040100FD0301FFFC010100FCFE0200040203FD03,010101FD03FF0400030003FD00FE0103FEFC03FF01000202FE000101FCFE0301FCFC01030202FFFEFF0300FFFF0400FC0203FE0302FD03FD01FF01000201FE01FF020402FEFB0301FDFCFB01FF0000FC00FE01FE03FF02FDFEFE01FFFFFDFEFE0002FEFCFFFEFD0200FFFC02FCFFFFFC03010201FDFFFCFEFFFCFC03040100FE
,02FEFEFFFCFCFF01010001020303FCFE0100FEFF0100FFFFFC00FD02FE01000202FCFFFE02FF02FC00FD02FDFD030002020302010100FC00FEFEFF020104FD0300FE00FD00FFFFFD010202FEFCFDFEFFFC000202000300FDFEFD02FEFFFC0402FDFFFF03FFFE00FEFD0004FE02FEFD020003FE03FF000203FD03FC0101FF0000,FD00FE01FF00FFFDFE0200FCFD01FD01FE020103FF03FCFEFCFF02FEFEFE01030100FEFEFDFFFEFD02020302FFFE00FFFEFEFE02FE00FC01FC010401FC01FEFFFCFC02FFFF0202FFFEFDFFFDFDFD02FE0203FFFCFC0101020102FF0000FF03FE01FD00FF01FFFE03FEFDFDFC02FEFF0000000404FEFF01FF0104FFFF0200FDFF,0103FEFF02030103020100FEFD00FDFF01FD0103040302000000FEFFFEFEFDFEFCFE00FDFC0103000201FE02FEFF000302FC01FF0302FE010004FFFF020000FE0301FD0301FDFF00FC01FEFFFFFFFDFE01FEFF010104FEFFFE0200FD02000303FEFCFEFE0100FF01FE020101FE0100FFFDFC03FD00FC01FC00FFFF0402020302,01020100020301FC01FDFDFF0100FE0102FF00FFFD0100FEFD0004FE00FDFD0300FEFE01FC0100FD000200FC02FF00030203020100FEFF01FE0102FF02FF00FF02FD030102FC0100FF00FD00FC0201FBFDFD00FE02FBFEFF04FEFDFD020000FEFE02FCFCFE03FD030201FF0201FD01FC02FEFD0300010200FB01FD0301FFFC03
,FEFF02FD0203FD0301FC000000FF01030400FE01FDFDFEFDFC03FD00FC04FEFE00FF00FEFE00FFFF04FF0001FFFF030301FFFEFC03FEFF010002FCFDFD01FEFC0102000203FF0001020101FD02FF0002FE00010301FDFDFE01FD04FDFE02FD00030301010101000001FFFE000102030102FD04FDFFFFFEFDFFFF0000FEFE0300,FC0001FCFE0200FE04FE01FFFCFFFF01FE0100020102FD08FFFFFE0303FB00FF03FE04FD01FF00FE000105FDFFFDFDFF03FD01FC03FDFE01FC0303FFFC03FFFEFE03060102FF010302FF0501FD03000200FD0202FA000104FFFE03FE0102FFFFFD0003FCFF01010100FEFBFDFCFF02FD0200FE03FD0200FF01FD0300FD0103FD,FEFE0100FEFC0500FCFEFDFEFD00FDFC02FEFE02FF01FE01020100FC0003FF03FF01000002FF02FD000302FF03FCFE02FF0200FD01FEFD010100FE020101FFFC01FFFEFF00FBFF03FF0100FE0002FE03030300020101FFFC020200020201FEFE00FE010304FEFFFCFF00FC00FDFF0303000003FDFC02FD0003FDFC01FDFF00FE,FE03FE0201FE03FDFE02FF0001FDFEFEFCFC01FDFE0003FC00FDFF01020400FFFE000200FFFF01FF0000FFFFFC01FD0002FF02FEFDFDFC00FD0102FDFF0103FDFDFEFE01040000FC0101000102FC01FF03FE02FE0102FD01FEFF0300FE0302040102FE010002020100FEFE0102FEFC02FFFE0003FE0101010102FCFEFDFDFD02
,FE0003FF01FFFAFF0003FDFE01FEFE02FD020201FC0002FFFFFD00FFFD0103FEFF03FFFF010303FEFD02FF01020301FF04FE00FEFDFFFC00FD0304FE01FFFDFCFF01010001000301FDFD0103FCFD030001FCFD03070401FCFE0005FDFEFF04FEFF0003000003FEFE0302FFFD0001FDFE00000203020000020205FDFE0003FE00,0301FFFDFE00FDFFFCFDFE000201FD00FEFF00000003FF040301030001FEFE0001020100FCFD01FF01FE0000FF03FFFE00000301FE0002FC01FBFF03FC0300FFFEFD0300FEFBFB02FCFFFEFFFEFE010000FEFDFF01FE020202FF04FFFEFE0302FC0302FD02FC00010102030202FD02FF01FCFFFDFCFEFE0301040001FFFFFCFF,FF01FDFFFF000401FD0003FE02FEFEFD000202FEFEFFFFFDFF02FDFF00FE020303FFFE000202FC03FDFF00FD00010302FD0201FCFC010102030000FFFEFFFF03FE0000FE00FF00FDFE0100FF02FFFD02FE0303FD020203FFFDFF04FD02FDFE000201000000030200FE02030102FCFF02FDFDFD01020302FCFEFF01FD0001FE00,FFFF02010201FF0000FE00FFFD03FEFD02030202FCFEFE00020301FE02FCFF01FD0101FDFF02FE03FD0302FD02FDFD00FD01FD02FDFFFDFE00FD0300FD03FFFC00FD0302FE01FD00FCFDFF0000FDFE02FE00FFFD01FFFC02FEFD0303FC010002FDFEFEFFFE03FE03030001FF03FE0203FDFF00FF01FEFF0003FCFF03FE020200
,FEFF03030200FC010200FF04FDFEFE00FE00FFFEFCFF02FDFC020101FEFF0004FFFE0200FEFD030200FCFFFD00FE000205FD02FDFC01FFFC0003FFFE010102FF060103FD02FEFDFDFDFD020100FFFFFEFF0102FEFF05FDFE0003FD03FFFE000103FE00FC0200FDFFFD0001FEFDFD01FEFD04000302FF020101FFFE0402FC01FF,FD00FC0200FFFF0201FE00FEFD010303FF01FF03FE02FF000003FD0103FBFE04FE0202FE0002FFFFFA010300FE0101FE07FBFF01FC0102FD03FEFF030201FF0203FFFF0101FB03FC00FF05FFFC030000FD02FEFD06FFFFFDFF04FD03FF0204FFFC0000FBFE0201FD030100FE02FC0302000101FFFFFF00FF0300FEFFF9FFFF02,FE0203FFFF00000002FD03FFFD0300030101FD030102FFFEFD04FEFCFCFCFCFEFFFE010300FD0000FC0101FF0302FD02FF020201FE03FD00FE02FE020303030101FE01FF0103FC0201FFFF01FF020303FC01FFFF0001FF01FEFCFF02FEFD01FD0301FFFF03FDFD02FEFF0002FF01FCFE01FE01030000FE02FFFF00FD0101FDFE,0200FCFE01FD03030203FCFDFDFF010002FFFD02010103FDFD02030101FC000301020002000102FD0003FD010102FEFCFD00FFFE0003FCFCFC0102FD0202010002FDFD0302020001FC0300020001FDFC00FE0201FFFF00FEFE03FFFFFF02FFFE0301FF01FDFE0203FFFFFF0202FE010200FFFDFFFE010202FFFFFE000103FDFC
,FC0401FEFC0304FFFFFD01FDFE03FD01FCFD01FEFCFCFC03FE020203FE0301FE01FEFD0200FC030102FE00FD02FEFFFC03010200FCFF03FDFE01FFFCFD0300FFFEFF0102020100FD0201000300FC00FFFF02FEFF0002FDFCFD02FD00FE02FE02FEFF00FF000000FC020301FF030103FE01FE020202FFFF00FFFC00FC01FE02FF,FEFF02FF01FD01FD00FE0304FD00FEFDFFFFFE0303FFFFFF02FDFE02FC01FD020101FCFF03FFFDFE010103010102FD0100FDFCFDFE02020101FDFF01FE01FFFE02FEFEFE0300FCFE00FFFE02FFFD03FE010203FD01FE0000FE00FF01FF010401FC03FC0000FD01FF04FF00FE02FFFDFE00FCFF0300FCFDFF0100FE0102FF0003,FFFFFD0000FD02FD02FEFCFF0301FC03FDFFFE0200FEFF03010101FFFE02FDFDFD0100FD0203FD01FD0002FEFDFF000200FF010201FCFE0103FE01FDFEFEFEFDFCFE0200FE02FEFC0001FCFCFE0302FD00FEFD0304FFFFFDFF000402030202FF03FEFF0000FD00FEFD020000FDFF03FD01FE04FF03FEFEFFFD00FEFD00FEFDFD,FE030001FD00FDFFFDFE01FE03FCFD010103FD00FE01FF04FFFE0203FF02FE02FE0102000101000000FEFF000100030102020102FEFFFE00FFFD0501FFFDFFFEFCFE0300FC0301FFFE000202FCFF0103FE000101FEFC02FEFD03FB01FD04FF000200FD010300FF010201FF00FD0302FE01FEFE03FFFD03FF02FBFFFD03030103
,00FEFDFC03FD0004FC02FFFFFF000302FF0303030102040102FC000300FBFE01020203FF00FE02FC00FD0000FF0302FD05000300FF000301FF04FEFFFFFE03FC00FE03FD02FC040300FE08030002FDFFFCFE0102FFFE030207FF0201000302FD020000FB02FE00FE02FDFF01FFFEFEFE00020303FD00010107FEFE03FEFE0304,00040000FCFF03010100FC0003FEFFFFFC02FEFDFEFE03FD01FD01FFFCFF03FEFF01FDFEFD030403FCFFFF0102FCFFFC03FD000300FD0202FD040203030200FE00FE03020405FDFFFE02FD0102FF030000FC0300FF04FF02000102FC03FD0303FD00FE00FE01FE0002FD010201FEFFFE0000FEFCFDFE020200FCFFFFFCFE0003,000100FEFDFD00010203FDFDFC0300FDFDFD010302FD02FF02000301FEFF00FDFFFE01FD03FC02FFFB01FD02FCFC03FE0700FF030101FD01FE00FFFF01FEFE0204020401010102FF020003FDFC0001FDFC00FCFCFDFD01030001FD03010004FFFD03FD01FF02030203030304FFFCFD0203FD00000301FDFC03FEFF02FF020001,FDFFFDFF01FF0002FEFEFCFDFF020300FE00010200FDFD01FDFD01FC02FEFCFD0102FEFE03FF02FDFD0403000101FD0103FDFDFEFE03FF01FC04FDFDFEFD00FFFC0202FFFC02FFFC0201FEFFFEFEFE0101FF0002FFFEFDFFFD0204FF0102010401FEFDFDFC0101FD0302FC01030102FC0201FFFD02FD0201FDFFFCFE01FF02FE
,FD00000100FEFF01FFFE00FC010200FFFCFEFD0002010403FE01FF0200FD01000200FC010102FDFFFE01FEFEFEFDFCFD0200FCFF000002FD02FF02FEFEFCFE000102FF04000301FC0301FE02FC03FC03FC01FC03FD03FE0301FF0002FDFC03FD010301FEFC01FF03FF020200FEFCFE03FC03FEFD000100010103FEFFFDFD0103,00FF0303FD0202FC0202FF02FDFD01FE01FF02010002000303FFFEFE0003FD0105FE02030000FF010403FDFE03FE03FDFE00020001FD0101FF0003020203FDFD01FCFDFE03FFFDFE00FF01FD0101FE0100FEFFFC030201FF0301FF01020103FCFDFFFCFDFFFD01FEFC010201000002FF01FF030301FF00020200010103FD03FF,FE0002FE0201FCFA0402FFFFFE0101FD03FDFEFB030004FAFB01FEFEFC0402FD050302FE0000FDFD02FE01FDFCFDFCFD000200FEFD00FF02FE00FE00FC000604FDFE0106020101FEFDFC0301FE040500FEFAFE000200FFFF060303FEFE01FD0602FF01030401FEFE0104FE0303010003FCFC07FF0702F8FEFCF602FC070401FE,01020303FF00FDFFFE03FF02FD0201FFFDFF0303FF020102FFFDFDFFFF000000FD000201FDFF0300FC02FC02FF0001FEFFFDFDFC03FD010200FD03FF01FFFEFFFF00FD0300FE010303FEFE02FE0001FF010203020200FD0104FE0000FE00FEFE01FDFEFBFEFFFEFD0002FC010303FC01FFFFFE03000002FC0402040202FD01FE
,FE0300FC0003FFFDFE0303FD03FDFE02000001010002FF02FFFEFF01FFFFFDFC0103030002FE000001FCFDFDFE01FFFC0100010301FFFD030202FF02FCFE04FC01FE01FEFFFD010101020204FD01020003FE0003FFFF00FD03FE04FF00FD0200FCFF02FE02FD00FF0002030403FEFDFF03FD02FF0000FC01FD02FF01FDFEFE00,02FE0103FC02FFFD0300FF02FF00FE02FDFEFF00FF0301FEFD0203010203FE000000FF010301FEFE03FDFDFEFE0003020203FFFFFD00FD03FD00FEFEFF010203FDFEFE01010100FCFDFF01FD01FF03000202FE020201FD000301030302FF01FDFDFE020102FC02FD0303FC03FEFEFFFD03030003FD02FEFDFF0202FE03FF0100,03FF02FD03FCFE01FE01FFFE020302FFFFFC0001FD03FFFEFF0203FEFE00FF010100FD01030001FFFDFDFD03FEFFFE000203FE01FD02FF03FF02FD020100FE000201FEFF00FF0102FD0101FEFF00FC01FE02FC01FCFFFE0002FEFF00FC000100020301FEFCFD02FFFDFFFCFF01FE01020202010100FD01FEFEFE030001FDFD01,FD0002FC020100FF02020201FE0103FF00FDFFFDFEFC0300FD0100FF000100FD0302FF03FD0300020100FD0103FCFEFEFD03FEFF00000002FE01FE03FE03FE0103FC00FE020203FCFE00FE01FEFE03030100FE01FE0001FDFFFEFDFD0000FDFE020302FFFE01FCFDFEFDFF01FF02FFFFFD0202FEFD030002FF0303FE0003FFFE
,01FEFF00FD0302FE010002FCFEFFFF01FEFD00FC00FDFA0001020103FE050000F903FFFFFF00FE03FFFC00FF020302FF0103FD0002FF0202FD00FB03FFFFFEFF0403000002FD000300FE00020302FF05FD0001FDFBFEFFFD020504FEFEFFFAFF04FC030404FDFF0003000300000001FDFDFDFF0200FE0001FFFEFDFDFF0203FD,00FF0203FDFE00FF00FF0102FC02FF03FFFE000202FFFDFFFF03040101FFFD01FE0002FDFF01000005FFFD0303FC03FE010001FE00030202FDFCFF00FEFE00000302FEFD03FB03FE02FFFE01FF0003000204FF0301040003FF02FFFF010303FD0302FEFFFEFD01030003FCFEFE010001FFFD02FD0003FFFFFC0200010102FEFF,FDFE03FDFF00FDFDFFFDFF030202FD030100FD01FF01FDFFFF0303FC00FDFEFF00FE00FCFCFCFF02FDFF0103FD00FF010003FD0203FEFE0101FF01FCFCFFFC0202010301FD0001FE0002FD02FCFF00FE010003FEFE03020302FEFDFCFF0302FDFD01FE000000FE0303FEFEFE00FC03FF030104FE01FCFEFDFF02FF0002010002,FFFFFDFE02FFFDFEFD02FD03FD0002FEFD020202FEFDFE0202FE0102FF020101FDFF00FC03FD01FFFB02FC00FE020303030103FDFE03FE03FF0002FD0301FC03FD000200FDFDFF02FDFFFF01FFFEFF03FC0003FE0101FF0200FDFBFC0101FF02FDFF03FB010100FD0103FF00020200010300FC0302FF0403FCFCFF02010000FD
,FC0303FF03FEFF0103FE00FF0102FF020303FF01FFFF03FDFC00FFFEFF03FF02FD0300FFFDFF00FCFCFD000100FD02010001FF03FCFCFC02FD0101FF02FF01020002FFFD010300FDFDFDFF0300FDFCFCFE02FC02FDFDFF0101FE0002FEFD02020303000003FF020202040200FD020101FDFD00FDFE01FDFDFDFEFC04FE04FEFF,FCFEFDFC0100FD0200040303FFFD04FFFCFF020200FEFEFCFFFDFCFD0102FC010102FCFF030100FEFD0201FDFD00FDFD0402FEFF02FE0200FEFD01FDFC02030204000001FFFC02FE0002FE02FEFD00010302FE0300000102FDFA02FE04FE01FE00FD03FC010101FF03FF0202FE000300FFFDFD00FD02000201FD03020003FDFC,FDFE0301020003FE00010200FDFDFCFF03FDFD01FFFFFF0303030103FD020001FDFF02000101FE020100FEFEFD0004FC02FFFD03FFFD00000103030102FEFEFCFD000000FC0303FDFDFEFEFF02FF03FF020202030104FFFCFF0102FE0101FEFDFD0202FFFFFD02FEFE02FFFDFDFE000300FD02FEFC03000103030203FD00FC01,000001FCFE0302FC00FD020301FE0402000001FC0200FFFCFC0002030003FF03FC00FEFE02FC000002010104040001020402010303FCFF0302FEFEFD03040201000204FEFEFDFD02030102FD010302FE0200FC030000FDFE00FD0203FF03FC0101FE030000010302020203FDFFFE01FEFDFF0002FEFFFEFF0103FEFFFD04FFFD
,FFFE03000102FF01FCFE030001FD0401FDFDFEFDFDFD02000000FEFE0202FD020400FD0102FDFC00FC030203FDFCFF03FFFDFE0103FFFF0001FFFD0202FF0302FDFF040103FAFEFFFCFE0102020204FDFE01FDFE02FF00020002FE02010303FEFE01FD01FEFFFD03FFFD03FDFEFD03FFFE030001FE02FEFE01FEFEFEFF04FD01,0301FFFE0200FFFFFD03030001FDFF01FC00FF0203FEFC040102FCFD03FCFF0101FFFCFC00FF0102FF02FEFFFEFDFD02FC03FF01FCFF0201FD00FF0101FD0003FEFF03010503FFFC01FFFF0203FDFEFDFD0202FDFC0301FE020002FE00FE0102FFFD02FD04FC01FE0302FCFF03FFFFFFFF0303010002FC00FFFF01FEFFFD00FF,FDFD01FEFDFD010202FF0303000102FE010201FC0301FEFFFF0101FDFE000302FEFD02FD00010202FE010104FFFFFDFC02FD0001FEFC010102FF0602010302FDFF000301000003FE00040100FD01FD00FDFF0202FF01020500FCFF0105FEFD0200FF02FFFE02FF030101FD0300030203FEFDFF04FCFEFEFCFE010201FD010002,03FE030103FD0100010002FF020301FF03FC0100FF03FF0303FFFD0003FFFF00FDFFFDFFFFFD01FF03FFFE0002FC0301FEFE020303FEFE00FDFEFFFD03030202FD020000FEFDFDFE01FDFD02FEFF00FF03FE02FEFE04FEFCFEFF02FDFEFF0203030301FEFEFE030003FF03FDFDFFFFFEFC0100FFFD0102000301FF0201FF0102
,01FDFC0001010003020303040001FE0302FCFCFEFC02FF00010202FE01FD000103FE0101FFFF03FCFD010101FDFFFD00FE000200FEFF0003000300FFFEFEFFFEFDFF0201FC03FD0101FFFE00FD01FEFE030000020000FFFDFF000003FDFC0003FCFFFD01FCFF0301030300FF030304FCFFFE04FE030203FE000001FFFC0302FF,FE00020001FEFF0202FDFC03FEFF00FFFD01FD0002010101FDFFFD020301000003FCFF030102FD030301FE01FD0101FDFFFEFDFFFE00FC0201FC04FCFFFF03FEFDFCFFFE01FFFDFEFDFEFD0203FF00FF030303FDFFFD0100FEFFFF0103FD0203FFFEFF00FC0201FD0201FDFF01FE0100000002FF0301FF0300FFFF01020202FE,03020202030203030204010002FE0202FD030103FC02FF01FF03FC020302FF020001FFFDFEFEFDFCFEFF02FE03FFFDFC050100FDFDFF03FCFE000302FEFE030200FCFF01FF06FF02FE0200FE040303FDFDFDFD010102FD02000301FDFE03020102FEFE00FE0302FFFC00FC010301FF030202FD03FD01FFFDFF00FE00FE04FD02,FE00020000FF030203FEFF02FD00FE01FDFF010000FDFEFF0101FF03FBFDFDFFFFFE00FC0302FD01FDFEFDFD0101FEFFFF0302FEFDFDFDFDFE02FCFFFEFFFC0300FF00FDFDFCFEFE02010102000203FE00FF0103FCFEFCFDFE0301FE0401FD01FFFDFDFB0403FDFD00FC03FE02FDFF0003FEFE0200FD00FD030103FF04FFFE00
,FC02FDFF00020100020002FEFE0003030201FFFEFDFDFDFD02FEFC03FB00FCFE02FC0501FC020201FEFDFDFEFD0302FD01FDFFFFFE02FCFF0202030202010403000201FC0503FFFE0202030403FE03FD02FFFD0201FF000400F90200FFFD02FFFFFE0002FDFDFEFFFEFDFFFD02010203FC00040001FE00010000020100030100,00FFFD0203010002FCFDFD02FCFFFDFE02FF020000FC01FFFEFEFF0201FDFD02FCFFFEFDFC0101FF0100FE01FFFEFC0004FE00FEFD01FD000003FFFEFDFCFEFDFCFCFEFD0200FFFF0303FE02FFFFFF02FD00FD0100FF01FD0001FCFE0202FE0302FF02FD040002FE00FFFCFEFE0103FF02000400FCFCFE00FEFC0202FD0102FD,030201FF02FCFEFE03FF01FE0203FD0203FDFCFD01FD01FC0000FEFCFE00000301FFFFFF00FE02000200010202FD00FC02FD0200FD000100FD00FFFC01020200FDFF00FDFE02FDFF02010003FCFE03FDFEFF0201FD0102FFFCFB01020000FE02FE0203FEFD03FFFF0200000203FDFE03FD00010001FD0200FD03010300FFFF02,0200000202FE03030302FF0000FC0202FD0000FD02000102FEFEFDFE01FD03FF0001FC0101000101FD03FC03FDFCFFFDFD03FF020201FEFF00FE03FE0001040102030000FC02FE0202FF0100FCFDFEFDFCFFFEFDFE010001FDFDFFFF0102FFFD00000300FF0001FEFFFFFD00FEFF03FC0004FF0202FD03FD020002FFFE0301FD
,FF02FC03FCFE00FE000303FF00FEFFFFFF010300FF00FF0301FF040100010202FC0302030001FFFD0302FE0202FCFD02FD01FF0100FFFD01FFFE01FFFFFE03FDFD0100040000FDFD02FDFE03FF00000003FE00010300FE0200FEFD000001000401FE0202FE01000200FE0304000400FF02FC04FC0100FF02FC000101FE00FDFF,0200FC01FC01FE03030201030301FDFD0200FD020100FEFF0301FE0200FF02FD04FDFC02FD0102FD01FD02FE01FCFF0103FFFE0201FC0100FCFF0102FCFD02FD0000FF02FC0102FF000301020203FFFDFDFD01FFFF00FF00FDFEFEFCFE0301FF0202FD0200FDFDFEFF01FF02020304FD01FC01FD02010102FF0200FDFDFD0403,02FC030002FF06FEFEFD02FE02FC02FEFDFC000203FEFD0201FD00FFFD000303FCFD01FD00FEFD01000000030403FD0103FD02FFFE0300FD030102FC0101FE01FDFF030001FEFEFE02FDFEFE0003FE02FD03FE0202FE030101FE0102FE02FF010201FF02FFFE0100FEFCFF010100FFFE0400FDFEFFFE01FE00FEFF03FF0103FF,FE00FE0102000000FF0203030403FF0101FF03FFFCFCFF01FFFD02FD00FEFCFFFEFE04FE00020002FFFCFFFEFD01FC0100FDFDFD02FD030103FF01FF00FE010002FC0100FD0301030104FE030102FF01FDFD0200FFFEFDFC03FAFFFC030301020303000101FEFEFD0303FCFE000000FE0300FEFD0101FE0100FD040200010300
,FEFCFCFDFE01FDFE0300FDFEFF01FF00FF0100FC010300FEFF020201FCFCFD030101FEFEFEFD020200FD0402FDFFFCFE01020200FFFD010102FEFD01000000FF02FDFF03FD0202FF00010302FE00FC00FDFF03FF0004FD0103FC0302FF03FFFF02FE02FF01FEFD0201FDFD0201FD03000201FF0102FE030104FF0302FD010001,FE00FC020102020201FFFD0200FEFEFE02FF00FF0104FE00FE000101FDFE00FDFFFEFEFE02FF000100FE03FF0203FF00FE0102FEFD03FF0001FF0302030302030301FE0303FFFC0001FC0002030002FDFDFEFEFF0201010103FE0200020200FDFFFDFE0100FEFF03FFFE03010302030303000300FDFE0303FD0303FD0000FEFD,0000FE03FD00FDFDFCFD010001FEFF0203FF030101FFFE04FDFC0202FEFC0203FFFCFE0301FDFE0200FDFD03FFFF02FE050201FE00FEFE0201FE0003FEFDFF00FFFD0000FFFB03FE0301FFFD03010301FE0202FF0100FFFD00FCFFFEFDFE0100030200FEFDFCFEFE02000200010303FFFCFCFE01FCFE02FF0100FDFDFE0204FF,0002FD01FE000002FEFEFFFE01FEFD0101FE010203FFFE03FDFF03FC00FEFF0000FF02FEFE030101FE01030402020303FFFC03FD03FE02FDFC0004FEFCFD00FFFF0304FE05FEFF01FC030100000303FE02FD030002FF0101FDFB010102040201FF02FEFE00FD030003020002FDFEFFFC0000FDFCFE0200FD02FD02020000FFFF
,000201FD02FD0001FEFF03FE01FF0001FEFE0002FC000301FEFD02FE030200FDFDFE00FD03FD030103FD0202FEFC02FF05FD03FF04FE0300000101FD02FCFF02FEFFFEFDFFFE020101FFFD02FF0003FE0201FEFFFF03FEFF01FF01FD00FE01FDFDFDFCFFFFFFFCFD02FCFF01FFFEFE020100030100FF01020302FF03FF0102FD,FDFEFC00FDFF00FC0304FEFCFE00FFFE020000FF0002FF00FD01FFFF03FDFFFF00FEFFFF0103FEFEFDFDFFFD01FF02FCFE0300FF030300FDFFFD0203FFFD04FCFCFF0104FD00020201FDFFFF010202FF020202FE0001FF0103FDFE03FD0201FDFEFD01FFFF0201030303FE0100FD01FC020303FE030301FFFFFD0300FCFE03FD,0102FFFEFD00FEFF000203FE000002FE010002FF00FDFE02FDFD000300FFFEFF04FD0201FFFC010201FC040103FDFEFDFDFEFCFEFD03FD02FF00FFFEFFFDFE000003FE02FD0302FC00FE02FF03FE01FCFFFFFE0101000300020203FEFDFFFC0400FD00FFFDFD01FEFE02FF03FD03030102FD010003FEFD03000000FF0204FDFC,01FC020001FE00FFFEFE020300FEFCFD0401020302FFFF01FFFF0101FE010303FEFE0500FD03FD00FFFFFD02FFFFFFFD000003FE0000FDFFFF0002FCFFFE01FE020403FF00FF0303FD0301FE00FEFC0001020202FCFD03020102010401FD02FD02FE000300FD00FDFFFE0001FDFE010100FC0200030001FDFD0300FF040201FD
,FDFEFEFF02FC02020202FE04FF000301FF00FFFE01FF01FE03FEFF01020101030002FDFF03FFFEFFFEFE020301FEFD01FE03000003FDFC0302FFFFFF0200FFFFFD020101FEFFFE0200FEFE020003FD01FE0103FDFFFEFDFEFDFD0003FE020300FC01FE03FDFEFD03020201FE03030201FE00020402FFFE0102FFFE0100FFFEFF,03FEFE010103FC0100010301FE0004FD02FFFD0203FEFCFE0302020103FE00020201FCFFFFFC0303FFFFFC030202FE03030000FDFE0101FEFDFE03FFFD03FDFC010003000301FFFFFF02FE0003FCFD010203FE03FFFE0101FE0201020500FFFE01FEFF0002010201FE00000000FE00FFFEFFFDFE030200030302FDFCFD0303FF,030200FDFD02FF0203FEFFFDFF0302020201FCFEFF0203FE000303030202000204020302FD02FE0103030000010303FD01000101FDFD0200000301FCFE0400FEFE00FD04FE03020003FE0003010300000002FCFC04FCFD00FE00010101FDFD0002000203FEFC020003FFFD0100FF0303FF0203FDFFFD00FE0200FD00FEFEFEFE,010002FD01FEFDFEFCFEFDFC0000FCFCFFFFFF0102FEFF01FE000001000002FEFE0300FF01FEFDFD02020102FE03FFFD03FEFE00FD00FDFFFE03FCFD01FFFEFF01FFFB01040002FFFEFC00FD01FCFF0103FFFF0001FFFCFDFD00010100FD04FF02FFFDFF03FF0301FEFDFEFCFCFD04FF0002FE0102FE0201FE0501FDFF00FE00
,000201030102FC00FC00FE0102FE010201FDFCFC03FFFEFFFCFE010200FF010100FDFDFF00FD01FE010103FDFEFEFE01FC03FCFDFFFDFE0302FDFC00FF0000FEFFFFFCFEFE00FE0103FEFE0301FE000300FE0300FCFD0000FD01FFFC02FF030301FE02FD00FE010201FE0103FD000103010201FF0002FD0101FD01FE03FD02FD,FDFD02FD0002FE03FDFD0200000201FD0100FDFEFE04FE05FF03000404FFFE0200FE00FCFD03FDFF00FDFCFFFC03FF0005FEFE0100FF000200FD010303FFFC03FE02000002FFFF0202FD04FDFE03FFFE0201FF03040001FCFA0203FF06FE0002FDFD020100FD02FC02FCFDFE00FE00FFFE03FFFC0300FD0002FF0101FD0103FD,01010201FFFE0001FFFF03FEFCFC02FF0301FD000102FDFEFDFDFE02FF01FF00FD01FC020302FCFDFE030300FF00030200FE01020202FE03FDFDFCFF0002FD00FDFF010202FFFEFDFE01FFFF01FF0202FE01FDFEFFFC0002FDFFFFFF0001000001FE03FC02010302FD02FDFC01FE00FFFEFC0201FD00FFFFFEFFFF04FD000300,FDFC00FE0101FFFDFCFFFF0303FFFEFC00FEFDFE0000FFFDFE03FD03FD040100FEFFFCFCFCFF0003FDFD01FFFF01FE0303FC010102FE0000FD01010301FF01FFFF01FF0003FD0000FEFF020002FD02FFFD0100FD010100FE04FFFDFDFF0103FEFEFD03FE00FEFCFEFF03FDFEFD0002FEFE02020302FF01FD02FEFC0200040100
,03FFFEFEFF03FFFCFFFDFDFD03FD020102000004FFFD0100FDFD01010000FFFF05FF03FC02FC01FF01FF00FFFE010301F901FEFEFC01FF00FFFEFCFDFE01FFFDFBFFFCFF010005FDFD000003FDFEFE02FE000101040200FFFAFFFF000002FD000301FFFE00FD02020201040002FE0300FFFEFF00FD0001030006FD000100FF03,FDFDFDFEFEFCFBFFFEFEFC0000FF00FEFEFC01020202FF03010200FF0300FD0302FD0000FDFDFEFD0102FBFDFD010001FE00FEFFFFFEFDFF000103FEFC0001FF03FFFC01FF0300FEFEFCFEFE020203FCFCFF03FCFEFFFD0203FDFC02FD01FE000101FFFCFEFF01FEFE00FF0202FCFDFDFD01FDFF02FC0002010401FD000201FE,FFFDFDFE010102FEFDFE030000FC000102FD01020203FDFF02FF00FEFDFFFEFF000200FC020303FEFD0202FCFFFC0203FCFE03FE03FCFE00FF0303FFFFFF02FEFFFFFDFE00FCFFFC03FD00FCFDFF010001FD010302010001FCFDFF020303040000FE01FD04FCFD0301FCFE0000FDFEFE0001FF02FCFE01FF00FD0202000002FD,FF010001FF000201FFFCFCFF020100FFFC00FE010303FD03FFFE0000FC02FEFFFEFFFB00FD0202FFFEFCFE010001FF0302FFFF030303FD0102FC020301030000FE00040001FDFF00030102FD0102FE0101FEFF0200FFFC00FE02FCFDFFFEFD0302FC01FE03FEFD0101FDFEFF00FE000103FDFCFD02FFFFFD0100FFFE0204FEFD
,0004030002FE01020203FF02FEFE01FEFF03FF030104FFFEFFFE04FE03FC0102FDFFFCFF0002FEFD020202FE02FC03020101010201FF0001FE0100FEFE03FCFFFF0100000502FFFE00FE00FEFC04FEFEFDFCFDFC0001FFFEFF00020100FE030002FDFFFFFE00FC03FEFD020301030002FCFDFDFF0003FF0203FE04FF02FFFE03,030003FFFEFFFEFFFFFFFEFCFBFCFF00FCFD0304FE020504000201FC00F8FDFC02FEFF0300FE0102FA020301FFFD010203010000FD02FC01FD030100FCFB010003FE020101FB010200020400000203040000FE02FD06FEFE01FC01FFFD0302FEFF01FC0004FEFFFD01FC050203010101FEFE02020202FF0300000300FD0301FF,FFFDFDFCFE010202FD010202FC01FCFE020201000201FF0301FC0300FC0300FFFCFEFF02FDFE02FDFAFEFD04FE02FD00FF000103FFFE03000100FD03FCFFFFFFFCFCFEFD04FE02FFFCFE0303010400FE0000FD01FC00FF0203FFFEFD0002FF010203FE0101FEFE03FF01FEFFFD0002FCFFFEFEFF02FD00FF03000303FC010000,FD00FDFD0003FE0000FC030103FC01FDFE00FD00FE01FD02030101FDFD00FDFF010304FCFD0300FF0102020300FC00FC0302010101FC0003FCFDFD030003FF0000FEFE0302FB02FFFD000103FD030002FD01FEFD000002FD0101FF02FF040000FDFEFDFF0203FD02FDFEFF000202FF02FC030002FD0000FE0001FF03FFFFFEFE
,FFFD0102FCFE00FCFEFD0004020301FFFE03FEFE030300FDFFFEFF03010103FF0203FF03FD0202020202FF01FE03FE03FF0001FFFCFF03FDFD04FDFE0001010101FEFF030003FF0001FFFD0000FFFE01FFFDFF000302FD00010001FFFF0102FEFE0301FD02FE03FDFD03FDFDFFFEFCFC00FD00000101FE0001FD000200010200,FDFDFEFCFC03FF01030002FF0202FD02010201000001000203FEFD010103FC03FB02FB0002FDFD01FDFCFFFEFDFD0001FB02000003FCFE00FD010200FFFFFDFD000002FF00FFFEFD02FFFE02FF0003030200020001FF0102FDFC00000202020002FF03FD04000202FCFDFEFD0002FFFCFD03FEFD0003FFFC030202FF04020202,02FC03FF03FD00FF0101FC040102FDFE02FD02FE0001FFFF0000FF02FD020203FEFEFE02FF01FFFC04FD0000FD0001FE0100000001FF02FDFFFF01FEFF0203FC00FFFE0301FD0103000100FDFFFE0103FF0002FCFCFFFFFC01000303010403FD01FCFDFFFD01FFFE01FFFFFF04FEFC01FFFD00FE0300FE030101FD03FFFFFE02,FF020200FDFFFB0102FE0001FD020202000100FDFCFE0302020301FDFEFDFCFF040303FFFDFC030204FD02FFFEFE020202FCFE010000000201FD0202FC00FD0202FC020302040301FFFD00FFFF03FE03FF00FF0001FF01FEFC00FB01FD0105FF03FEFCFD03FE02FFFFFF0102FFFCFFFDFDFCFC00FFFDFF0200FCFD0200040201
,FD00FDFFFD04FD00FBFEFE01FE0303FD0201000202FF0100FDFD0401FC02FF03FE010103FFFF030303FCFDFBFE0000FD04FFFD01FDFFFD030000FD04FD0100FDFDFCFEFA0001FEFF030204FD02FF000001FD03FCFF01FDFF0003FFFDFEFE0001FC020100FF02010001FE0102010002010302FEFD03FFFFFDFE04040001FCFE03,FFFDFE020200060100FDFF020402FFFC0201FD02FCFDFD0201030001000201010003FE0301000102FCFEFD02FC03FD02FF02FEFF0101FCFEFCFFFF0201010302FFFCFF010207FFFEFE03FE0002FEFFFD01FFFE0200FDFCFEFC00FDFF02FE02FE00FF00FF0103FC010001FD03FDFEFEFEFD030101FEFE01FDFCFDFFFE01FD0303,02FEFDFE02FE00020204FC00FDFD020003FF01010100FE0002FF010004FFFF01FF030201030303FC00FD00FDFF00FDFF01FF02FE00FFFF00FD02FFFE01FE01FDFEFF03FDFEFFFD00FC000302FE010203FF0201FCFDFDFCFEFEFB0001FEFD0002FD00FEFEFE02FC010203010304000103FFFDFDFCFCFCFFFFFE010203FFFD03FE,FFFFFD0002FFFF0200FDFD04FEFC02FDFE0200FE02FEFF0302FF030002010303FC03FFFE02030003FD010104000001FEFFFF0201000100FDFDFD01FF01FF03FDFD0204FE000300FFFC02020102FFFD0103FEFCFE0202FC01010201FF01FE030003FFFD02FEFE00FF0001FFFDFFFCFD03FC01030201000302FEFD00FC000202FE
,FD0101000201FD030200FF04FF00FDFEFC0202FFFFFD0002FE000201FDFEFEFD0102000201FFFD0101FDFF02FFFCFEFFFDFDFFFFFE00FE00020101FFFF0002FCFD01FD0101FE0002FC0001020002FEFD01FF02FFFC0002FDFF0001FF00FE02FEFD0002FFFB0101FF00000000FF0002FD03FEFE01FD020000FF00FD01FD020200,FF02FFFD01FE010002FDFE00FEFE02FC03030203FF0201FC020202030302FC02FE00FEFFFD000002FFFF0304FFFDFEFE00FD03FC00FD03FD00FE02FE0003FF00FDFF01FF01FFFC010003000000FEFFFFFDFEFEFDFE020102020203FF03000000FF03030204030203FC02FEFCFE01000200FF02FDFFFEFFFDFF0000FFFE010100,FE03FF0400FD0007FE00FCF7000103FD00FFFF01FE06FEFBFE02040104F9FFFDFE04040300FE02FF05FC01FDFEFE08FF000701090002FDFF02FE03FC030000FB05FEFB0300FD01FF01FF0105FE030002FDFF05FFFFF900FA01040103FC00FFF9FC00FC050203FE0101000000FE03FE02FD03FE0501FEFD0000FEFBFC0706FEFE,FF010100FFFC0003030303FEFF0204FEFF00FFFF0102FFFEFCFF0301FF0003FEF90201FCFFFF0102FC0302FF00FD000300FCFFFDFDFD0301FEFEFEFE0300FF02010003FF00FEFDFDFF000301FF00010201FDFCFFFF0500FE020003FEFEFFFC03FCFDFFFEFD0000FFFF020003FD030101FE03FF0002FE0303FFFFFD03FE040000
,01030301FF0004020101FCFFFDFD010101FD01FFFDFF01FF02020101FD02000202FEFF03FFFF0103FC0203FF04020102FC00FEFCFFFDFE01FEFDFC02FE0003FEFF03FD00FDFFFEFE0003FF0200FEFF03FF01FD02FF00FF01FE02FD01FE03020100FD00FEFD02FD0201FF010203FD02FC02010002FC01FEFC00000303FD0302FF,02FFFE0100FFFDFC01FD020100FEFCFF03FEFD0002030104FF00FE030101FFFDFF03010001FFFFFE04FD020402030002020201FE0103030202FDFE00FF0000FD030100FD0002FEFE01FCFFFD010304FDFF03FE03FDFE01FD02FCFDFEFE000202FFFEFEFF0103FF0302FE02FF0002010103FCFFFEFCFF03020101FE0103000001,01FD01FEFCFEFEFE0002FC04FDFEFFFC03FFFE030101FC0000FD010201000000FDFDFFFF03FEFEFEFD0300FFFEFFFF0001FF01FC00FE0000FDFD0001FF010001FFFD000302FFFE01FF02FEFD0003FF00FFFFFC00000000FE00FF02FD0402FC00FDFDFF0102FC0002FD01FC0303FEFEFF0300FE000103FDFE0201FD020100FFFF,01FFFE00FDFCFEFCFC01FC0400FFFFFC0002FE0001FEFDFEFEFF0103FC02FD01FDFC00FDFD02FDFFFEFDFE04FFFDFCFEFFFE0202FE00FEFF0202000202020301FE010102FFFDFE0301FDFD0301FE0300FC00FEFF030000FE01030001FD0301FEFE01FEFEFF02FCFF01FCFDFD0001FDFEFFFFFDFDFDFD01FE01FDFF030001FD03
,01FF01FDFD00FF04FE01FFFF02FCFD0201FDFFFBFFFFFE0302FD0001FE04FE01FCFFFF03FF000102FFFEFF0200FD0402FD02FE04FE03FF03FE02FD0002FE020203FFFFFE0002FD050303FC01FE03030301FD0000FF02FFFDFF01FE0003FDFD02000103FE0102FE010200FD0102FDFCFFFE03030003FC0303FE00000003FBFF02,010201000200FE0302FFFD02FDFD02FE03FEFF03FDFD0100FDFD0202FEFDFE030303FD0002FD01FC02FEFCFFFEFFFDFE04FDFDFEFE03FF00FCFDFE02FCFF020103FF0101FE030300FEFFFDFF00FEFF010102FEFD0304FC0002FF03FCFCFC02FC02FD010105FE0103FDFDFEFD03FDFF03FEFF0303FD030102FFFD0302FFFEFE01,0300010300FC0102FFFDFF010203FE010000FDFEFF0200FE010303FEFD02FEFEFFFEFE0003000002FB01FFFF02FFFC02FC00FDFCFF03FE000103FF03FFFF0200FF0301FEFE01FE02FC03FE01FE02FEFDFEFE0202FDFEFC02FE00020203FE02FDFEFE0002FE0101FF03FE03FD00010003FC01FEFE030002FF01FE03FCFEFE0300,FF00FFFF010202FCFF02FF02FDFD0401FFFF0200020302FD0002FE0100FCFC040003FD01FC00FEFEFF00FFFDFC03FFFE00FCFD01FFFCFDFFFC00FD03FE0303FE0201FF0100000202FEFC0002FC0102030302FEFDFC0002FC02FD010001FF03FE00FFFDFE030001FD0301FDFDFEFE030001FD0101FFFD04FD0303FDFFFFFDFF03
,FDFF02FF01FE00000204FDFFFF030303FFFFFF0303010202FFFE0202FD01FEFD05FD01FC00FEFE01FEFF0103FF00020103FD0002030000FC030201FCFDFEFEFF03FEFF00FD03FDFF02FCFDFFFEFF01030203FD0003FDFE02FD00030100FEFD000302010202FD00FD00020300010004FFFE020200FD00010201FFFF010300FE01,0203000000FD0101FC03FEFE0002010203FD01FD03FFFEFC03FD0101FE03030004FCFF00FE01000104FD020401FE03FDFDFD00020103FFFCFF0203FFFEFF02FD0002FCFDFFFE02040200FF00FCFE0003FF0102000301FE02000000FE0103FE020001FD0102FF010201FD010302FE04FEFFFF02FCFCFDFEFD02FEFD0303FD0001,FF0100FD0300FD00020002FF03FCFD01030200FCFE02FDFD0103020000FF00FDFE0001FFFDFDFF02FFFF0102FCFCFCFCFDFD03FCFCFD0300FE00050303FC020304FFFFFEFF010203FEFEFCFD00FE04FC0100FE00010501FFFCFC02FD03FDFF00FFFFFC020001FCFE03FEFDFF0402FEFE01FEFD03FE00020404FF02030101FCFD,FF000300FD00FFFEFFFD00FDFC03FEFF02FD01FEFEFFFDFEFDFFFDFFFDFDFEFD040304030102FE00FF01FF0002000101FE020003FEFE0302FE030402FE00FDFDFFFD00FFFCFEFFFCFCFE01FEFE0300FC03FD010203FE0300020303030200030200FD03FE010301FEFEFCFE020302FE020001FF00FD0001FF0402FDFFFE00FEFE
,00FEFDFC0000040002FF0000020102FDFEFDFC030002FD03FE02FCFCFE0301FFFEFF02FE02FD0000FCFE00FF00FF030300FD02FF030303FD0002FD0103FE0102000201FFFEFC0201FE00FD010001FDFC00FF0200FB0100FF01FFFFFE03FEFB02FEFC000002000102FEFFFEFF000100FE01FC00FF0203FF00FEFD0002FF000003,02FEFDFC030002FDFE00FF0002000303FFFFFE01FE03FC000002FEFF02FB00FFFD0101FC02FFFC0100030202FD03FD010103FEFDFEFF0003FE00FE0100FC0002FCFEFCFEFE01000101FDFFFF020304FF0001FCFE04FDFE00000202FC01FF0303FF03FF0101FCFE0101FF0203FE00FC00FEFFFCFEFDFFFEFE00FFFCFE03FF0000,00FEFF010401FC00FF0302FEFD0201FDFD01FE0203FDFD04FFFDFF0400FFFCFE000002000103FFFFFBFDFD010002FDFE01FC01FF0002FF03FEFF020002FDFF01020204FE080303FF02FDFDFE0304FD03020301FEFE03FF000202FF03000100FDFF0301FF02FE030200FEFF0102FE00FF00FE010302FF02FDFEFCFD02FF00FF02,FFFFFD03FE02FC000100FDFC00FEFEFDFF0202FFFF02FDFF01FFFE020002FDFDFCFF0200000101FFFE03FD020103FFFEFEFF0002000002FEFE02FEFCFE0400FF010303020201FCFF0102FFFDFF00FFFC03FEFCFDFD02FFFE01FE0100FFFDFCFD0003FE0202FEFC03010102FD020301FF03FF0202FE0301FF02FE030003010001
,FDFC020002FD02FF000402020003FE0001FCFEFF030002FD0002FDFCFDFE00FE02030301FD0303FF02FEFC020000FF02FFFE01FD03FD01FE00FE03FDFF03FE0002FC02FE000400FC00FDFD000301FFFEFF030000FEFEFF00FF00FDFE000000010203FEFEFF00FC030402FDFD0300FC0002FF0401FF00FD000301FD03FF0400FF,FDFFFE0201FCFEFD03FFFF030002020100030101FCFD0003FFFF03FF0100FC03FF01FFFDFE0002FCFF03FCFFFCFE00FDFE00FF00FF00FFFCFCFEFE01FEFD00010000010100FF00FE0101FE03FCFD0203FEFFFC000002FCFC000200FE00000103FDFDFF00FFFDFDFEFD0202FD01FEFDFE01FC00FD0202FEFF02FD020201FDFC00,02FFFCFDFF0204000403FCFFFE0103FC00FFFC020103FFFD02FD02FE03FEFE03FFFEFBFEFDFEFCFD01010102FEFEFC00FD0103FFFEFC01FEFF04FF000102FF0100030202FE030403000202FDFD0000FF020401FFFD0200FD00FF0000FDFF02FE0401010303FCFC01FDFE00FEFDFE0101FEFEFCFE020101FF02010100FDFEFDFE,FE01FD01FFFDFFFF0202FE02000300FEFEFFFF0400FF03FE0300FE02FE00FF03FC03FC0103020001020101FF02FDFEFEFEFF0203FC000301FEFC0101FCFDFEFF03FFFD0300FE02010200FF00FF02FFFDFD01FD03FC03FC01000101FD020103FCFF0203FDFE00FEFC00FD00FFFDFF0300FC0001FDFEFE00FFFD04030104010301
,0101FEFE0103FEFCFC030301FCFD03010200030103030200FFFEFD0201FD0000FF0302FF0301FDFE0301FEFDFE020203FEFFFC03FD01020201FD0001000200FDFDFEFF03FB0201FEFEFC03000302FFFF00FF010201FE010300040300FEFEFF00000201FCFC02FFFF0101FC0200FF0202FC02FEFDFE0002FEFC0201FE01FFFDFC,FF01FFFEFFFD02FFFEFD0203FDFC010000FEFDFF0102FC02FEFD02010101FDFE00FDFD02FFFCFD0100FDFFFFFCFC0200FF03FFFDFFFFFF0100FE0201FCFC010002FEFD03FEFF0102020202FF0003FDFF00FFFEFDFCFD00FCFF02FF0100010401FE0100020603FE030202FC03FD02FE01020000FFFFFD02FDFDFFFF01FE020200,0301FDFFFFFF020201010103FEFD0300FF02FC020001FFFDFDFF03FF020000FDFC03FE020302FE03FDFF02FD010301FC0101020003FEFDFFFFFC02020002FF02FD0203000203FEFC030001FD0100FCFD02FD01FC0103FD01FCFD00FD0304010303FEFEFFFEFC0102FFFE00FD03FFFDFC030203FD02020102FF0000FF02FD01FD,FF0200FDFFFCFFFF01FF0202FDFD0100FCFE01010000FF0003FF030302FFFF02FB02FDFFFD0303030102FCFFFD0100FC0200FCFE02020300FFFD02FE00FDFFFE020003FFFEFF00FE01FD01FE02FEFC03FC02FE01FBFFFFFC02FCFDFEFD0301FD0000FCFEFD01010301FD03000003FFFFFF0201FF030103FFFF010003FF00FDFE
,FE02FC00010401FC02FDFE0503FEFDFDFD0301FD0103FC0003FCFC01FE03FEFC010000FFFE01FFFFFD00FD02FC00010102FFFCFD00FF00FEFF01FCFE000103FF0102FDFF05010101FE00010301FEFDFE00FD00FC00020103FE04FFFD010102FEFEFD01FCFEFF0101FE02FE02FEFE01FF02FD00020300FD0001FDFD0300000200,FFFEFF0303FF01FE03FEFEFD030301FEFDFC03FEFEFEFEFF01FE0003FE010100FE030201FDFC010000FF010200FF01FE00030000FCFCFE01FC0001FF01020000FEFE0002FF02FFFF01FE04000203FEFDFFFEFFFFFCFF02FE02FEFB0101FFFFFE0203FE0202FDFD0102FF0202FDFD03FEFF0100FF00020102FD01020100FFFF03,FF0303FDFF020102FDFF00FF02FDFE00FE0302FE030102030302FDFFFDFDFFFCFD02FD0003FE010204FE02FDFF02FEFEFF010002FD0001FE010201FFFEFEFD03FD0101FE00FB000301FFFA0303000000FF01FDFD01FDFD0202FE0302020001010300FEFDFDFFFF0302FF010201FCFDFEFD02FDFEFE0100FEFD040200FDFEFF02,FC00FEFC020303020301FF0003FDFEFF0202FE00FF0401FE03FE000401FFFD0100FD010103020202FE00FEFEFDFDFF02FFFD03010200FD0001FE0001FE0300FE02FCFF03FE03FDFE0204FC000103FEFE0100FE03FF01FD02FEFD0001FFFDFDFD0200000302FFFE02FD0202000100FDFDFD000001FC01030101FE02020102FD01
,01FEFDFCFD00FC00FFFE0203FF0301FFFDFEFD01010303FF01FD0301FF01FFFEFFFDFFFDFD0301010001FE0204FC01FC030001FC02FF02FFFC00FC03FCFF03FE02FF01FF02FD030200020002FFFDFF02FEFD0303FE02FD0300FFFC030101FEFD03FC00010102FE04040201000200FFFE010302FF00FEFFFC0301FD0402FDFF03,FD00FDFC0402FEFD030103FE01FDFFFDFD03FC00020103FFFF03FF0200FF0200FF00FE000203FD03FC01FD04FE030301FD01FFFCFEFFFE00FE0303FF0000010001FD0002FE0102FF03FCFC03FCFFFE0301FE0301FEFEFD0200010301FC010300FE01FD03FFFFFC01FF0003010000FF030201FC0002FF02FE01FFFEFEFD0203FC,02FFFC01FD0002FF0000FE02FEFE03FE00FFFFFEFEFD01FDFE0101FD00FBFE0302FC03FE00FE01FCFFFEFEFF02FC00FF030103030103FCFCFFFF02FD0300FDFE03010001FF010003FDFF0201FE03FC020200FFFF0205FE02FD00FBFF01FE0100FF02FFFD0102FFFFFFFDFDFDFDFEFC0101020200FFFF0202000200FD0000FC02,FE00FC00FF03FC02FC000103FEFC0101FCFE00FC00FD020303010000FF01FF00FE0103FEFE00FC00FD01FE01FC000203FC00FD030000FC02FCFDFF02FCFCFCFDFFFD030102FD0402FF020101FF030201FD02FFFFFEFEFD000103FC010304FFFEFEFDFE01FEFD010201FE000003FC0302FFFEFEFD03FC00FC02FFFF0300FEFD03
,FF02010200FD0202FC02FEFEFEFC02FC00FFFD00010301FC0102FC010400010101FF0102FDFD00FE0500FF0000FD03FD0302FFFE00FF00FE00FF020003FEFD03FCFFFEFCFE0001000200FF010302FDFE0101FEFF00FEFDFE04000202FD020300FEFDFD02FDFFFCFE0000020002FE030003030002FF00040104FF02FEFFFDFF00,0103FD00FFFEFDFF0003FFFEFF00FEFDFF0001030300FD01000000FD03FF02FCFDFF0002FE010003FDFD01FF01020202020204FE030300FDFF0304FF01FD01FDFE0301FE010002FCFEFD0003FE02FEFE03FCFF00FEFDFDFDFF06FE000102FE0403FF01FC02FEFE02FFFDFE0300000003FEFEFDFF030303FCFC0202FDFFFD0001,FF00FF0003FF04FD00FF03FE0403020200010001FF020201FEFFFD01FD0202FD0002FD0001FFFE03FF02FD050102FDFD04FEFD010303FEFCFDFE03FFFF03FEFCFDFEFE040304FF03FFFFFFFFFE000402FE00020001FFFFFD0100FEFDFF03FE03FD00FCFFFFFEFFFDFD00FFFDFE0001FEFCFF0300FCFCFFFF030103FD0302FF02,FF03FCFE0000020100FF020003FC010301030101FEFF0000FEFEFF02010203FFFB00FD0003030400FB04FEFC02010301010303FFFD0201FE030102FCFE010001000201FE0401030202FC04FE0301FCFE00FFFF01FC04FD0200010303FEFC030202FD01FF02FEFF03000204FFFD0200FD010103FF00FFFD02FF01020300FDFF03
,FC02FEFE01FC02FDFF03FD0103FFFDFFFE03FE020103FCFDFE0200FDFDFD00FFFF0102FF0003FE00FFFDFE030103FDFCFB00FDFE01FE00FD020104FF000204FDFE010301FD01FFFDFEFE0203FF02020102FC01020001FDFE02FF000001FF0104FF03FD000200FE010002FE00FF030000FDFC04020102030100FCFD000102FC00,FF030003FCFE0100FFFD0002030202FDFD01FFFF02FE0200FCFDFEFEFEFE0000030201FDFFFF03FEFFFDFCFF03FCFD01FFFFFE0202FE000200FDFE03FDFEFEFFFEFDFFFE0201FE00030001FFFE02FCFDFF00FE030202FFFF0002FB01FDFEFEFFFDFE030102FC010300FD01FE0102020203FFFC000301FD0103FE03FEFF00FD03,0101FFFC0300FFFEFF01FFFF0002FE0201FDFDFC020200FD01040202FC0103FC04FE01FDFE000003FD0200040401FC0301FF0202FE0200FEFFFE0303FCFDFF00020104020101030303FD0300FF00FF00FF0200030302FF0002020101FD040301FDFDFFFCFF0003FD03FC02FF020101FDFCFF02FC01020201FCFCFFFFFD00FD02,FE0200FD0101FFFF0202FEFD01FE000100FE0002FEFC0100FEFFFD00FDFE020304020103FEFEFE02FC00FFFDFFFDFE0002FC01FF02FE00FD0102FC01FEFFFF0103FC01FD02FD01FB0300FBFDFDFEFA01FD0101FF0100FF0003FD00FE0103010100FFFE02FEFFFEFF0303FE00FEFFFCFE0003FF00FF0300FDFF04FCFF02FCFF03
,FFFCFCFFFE0201020301FDFCFF0103FE0101FF00FFFC0102FDFD0100FD00010202FE02FD03FEFCFD01FC03FD0100010301FD030200FFFD02FD00FFFEFE0000FF03FDFE03FE03FEFDFE01FDFF0301FC00FEFE03FD000203FCFE0102020200FEFD020000FE00FE03FEFD03010003FF03FDFD0203020002FEFD0203FF02FE01FD00,0002FEFD00030201FD0103000302FFFDFDFE02FFFE040002FFFF0102000201FB0201FCFE0103FFFD02FF03FD0301FB00FFFF03FFFE00FFFC00FF0101FC0300FDFFFDFEFC02FF0306FC000001FEFFFD02FD01FEFFFE0103FDFC000300FCFEFD0003FDFDFDFF02020200FE010100FE0000FC0003FDFD02FD01FB01FDFEFD0200FE,FDFEFD01FD01FD03FF010101000000FE0002FFFD03FEFEFFFDFEFF0200FD0103FD03FD03FD030001FE0103FD0003FD02FD03FDFF02020201FFFD0101030002FFFEFEFE01FFFFFE0202010302020302FE0202FFFE0103FEFFFCFE03FDFFFFFDFDFC0201FCFFFC020001FF01FF01FD010203FDFF030102FEFD00FE00FD01FEFE02,FD01FFFDFC030100FEFEFC0400FDFF01FFFD01FE0301FCFE02FDFEFC0103FE00FD0202FEFFFF01030303000301FCFEFC00020002FC010103FEFF04FE00000402FF01000003FFFD020203FFFE03FFFD00FE030001FBFDFDFD00FD02FC01FDFEFEFDFE01010101FD00FF02FE02FFFFFD0100020102FFFE03FFFDFFFE040200FFFC
,FD02FFFE0000FEFE02020100FF01FEFE03FDFF0000FD00FCFF0100FEFEFA0202FDFDFDFD010100FCFEFE00FE0201FDFEFF0202FE03FC01FF00010101FDFFFF00000000FC04FFFEFFFC000401FDFEFFFF02FE020204FD01FEFB0500020402FE02FCFFFD0202FC030001FF02FE00FF02FD0100FF00FEFCFDFE0001FC0301FFFFFD,00FF0200FEFF00FDFE00030101FCFDFCFC02FCFCFD000302FFFF02FFFFFC0303FDFD0201010303FDFD0001FDFD00010003FC01FDFDFD0300FF00FDFDFFFDFCFE00FCFF01FE0001FD02FD01FE0102FEFE0003FF000303FC04FEFC01FFFF0100FD02FE0100FD00FE02FFFD0301010000FF03FDFCFEFEFF040300FF02FDFFFBFD01,03FFFE03FF0301FF020004030000FFFD0201FFFFFF0003FC00FF02FDFD000301FC00000103FEFFFD000303FF03FD0001FE0301000203FE00FDFDFCFF03FDFF03FFFF030302FB0203FE03FE03FDFCFCFEFFFEFEFDFE020102FC01FD00030203030003FE02FE02FC02FC04FD0001030100FCFCFCFE00FEFFFD030400FD02010001,01020301010201FEFDFDFC020003FE01FEFCFF0200FEFDFDFE0003FFFF00010301FD0202020002FD01FDFFFD0102FF02FCFD0000FD03FCFCFD0303FD00FC0203FD0101FC0202FDFE00FEFFFCFEFD02FF020000010201FFFFFE02FC020301FE03FC030303FE0102FE00FE01FE01FD000300040203FCFE00FD020300FD0304FE00
,020101FF02FE04FF020203FF00FCFF00FC0300010302FF04FDFC01FF04FDFDFEFE03FD020103FC00030201FDFD03FF01FD0202FE01FE0201FEFC0203FC0201FD01FEFFFC040401FE03FCF8FFFD01FD040201FFFFFF00FEFF0001FCFEFDFFFFFDFFFD03FEFFFE0203FF020000FEFD030302FD02FE01FF02FD03FF01FD01010201,0000FCFCFE0001FDFFFEFD0000FE0200FD01FFFAFC0303020203FDFD0203FD00FBFDFE000302FFFF02FF04FDFCFDFF0101030303030302FF02FE01FCFDFEFBFDFE0004010003FF010401020203FF01FE00FE01FFFD04FEFDFFFF00FDFD01FDFD0203FD0302FD000003FE04FD00FD00030303FE04FF01FF0303040304FDFC00FF,FCFF03FD0003FE03FD01FCFF0002FCFE0200FCFF00FDFEFDFCFD01FD00FDFF02FB00030002FFFE020001030200FD0303040200FDFE01FCFDFD03000003FE000002FCFD00FE00FEFDFCFCFF01FE03FDFEFE0203FDFDFEFD010300FC00020200FD01FFFCFCFF0000FF0003FE03FDFE03000101FD02FDFEFEFE000302FCFEFDFFFE,02FC03FF0202FEFD00FCFFFEFCFEFEFF03FE03FD01FFFEFEFD020001FEFCFF01FFFFFDFEFE000101000000FD01FE0203FE0100030301FEFD0203FDFDFD03FE0001FD020101FD0002FFFDFFFCFF000002FE00FF010204FFFEFFFFFEFE03FF00FF0103FF00FDFDFC01FEFD010300FD030003FDFD020200020302FF010001FE0001
,01010300FDFC04FDFEFEFDFE00020200000103FCFF03FE01FC020002FFFD01FCFF03FFFD00FF0001FD01FE02000001FE03FC01020402FD03FC00FFFF020102FDFFFEFDFCFF020000FEFF0103FE01FEFE04FF010201FDFFFFFD0200FF04020402FFFD00FDFCFF030002FFFF03FD03FC02FC01FDFEFE0304FFFDFEFEFD04FDFDFD,00FDFDFE02000300FF01FCFEFCFFFF0200FF020103FFFFFCFE0000FFFDFE00FFFC02FD01FD030303FF0201FDFD03FD00FE0002030201FD02FF000301FE01000003FFFEFC00030300FD0402FDFFFFFF010100FEFEFDFCFD0003FE00FD02FD02020203FCFDFF030303FDFDFEFEFC0202030200FFFE02010100FFFF01FE0301FEFF,FFFE0102030204FDFE030003FD00FD02FF000000FF020200010002FF0301FE00FE02FF00010000FD01FEFD030401FE01FDFE0302FCFFFD03FFFF00FE000101FD03FFFFFC020203FEFD01FC0102FE0302FFFE00FDFFFDFCFDFE01FFFC0203FD03FF0102FF0303FE020101FDFD000301FE030303FD000103FFFD0100FFFD01FCFF,0103FDFDFCFCFB0201010002FE00FD02FEFDFE02FEFEFC0300FFFC00000201020702FDFE00FFFDFF030100FDFEFCFEFDFD03FEFF0302FDFE01FD00FFFF010102FE020303FCFF02FF01FD0303FEFF0301FE0101FB02FE0203FF0103FEFDFF010300FF030104FF0200020403FF010204FC0304FF020001FEFDFE0201FEFE0403FF
,FC03FC03FF000401FF02FE05040104FCFD0003020202FDFE010203FD04FE01FF0502FF000003FCFDFF0206FE02FDFF00FD02FFFC010102000301FC03020301FEFE0202010402000201020402FCFC00020202FE05000001000101FD0202FFFC0201000002030201FCFC01FD00FD00FDFEFEFF0201FFFFFF03FD03FD02FFFA04FF,02FF00FDFDFF020303FEFF0400020001030301FE0100FF02FF01FF030002FCFD0101FF01FEFCFEFDFAFCFF00FC0301010201FD0000FEFEFF02FE0002FEFE02FFFC02FDFC01FDFD030003FF02FCFE00010002FFFCFDFF0003030202FF04FF05FE0303FD01F8FEFC0303FE01FC03020201FEFCFD00FF000102FF01FFFDFDFF0202,FEFFFE020301FF02FEFE000101FE010202FFFF01020301FD00000003FF0202010201FF02FE010100FF02FFFD01FF030002FFFD03FDFEFF02010202FFFDFE0201FF0304FFFFFDFE00FD03050003FD03FF00FE01020200FDFF020200FEFD020203FF02FD01FE01FCFE00FD00FD0001FD0002FE00FE0201FD0304FE0301FD0302FE,0103010002FD03FF010402FE02FF0001FC0203FF0103FFFD01FE01FC02020003FE00FFFD0102FF00000201FF03FDFEFF00FCFF0000FCFE02FFFE01FE02FF04FC020101FC000202FF020202FE01000003FE030102FF00FF02FEFEFDFF01FDFF03FFFF0001FC00FE0000FEFC0303FDFF01020001FE02FF020200FE0004010300FF
,FDFEFFFD03FDFCFFFCFD010300FF020301030000FDFD01FFFE03FFFC0100FC00FE00FDFC020300000500FD010201FEFFFE02FCFE01FDFFFE03FE02FEFFFCFE01FF00FEFEFFFD020201FEFE0201FDFDFFFE01FF0100000101FF00FD010202FF030101FEFFFFFEFCFF0201FC000100FE0000FE020303FFFF0002FDFDFE02FFFDFD,01FF010000FFFEFCFEFFFE02FE01FF01FCFCFDFD03FE010202FD0301FC0103FD0101FCFEFD0303010003FD01FC00FC020002FEFE01FEFEFD000302FEFCFCFF03FE0202FE06000202FE0402000201FD00FCFFFEFF0200FD0301FF000100FFFFFDFC03FFFCFB010001FCFEFEFD03FF0003FFFCFEFF01FFFCFEFE0303FE04020103,03FEFE02FF02FA01FC00FFFBFD0106000403FD0402FE0402FFFDFD01FFFA00FC0304FE01FF02FE0406FE0501FDFD000202FFFE02FDFE00FF0204FE01FFFFFB080502FBFCFCFF01FFFD04050003020302000005030202000003FE07FD06FDFCFD0201FCFFFE0201FDFD08010602010401FF020603040000FD0401FA0005010200,02FD01FE00FC00FDFF020103FEFD04FF01FC030101FF0301FD0303FEFE030302FD03FE0203030300000002FEFDFD03FE0100010200FD00FEFC000000000202FE010300FFFFFD020001FE010101000103FEFD01FCFDFDFC02FDFDFCFF000403FF01FF01FCFD02FDFFFFFFFDFEFF030100FCFEFD01FF00000101FF00FF0402FE02
,FDFE03030102FDFDFDFDFFFEFD0100FFFF01FDFF01010102FC01FEFCFE01FF0202FCFE02FCFDFE02FE0003FD03FDFDFC0202FFFDFE02FD03FDFF03FDFF02FCFEFFFE000303FD01FE02000300FD020103FDFC0100FEFE0301FC0205FCFD040102FD03FDFF00FD0301FD03FC0204FEFF00FC010303FC0302FDFF0300FFFE0401FF,000000FDFCFDFD00FE01FF00FEFDFE02000201FCFF02FFFFFF02FF0001FF03010301FCFEFC02FF00FDFEFDFD02FD010000020003FDFFFFFDFDFEFD01FF03FEFD02FF04FE000301FF01FD0200FD03020102FE00FEFE02FDFFFEFEFCFDFD03020003010202FFFCFC010304FD01FEFE0402FE0200FD00FDFF01FEFE0102FE01FD03,FF020002FFFDFF0301FFFFFFFD03FF03FDFD010302FD02FDFF0302FC03FC03FCFD00FF030203020002FC0201FFFDFEFDFDFEFFFFFEFD0102020100010201FDFE03030102FCFFFEFF0302FF01FF030101FEFFFEFF03FFFC0201FB0201FDFE03FF01FF00FD01FC02FEFEFC0003030200FEFCFCFEFDFE02FCFEFE00FD01FD0203FE,FD0001FEFE01FC03FC0102FDFDFEFF02FEFC00000001FC0301FDFC01FE00FDFDFD0003000003FF01FDFF00FDFF00FCFD0003FE0100FC02030103FF02FDFFFE01FD020301FFFEFEFDFF00FDFDFEFEFF010103030000030303FD00FFFFFF04000301FEFEFDFF0100020301FEFF02FF0201FDFE0202FD00FC0300FE03FDFEFE0100
,FEFEFCFE0103FDFD00FEFEFFFF0101FD01FEFEFFFD00020300FD00010200040406FC0001FF00FEFE03010302FD03FDFD0803FEFFFF02FD000100FD03030202FEFD01FEFEFB01FD020200010103FEFE0002FDFD030100FEFF0601FDFFFAFFFEFEFEFF0105FDFE0000000404FEFCFD0203FDFC05FE02FF0400030304FCFC03FF00,FEFCFC03FD0203FC0303FCFE03FF00FC010201FEFD020001FC0003FF0001FF00FF0104FEFD03FE0001FFFFFEFEFDFEFD000203FD01020002FE02FD01FD01FF0203FF02FFFE00FEFF020000FDFFFF000104FCFC02FF0201010300010200FDFE02FEFC00FC0300FCFC0403FDFE02FDFEFC0103FEFDFC030001FD01FDFEFFFF02FD,0201FEFFFE03FEFDFF020303FD01FF0102FC00FDFFFC02FF03FDFDFF0000FE03010300020100FCFFFBFF000101FC02FF0201FE0300FF02030102FFFE010302FC0201FDFD0102FDFE0101FE030203FF0003FEFC01FF01FE0101FFFC02FC0303010403FFFFFD00FCFE0302FD02030103FC0101FEFF03FF020301FFFD03FF020000,FCFFFDFCFF02FF00FE04FFFDFCFF00FC02FE0302FC01FF0203FE0101FDFF0003FDFD010200FDFFFD05FD0202FC0202FFFC020102FFFDFFFE00FDFFFCFEFEFE0100FEFEFEFFFEFF00010002FC01FC03010100FCFF0302000101FC020003FF00FCFE0300FD02FEFF020203FEFEFF0303FFFD00FF0003FE04FEFD00030200010203
,01FE01FD00FE04FEFD000003010300FFFDFE03FFFDFEFCFD010203FE04FD0200020202FD02FDFD000303FD0003010100FD02FF03FEFE0101030300FC020304FDFD020102FF00000002FCFE000300FF00020001FCFDFE03FDFF02FD01FFFF02FE020002030202FFFFFEFCFE03FF0200010300FD02FC03FCFEFE02030402FEFEFE,FC0300FC030201FEFFFEFE02FFFC0203FD0302FFFC01000003FD020402FFFC030801FEFDFEFE03FF0203FC01FF010101FFFF010001000001FCFFFFFCFBFE01FDFE0300FE0301FEFC020402FD01FEFD0101FE00010000FD0204050000FC010001FF0101FFFC03FE0202FE00FFFE030101FE03FFFF01FF00FFFE00FDFDFF0303FC,FC0001000003030101FCFDFCFE03FFFEFF01FEFD00FCFC030001FEFE0300FF05010002FCFC0300FEFA00010300FE010301FFFCFEFEFD0002FEFF00FF01FDFD0300FEFDFCFDFBFEFC02FEFD03FEFFFCFEFEFDFE01FC0103000101FC0201030203FF0001FD02020002020303FF01FCFE01FD00020202FD03FE03FCFD010102FCFD,01030200FCFE0300FE000003FE020203FE000402FE04FE02FD0202FD0003FD0201020000FF00FEFF0200FD030000FEFC01FDFD00FF02FE0302FFFFFD020103000103FEFE0101010201FEFF02FC020203FD0202FC05020101FEFD02FC01FD0203FC03FE01010303000201FDFE0201030000FF030200FE0300FD0000FFFF010100
,FF000103FFFD00FC01FE00FFFD0302010101FFFF01FE0400010101FC03FDFF02F8FEFDFEFFFD000300FE0401FF0300FEFCFDFFFFFFFD00FD0201FC010202010203FDFF030204FDFFFCFCFCFDFDFCFC0000FEFD020207FD03FFFBFE0300FC03FF0201FF01FC02FF00FDFFFEFFFE020203FEFDFE00FC020100FF0001FF04FDFC01,FFFE0002FE00FD02030201FEFF0103FDFE0000FDFDFF03FF020100FC0302010000FDFF02FFFC02FF050100FE0402FF0303FE0103FFFE0300FFFC0002FD02000101FDFD0300FC0401FFFE0203FE00FDFDFD00FFFF0000FEFFFC02FF0302FF02FE00FDFC0100FD01FD0003FFFF0202020002FC03FFFFFF0201FC0001FF05FFFDFF,01000302FDFFFCFEFD03FEFDFEFFFD01FFFC01FF0302FEFD0102FF02FD01010205FC02FDFFFFFCFFFEFC03FEFEFEFDFEFCFD01010300FF02FD0002FEFCFE02FFFDFE0200FB0001FDFFFE0203FF02FFFEFD01FE0205050101FF01FB03FC0001FE00FFFE0400FF03FC0000FF03FE03FEFFFC03FD0401FEFFFD0002FD0301FFFEFD,0003FE020202FD0302FF03FD0000FF02FE020304010001FE0201FCFDFE00040101FEFEFDFDFC02FD00FEFF00010203000202FD02FDFD010101FFFD0101FE02FFFFFD00FD03FC00000000FCFDFC03010101FDFCFDFDFEFF0200FC0201FFFDFE01FF01FE030001FC0102040002FE00FF02FE0203000300FF02FD0101020001FD00
,FF0301FD0102FFFD0003FEFE03010301FCFDFC02FF0001FEFD01FD01FF0102FF03FDFC02FEFF0201FD0401FF02FF01FDFD00FD00FEFDFEFD0304FF0000FF030101030002FF00FD03FF02FC03FE0203FF03000103FF00FD0102FF03FDFF0202FF0203FF00FD01FE01FD0100FDFF0104FCFE0000FC030103FDFE0003FEFE0402FF,0201FFFF01FE02020201FE0202FD03FEFF020000020203030101020202FD0103030103FCFD00FEFC04FC020100FC00FE01FC01FDFDFEFF020201040103FFFD0200FCFFFEFE0201FFFFFCFF0201020400FFFE02030200FC01FD03FDFFFE0301FFFE00010303FFFFFD01FC01FE0002FDFC0302FD010101FD01FEFD00FDFDFCFFFE,FDFF0302FEFD02FC00FCFF040303FEFCFC02FDFCFD04030303000000FC0003FE00FCFC02FD00000201FFFFFEFF0000FEFF01FFFDFDFCFE0100FC00FDFD02FE01020203FE02FFFF030204FDFF040002010303FD0200FE03FCFB0204FD00FC030203FD0202FB03FF000201FEFEFD01FFFDFF00FE0302FD00FC0202020000FCFF03,FE03FFFC0000FFFD02FFFF0300FEFF00FDFFFCFE01FD00FF000301FFFEFE0002FAFD01FE03FDFE0102FEFFFFFC0201FDFC02FF0001010103FE04FD03FEFFFDFE010000020002010302FFFCFD00FCFDFF01FE02FEFEFF02FD04000200FCFE01020100FE01FF03FD03FF0001FDFFFC05010101FFFE03010501FFFF03040002FFFE
,FEFCFF01FCFD0201000302FDFDFDFF0203FC02FD00FE010001FF0001FE03FC03060101FEFF01000103FFFEFE01000103FDFE02FFFEFCFEFC010003FCFC02FF020301FC0102030003FFFF030000FEFD0400000202FF0003FC0305FE00FE020202020200020003FFFDFE0200FE00020402FC04FFFDFDFD00FC0304FD0101FE0302,01FD0103FEFCFF010300FF02FDFD01FD01010001FF01FF00FF01FFFD0103FCFEFD000102FDFDFE020202FC0200FDFC03FBFEFFFF0103FE02010201FD020102FF010002FF030101FFFD01FDFD04FEFE02FD0101FCFE0101FE0200030100FEFE020303FEFF0300FD00FF00FE0202FD0201FF020302030100FEFC01FCFDFD000101,00FCFC03FC020400FE02FF000002FE0102000302FD03FFFCFEFC00FCFD03FE03FD01FDFCFDFF0001FEFDFF02020002FDFEFF0304FFFC02FFFF0300030201FDFF03FE0303FDFD02FF010301FE03FDFE02FEFE000002FE00FD03020201FE0402FDFEFEFD02FEFE03FC030302FC00FE000003FDFF0302FEFF0003FEFCFD0003FEFD,FEFDFE02FDFE00FD0102020203FEFEFFFE02FF0300000303FE0203020102FF02FD0002FDFF0102FCFDFEFDFD0200FE01FFFFFD00FF02FEFF0200FF030203FC010303FE0302010203FEFDFDFD01FF02FDFF0303FD02FE00FD0104FF01010200FE030302FEFD02000202FF0002FEFD03FEFE0304FCFC0302FF02FD00FE00020200
,FFFF03FD01FE020202FE0000FF0202FD010001FEFC02FF00FD0001FF0001FF010001FFFC010101FD0002FF030002FF00FDFEFCFDFDFF01010200FF00FF0102FD0100FDFF05FD030402FDFDFEFEFFFFFEFEFFFD03FEFE02FE0202FFFE0101FDFFFF0200FFFDFE000302FF01FE02FE04FDFC0401FFFCFFFD01FE0001FEFD0101FD,FF04FE03FD0005FE03FE0002FDFE01FC0203FDFF0101FB03FE030103FDFCFFFFFF01FC02FFFDFDFF01FEFE04FE03FF0201FCFF00FEFDFD02FD03FC00FE03FD03FDFD000200010103FDFC0102FFFD030300FCFF00FEFDFEFFFF0402FEFC00FB040203FC01FB00FFFC03030401010002FC00020301FD00FCFFFD00FE0202FFFF01,FC00FC03FFFE0303020101FFFCFC02FC00FE0302FCFD000101FFFE020300FFFCF9FDFFFDFFFEFFFDFEFEFFFF010100010300FD000202FDFF000200FF0001FFFE03FD01FF02FE02030001FFFEFCFE0100020201FFFB02FF01FDFE0302FF03FC0100FF00FFFF0002FE00FDFE0201020000FD00FF0101FD010301FF02FFFFFFFEFE,FEFD0201FFFD02FE01FE010200FF01FDFEFE03FE01FE01030202FEFEFF0003FE01FEFEFE0200030203010002FE02FFFF0103FE01FDFEFDFCFD010100030301FFFFFE0001FDFF03FEFE01020203FF0101FF02FE03020403FF02FFFEFE02FD00FFFF030301FEFFFCFF0101FEFF000300FCFF01FD02FF01FF03FE0301FCFC0103FE
,030001FD0203FEFC000202010303FEFFFD00FE01010101020303FF0100FD02FEFE03FDFD0301FC01FFFC00FDFF02020003FF0301FEFE0102000003FFFE010100000103000200FD0103FC05030303FD0103FF00FF02020003FF00FF03000003010200000001FE0203FF0002FDFEFCFEFCFEFEFD0303030100FF0000FE02FE0002,FEFDFE0201FD02FD00FC00FD0103FFFC03010200FE0103FE01FD02FDFD010003040204FD0303FFFD0100FFFE0003FC0206FF02FFFF01FF03FDFE0204FD02FE03FDFD03FC04FF0102020201FFFD01FF00FF01000000FD04FD02FEFFFF0103FD02FD0000FCFF00FD00FFFE00FF01FDFF0001FCFE010301FD00FE01FEFF01FC0401,0201000102020100FFFEFFFFFDFCFFFFFDFDFF00FEFFFE03FE03FE01FCFBFD000003FFFFFD010000FD03FCFD020000FC0100FD0303FDFD02FEFC0101FD02FC0202FEFFFC04FDFEFFFCFFFA0202FE0001FEFFFC0100010100FD02FC00FEFF04FC01FCFEFF00FFFD0201FFFDFEFEFF0201FF0101FEFF03FF0002FEFD0403030103,0101030303030102FF0200FD030303FE0000FD00FEFF03030202FDFE0101FD0303FD0100FFFCFE0103FDFDFE0202FDFEFD04FF0101000102030102FFFFFD02FDFE0001FDFFFCFDFD000200FEFFFFFFFD00FE0300FBFF03FEFD03FCFDFE0202FD04FD0004FDFEFC02FC04FE01FE00FFFD01FEFEFE02030300FFFF02FFFF000103
,02FCFFFE01010402010103FFFFFCFDFD01FE01FFFE03020100FFFFFD03FD03040202030201FF02FDFEFEFF0100FC0003FF020003FD01FE01FE0102FD00FDFDFDFF00FD02FD01040103FD01030102FC0000FE00FDFBFE02020000FF00020404FD020200FFFE00FD0003FE02FE02FEFE02FD000200FC00FFFFFF01FE010203FD02,010203FD03020200FFFFFE00FFFCFEFE01FE000000FD0102FEFEFE0100030100FFFD04FD0202010200FEFF03FE0001FD0102FCFD02FEFD0201000003020303FF01FFFF03040602FC0000FFFE00030002FF00FF0100FE0203030001030101030302FC000203FDFC0200FEFEFF0301020002020100FF0000FCFDFE01FFFE020003,01FEFD0101010002FE03FE02FE0103FD0200FE03FF0102FCFCFE02FF00FD01FD03FDFE0000FEFFFEFF00FC03FF00FD0302FD0202FD0302FDFC01FDFCFDFD0000FFFFFD03FF03FDFCFE0302FFFF0100FCFD02030003FDFF0103FEFEFEFDFFFEFDFEFDFEFD0502000004010103FE0101FFFD0102FE0102000100FE01FFFDFFFD01,FCFE00030103FFFFFC0100FF00FCFCFDFF0101FF02FD05FFFD0200FDFE0002FFF90202FFFE02FE02FE00FFFCFF02FF00FBFE00FEFEFEFCFDFFFD0202FF02FEFD0303FD04FFFF03FEFD0300FFFC03FFFD0304FD03FF050000FDFD04FC0101FFFFFFFFFDFF00FDFC0002010301FEFD0000FE00FCFEFC0003FCFC02FF04FFFF02FE
,010303FCFD0003FC0201FFFDFFFD01FDFC01FFFFFF0000040001FDFFFD03FFFEFD020000020202FEFD03010302FDFF02FE04010003FF01FF010302FFFDFD01030103FFFEFC01FFFF00FEFF02FF00000301FDFEFC0302000003FE03FC03FE01FEFD02FDFD0001FFFD0300FFFE03030103FFFDFFFF01FEFEFE00FD03FDFF0402FD,00FFFD03FE0102FD0003FD0100FFFD00FF03FDFCFEFDFFFD0003FE0100FC02FD0200020302FDFFFFFFFDFDFF0301FD00FEFF0004FCFCFEFE02FD01FE02FEFCFD0300FD03FEFB0102FD0204FEFCFD02000201FC00FC00FFFEFF02050000FEFE0301FCFF0300FFFDFFFEFC0102FE0201FF02FE030000FEFFFE02FDFD01FD04FD01,02FE00FC01FF0003FD0203FF02FE03FE0000000102FF02FC01FE01FDFE03FEFF0203FE0002FD030304FD01FD02000102FDFC00FC02FF0300FDFFFD00FE02FD0202FEFE0002FD00FCFEFC010100FFFD00FF0001FCFF04FE00FF02FCFE03FEFE02FD00FD010103FF01030102FDFFFD010302FF02FE03FCFE01FEFCFDFF02FE02FE,00FDFF020000FDFDFDFC0103FD00FFFFFD0000FE0200FDFEFFFF00FD01FD03FD030303FC0002FD01FFFEFF01030201FDFF03FC020100FF0202010501FC00FE0003FD0000FEFE0201FDFD04FC030100010301030204040101FDFF0003FF0201FF0002FE02040100020103FDFF00020000000001FDFE0302030200FEFDFD02FDFE
,0102FD0100FEFFFD00FFFE0203030000FF01FEFE0003FF0303FF0303FE0200FCFD00FEFDFE01FD03FEFD03FD0001FC0203FEFDFEFD00010202FD04000300FFFE00FC03FD00FCFF03FC01FEFE00FC02FD0300FF00FE00FFFB0001000002000200FF0201010102FE00FF010301FD00030103FDFFFE02FDFFFEFDFFFFFDFEFE0000,01040002010002FDFF0402FFFF03FD0203FCFFFCFEFDFD00040003FF020002FA07FEFCFE0001FE03FE020104FDFF010104FF04FFFDFD030001FFFE03FDFF020102FDFE020405FD0100FF00FE020002FEFEFFFE0000FF030203FD01020103FFFF0203FD01FE02FEFE00FDFEFFFDFDFDFFFD01FE03FEFFFFFE0205FD030005FDFD,FE01FDFCFEFF00FDFD03FC010101FD00FEFF01FFFDFE02FEFF00FF0000FFFFFE0101FFFD03FE010100FE03FE03FEFC01FE00020201FE03010103FFFEFD0200FDFD0101FD02FC000002FC020301010302FD03FCFF0105020100FB04FF01FEFD04FDFFFCFC00010102FFFFFFFF03FEFD00FD0100FD01FF010001FF01FE010402FC,00FE0000FDFFFFFE01FDFD0103FFFDFD0201FDFE0201FDFD03FDFE02FF010202FFFF01FE010102FE03FE00FDFDFE00FD02FDFDFEFD00FE0202FCFFFE000004000302FE0002010101FD00010103FE0200000103030002FFFEFF000000FCFD0300FD0201FDFE0102FEFE02FC0002FEFF0001FE020000FD0001FCFF03FD010203FE
,0000FFFFFFFE010003FE0303FFFF0002FFFD00FD000001FD0104FE01FEFC00FD0403FF01FCFDFEFFFEFF02030002FEFDFF0100FDFD030201FE050000FC03FDFD0101FEFE0006FDFEFDFD03000001FFFF0404030401FF04FDFC00FFFE0302FFFD00FFFF020002FCFEFF000002FE00FF01000102FF0103FD02FC02FD03FF020000,0302030100FDFF0101FFFE04FF0301000203FF020100FDFE03FC02FF00FEFF0105000201FDFDFDFF0003FE01FCFC020003FD00FE02FFFEFFFC0200FF0303FFFE000204FEFFFE0401FEFD00FE0102FCFDFCFF0302FF010202FF01020003FD0101FEFEFE00FEFE0300FEFDFEFD0001040103FCFB00FFFDFEFEFF00FD010000FEFC,0201FDFDFDFE000002FE020103FF00020200FE01FE01FD0002FD0303FC02010300000001FE01030301FFFFFCFEFE00FDFCFE00FE02020001000201030303FDFF0200FC0200FD0301030101020002FE0301010003FD0200010004FF0003FF0003FDFE0101FEFFFE00FEFE0302FF0001FE01FD0103FFFF01FE00FD0000040200FE,FDFF010102000102000001FEFC02FF0202FDFE00FD0300FD030002FFFC04FEFC0303000200FDFCFD0402FE030002FE03FFFF030200020300FD03FE00FEFD0300FDFEFC01FDFDFE000003FEFDFE000001FF0002FE02FDFDFF00FFFF00FD0004FFFD010103FDFFFD000203FDFEFD010203FDFCFF03FEFDFFFE03FF01FDFD0303FC
,0402FCFDFFFEFD02FE0000FEFFFF0300FFFDFC0302FCFCFFFCFCFCFFFD00FF010403FDFCFEFDFFFFFC010100FE010203000200FE0301FD03FF030200FD00FDFC04FEFD0108FB0202020302FDFD010100FEFEFE020200FD0201000200FF0002FF0301FDFD01FD02FDFE00FE030102FE03FFFE00FFFF00FE01FEFFFE0103FE0003,040103FC01FEFF03FEFD00FFFDFE0101FDFFFF01FEFDFE01FEFCFE03000101020002020103FFFEFF02FEFFFC02FE00FDFE03040003FFFD02FC00FF0300FE01FD010000FC0605FC03FCFF040101000101FD000101FCFFFF03FBFDFEFE0003FC030001FB0103FF02FEFF01FEFFFDFFFE02FFFEFEFE0301FEFF00FE03FC0103FE02,00FDFEFDFF01FE030302FD0200FD020201FD03FDFF010201FD02FC01FF000000FFFF0202FF03FD020203010103FE00FD02FF03FF0100FE0103FE01FF02FEFF00FD00FDFFFFFB0203020200FF0003FE00FE0300FD010001FC030400FE0202020300FD0002FE0203FE0102FC02FF01FEFDFD01FF00FC010001FEFDFFFE040201FE,FFFC0102FF00FE0301FE0004FEFC01FEFCFF03FD0202FCFEFD030200FEFEFFFEFF0200FC020203000302FC00FE03FF0203010302FF0103FE00020002FE03FD03FE00FEFE02020303FE000303FF030002FEFDFCFFFEFF02030304FF02FD01FFFE02FE01FF0102FC030102FD03FFFFFD03FDFC0200FD03FDFE010102FF00030003
,FDFD03FDFCFD00010201000400FE020303FEFE02FEFE02FD02FEFD0003030102FEFE0101FFFC0301FFFFFF01FC00FC01FE0001FEFDFFFD00FF00FFFDFF00010301FCFF02FFFE03FC0000FD01FF0103000200FCFF0203FFFD020201020104FF00FFFC0200FFFE02FFFFFD01FE02FC03FD03FF030400FC030203FEFDFF00030002,FDFEFE01FEFD0400FC00FE0302FE020201FF0301FF01FD0300FD0002020100010101FE0002FF01FD02FEFE0101FEFFFF00FD00020100FFFE01FFFEFDFEFE0103FCFD02FD0300FFFF00FD02FF010101FEFE0103FF020001FFFD0302FD020204FE01FFFEFDFCFF0200FD030102FCFEFF02FF020002FF030202FDFFFE0300FD0100,FCFFFE0201FF010203FE0202010304000303FDFDFD03FCFF030202FE03FFFD03FD00030300FC0003FFFF020402FDFEFC0202FEFE0102FC00FEFC01FF0301FEFEFE02000201FE03FF02010302010001030204FE03FDFFFDFEFE0102FE010003FCFEFFFEFCFF000301FCFF01FC0001FEFF03030101FF03000104000203FFFEFD02,01FDFD030103FD010102FD0102FCFEFE01FD03FEFFFFFBFFFE0001030001FE0203FE02FE020304000100FE03FDFDFD01FD00010200FE0002FEFC00FF0201FDFEFC010303FDFDFD0202FD00FFFD010300FFFE00FF020101FEFEFE010000000003030200FE03FDFD00FC00FF010001FE00010101FFFEFEFFFC0100FD010101FFFD
,FE00FEFFFCFEFD0201FFFF020102FD0303FEFE00FFFD00FFFE000400FEFE030304FE0001FCFDFE0301FF02FF01FEFF0201FEFC020203FFFDFDFDFDFF01FFFDFE020002FCFEFB01040200FFFE01FF02FE01020201FF0301FEFE000402020000010001FCFDFD01FFFDFDFDFF03FD02FD0303020003000103FC00FE02FF00FE01FD,00FD0000FDFE02020001FFFE01000000FEFF00010004010002FEFEFFFF01FF02F702FFFF0200FE02FDFCFF02010000FDFC0203FFFDFF01FD01FF00FCFE01FEFC01000003FE0202020300FE0104FEFEFEFEFE0000FBFB01FC0300FB00FEFEFF0201030102FDFDFD0100FFFCFEFDFDFD0102FD0302FEFD0101FFFC0301FF030300,000101FD01FD00FD01FFFDFDFCFC0002FEFFFDFEFCFE04FD0000FDFDFFFC0004FF0000FEFFFF0303FE02FD02FEFEFDFD02FFFE000301FC0201000102FC03FDFFFFFDFC00FFFC030300030302FD010202FEFFFD030002FFFEFD01FDFD0201FD0103FCFDFE01FD03FF00FDFDFEFE00000103FF03FFFE010203FFFF0302FEFEFEFC,FC01FF03FEFFFF03FD00020001FD03FC0102040002000302FDFD00000203FE02FEFDFFFDFE02FDFD02FF02FF03FDFFFDFEFF01FC00FEFDFFFFFF0402FF01000102FDFF00FC0001FD00030302FDFE00FDFDFEFE000104FDFE01FCFDFF00FDFD02FD00000002FCFD00FDFFFF02FF020301FFFDFD01FE02FDFF0103FE02FEFDFEFE
,00020101FFFDFFFF00FD01FD03FE010200FE01FEFCFF02FEFC01FEFCFC03FD0102FEFFFFFD0102000201FF03FF000002FD03010203FDFE0200FFFFFFFC0300030002020200000200FCFD000300FE02030203FEFEFD0101FCFEFFFCFC01FCFEFDFE00FDFF000302FC00FEFEFEFD000300FFFEFF0100FDFEFDFDFFFD0303FEFCFD,FCFDFDFFFEFD01FCFE00FDFDFE01020300FCFEFFFE00FFFEFD0001FD0101FFFCFEFF01FF03FD03FEFFFEFE02FEFEFF01FF02FF030000FC020202FCFC0301FEFDFDFD02FC0200FFFDFC0100FE02FE0100FF02FFFF02030201FEFD0000FD0201010002030002FFFCFF0002FFFEFF00FCFEFF03FF0001FEFF01FEFE02FF04FDFE02,02FD00010003FE000207FEFD01020002FDFF01FA01FE00040203FF00FFFE020107070603FF02010703FC03FB0200FC0002FCFFFF020102000203FD050205000300FD06FFFF06FEFCFF01FBFEFD020A08FDFD000306FF0100020000FCFEFCFE02FE0301020100FD03060403FE00FEFC030202FF03030000020302FEFDFF02FD03,FFFFFDFE00FCFDFC0001FFFFFFFC04FFFDFCFDFE020402FFFD0101FFFEFFFE0001FD01FDFD0103FFFEFFFCFF0302FEFF010301FE0102FE00FC0104FDFF02020004FC010002FEFEFD020001FEFEFDFCFFFEFE0001FC04FC03FF05FFFEFEFEFDFF01020000FA01FC00010201FF04020103FE0202FC03FEFF00020000FF04FFFE02
,FE03FF03FF0201FEFDFD03FDFD020202FF0000FDFCFFFF02FCFF0201FFFE0001FD02FEFD0202FCFE01FFFD020101FCFD020003000201FFFC0203FD01000001FEFC0101010103FF010302FF0002FEFC02FDFFFDFD0102FE01FEFD040000FF0004FE01FDFEFF01FCFFFF02FEFDFC00FE03FFFF0101FD0003FFFD02000302FFFC03,03010100FC01FF020303FE0200FEFE0301FD020301FDFF00FFFEFF00FC01FE0101FD02FEFDFDFEFE03FE00FF01FEFF00030102FFFFFFFC010000FFFCFE00FEFF020200010004FFFCFFFD00FC030100FF030200FDFC03010301FF010000000301030000FC0001FF010202FDFF020003FD01FDFF000300FE020103FD03FD00FF00,FDFD02000300FEFEFF0002FF0302010001FFFDFF0301FEFEFFFD01FEFE030001FE03FCFE01FFFD01FCFF0000FFFDFDFD00FE0301FFFE03FCFCFF01FE03FEFFFFFE0100FF0200FE010201FEFEFEFE00010201FEFFFF03FCFD010002FEFEFFFF00FC01FD00FE03020204FEFDFE040300FC0200FDFEFFFF0200FD00FEFF02020300,02FEFF03FDFEFFFEFD000001000001020102FE03FFFEFC01FEFE02FFFDFDFF020303FF01FF02FF01FFFD020300FFFF030102FDFFFEFC0002FFFD02FF01FE02FFFFFDFFFD03FFFEFFFCFDFE030203FFFFFDFE000100FF00FF01FBFC01FDFE0000FDFDFC0002FD00FC0302FDFDFF02FCFE02030203FE000004FFFF02FE0201FDFE
,0000030100FFFFFF0000FF02FEFF01FF00FE050103FF050300FF0302FCFBFE0403020103FFFDFE0103FCFEFEFD02FF02000200FC010000FD0100F900FF03FD02FD0001FE00020003FD00FEFCFEFE02FC00FF020003FCFCFEFEFD0303FD00FFFFFD00FDFE01FFFF02FDFD0103020005FE0101000402FD02FEFFFE01FE0003FD00,FE03020202FFFFFFFF0400FDFE03FD02FFFDFD0100010203010101FCFEFD02FE03FF00000002FC0001FC0100FC000100050200FEFE0003FC01020101FFFF010301FF0103010103FC00FE0002FDFEFDFD0102FCFEFE030102FC01FF0102FD0003FCFF0201FE01FCFFFEFFFCFCFDFE0200FE02FFFDFDFFFE0102FEFC02FEFE0102,0003020202FE0403FE00FF01FE0200FDFE0302FD00FF0001FDFF03020101FF0102FF03FF0301FCFE01FC00020100FEFC020203FE0203FE0002FDFF000002FF02FF01FD03FDFCFD02FF000104FCFC000203FF02FDFFFFFE0000FD02010302FE0002FF010103FE03FD020101FC0200FEFEFC000003020000FEFE00FDFD020402FD,00FCFEFDFEFD02FF02040303FCFEFF00FEFFFDFCFEFD02FD03FE01FC0300FF00FBFD0002FEFF02FDFDFFFD0403FDFD000402000301FFFEFEFCFFFEFD03FD0001FDFF030002020302030004FCFEFFFC00020000FF0202FFFC01FEFEFFFCFDFEFE0300FF04020100FFFD03FE02FDFF03FF0101FDFC0002FF0102FF000404FEFD02
,FF040002000003FE00FF010403FD04FD0201FDFCFDFFFC03FF020001FF02FE00FFFFFEFDFE03FE000201000402FE000300000102FEFF030000FDFC02FE00020200FFFC030001FDFD0003FEFFFFFF020101FD0001FC03FFFC0102FEFE03030201FDFCFE0201030103FD010202030202FE0102FFFF0201FDFF0202FCFCFF040002,FF0103FE03000000010101FEFDFF030103FD02FF03FEFD03000304FFFD01FE01FC000302FD0101FFFD01FCFCFD02030000040102020002FC020202FD02020300FF0302020402FE02FF03FFFFFE0002FF020202020101FFFFFEFFFE00FDFFFF00FFFDFE00FEFE01FCFCFE03FFFD02FFFFFFFDFE02FD03FF010300FEFCFD00FFFC,FEFEFD0100FDFFFEFEFEFD02FEFE00FF03FD0201FC0301FFFEFCFCFF000300FF0100FC01FC01FF02FDFF03000000FCFE00010201010201FDFF020100FEFD000002FDFD00FBFCFD03FC0201010302FFFFFF01FD00FD0202FFFEFFFD02FE03FE0001FDFD0400FF0302FD03FC01FEFEFD0301010304FD02FDFEFDFF01FF000001FE,0302FD0103000200FE03FD0301FEFD020400FD00FE02020300FDFD03FE0200FE02FD02FC0100FFFCFDFE030303FFFE01010300FF00FE03FF010103FC010003FFFF0000FF0104FCFF000303040103FFFE00FEFD0100FDFFFF01FE00FE02FFFD03FF020302FD03FC01FEFF0202FF020300FDFD0202010002FD00FE03FFFFFDFD02
,03FF00FC00FEFFFEFEFF03FF01FFFD02FEFDFD040303FF00FF02030000FF0300FDFE020102FEFD03FDFF01FE02FFFFFFFFFFFFFE00FF030103FFFE01FCFDFEFDFF00FEFD01FDFE030002010103FE0201030100000102000300FFFF00020100FF0200FC0304FCFD03FEFDFF020002FD03FD0002FE0201FDFEFDFF0003FDFD01FF,FEFFFE00FCFDFFFE00FE0304000203010200FDFEFDFC03040302020001F902040000FF02FD02FDFD00FD0201FF000400FD03FD01FFFE01FCFEFD020301000100010100FD02FD040302FEFD0002FF00FFFE01FFFE040001000101FD0004FC0101FEFEFF04000202FDFE020302FCFD02FEFEFCFC01FD0104FEFF060302FFFEFE01,FEFC000201010100FF01030000FFFFFEFE00FF02FDFD02FF01FFFEFF01FE00030303FDFFFDFFFD010201030200FD0100FF0202FF04FDFE000203FD010100FD01FEFF00FFFD01FDFDFFFDFE03FEFCFEFE0202FF0003FDFCFD0401FE01FF02010300FFFCFE00FC0001FD0001030000FEFDFF01FEFD02FEFF010200030103040103,0301FCFC00FF0303FE01FE00FE0103FDFDFD02FF02FD0403FEFE030303FFFCFEFFFD00FEFE00FEFC030303FFFD01FDFD0300FC02FDFE0201000103FD03FF020303FF0301FCFC00FDFEFF00FD01010301FD0302FEFE010301010501FDFEFD02FFFD02FF0201FDFFFF0100040000FCFE01FEFF01FF0101FEFDFCFF0002FF030002
,FC00FC03020304000201FD01FFFEFE01FF010001000301FEFF0101FD0302FEFC02FDFE0100000102010100040000020003010200000003FFFCFEFE010101FD020300FDFF00FC0302FF0201FDFEFE010204FDFDFEFBFFFDFEFF02FF0100FCFC0200FDFE00FDFFFFFD010001FDFDFD02FE02FF030300FE0202030003FF0004FF03,0102010100FDFCFC0100FF02FD02FEFDFC0301FF0000000301FFFEFC00FAFE0100000101FD00FEFE000302FF01FE0201FE0201FE00FFFE020201FC02FE03FF0302000003000501FF02FDFFFC02020001FC02FF00FBFEFE02FF0303FEFE0304FF03FE0302FFFF00FC0001FC00FDFD000203FFFEFEFE0400FC04FE03020000FEFF,00FD02FCFDFD0400FE040303FEFD000102FCFF01FD0101FF01FDFCFCFE05FFFDFFFFFD03FF0302FC030201FEFEFFFDFC0302FF0401FEFDFEFEFDFBFDFD010102FE01FCFFFE03FD0402030001FE03FFFEFC0400FEFEFF0203FAFE01FEFF0100FD01FD01FD0201FE00FCFD0203FFFE02010000FD03FF01FE020102FE00FD030302,FD01030301FF00FEFDFDFDFCFD03FC0300FDFDFD03FF02FF0002FEFCFEFFFE040001FCFF01FF0101FC03FEFFFFFFFE02FA02FEFE01FE000303FD03FEFC0101FC00FFFF00FE00FCFFFFFF0100FC000303FCFEFFFFFE02FE03FC02FC03FEFE03FC02FE0003FD0303FDFD020300FE0202FD03FD030302FFFF04FFFFFEFF030201FF
,00FE000203FE00FD000003FDFF03FE010302FFFF000000FE00000300FDFFFEFCFE03FFFC02030400FFFEFDFF03FF000102FE01010004FDFE0201FD000301FEFE030001FD0202FDFC0201050203FEFDFF020002FEFCFB0103FE02FC03FD02FFFF03FF0303FDFEFCFE01FDFCFD02FD03030103FF0301FE02FFFEFDFEFCFF03FFFE,FF040201020203FD000301000101FC02020203FE0103FF00FF0003FD020300FDFC0103FC01FFFF02FF0001FE00FD01FEFF0000FEFF030202FE00FCFEFCFC030000FF00FF01FCFD020201FE030003FFFE01010202FFFD02FFFDFFFF0300FDFE03FF02030402FEFDFEFD0201FEFD00FE00030301FDFFFDFE030100FE0202FC00FD,FF01FDFE02FF0001FD0102FFFEFE0102FF00FC02FD0000FCFFFFFCFD02FCFCFE0203FDFE01FD0002FF020000000203FFFE02FF01000300010300010202FE02FE00000203FDFF00FDFE0100FEFF000202FDFD03FE0002FD01010101FEFEFE0302030100030301FE00FD00FDFCFEFF0003FD02FF00FFFF02FD00FE000200FFFFFF,FE01FCFE02FF0200FCFDFE0302FFFEFE010202FD01FE01FF0302030302000202FE03FF01FC01FFFE0203FE03FFFF040001FEFE00FEFEFE0001010202FF0000FE02FFFCFDFEFE0003010005020001FDFEFD00FF02FF020201FCFD02010100FD0301FFFFFFFE00FCFEFF01FF010101030103FE00FE03FD00FEFEFE000102FEFF02
,02FDFFFC02FEFEFF0103FE0101020102FD00040303FBFD0201FE020202FE000301FD02020101FF0202000201FDFF02FF02FF0004FEFEFE0000FFFDFDFE0003FF01FEFF0002FF030602FEFBFFFD0304FFFEFE0202FD01000001FF020002FD020300FC00FCFB0302000000FDFCFD0204FDFFFDFF01FE0204FDFD00020302FDFEFF,FEFEFEFEFE0300FC0301FF00FDFE03FC03FF010200FDFF0403FDFC0001FDFF000400FD03FEFDFF00FFFF02040000FCFDFE00FDFC00020001FDFCFDFFFE0000FE0000FD00FD00FE01FD00FE01FD0000FEFC01020303FD020000FD00010301FCFFFD00FE020003FDFC0301FFFC00FD03FEFDFEFF0101FF00FF03000002FE03FCFE,00FF0300FE000303FEFDFE00000203FC02FE010101FFFFFFFC0100010303FEFDFE020002FF0100FD02FD01FEFFFF0000FF00FEFEFD03000202FF01FDFEFF03030003FDFEFF00FD00FF0202FF0001000201FE0200FF0201FEFEFC020003FFFF010103FEFF00FD0003FCFEFFFC0100FE000300FE000300FE01FD00FD0201FEFEFF,FF0302FC02FF0301FEFEFE0402FFFF03FD0203FC03000000FE0100FF01FE0301010200FFFEFE02010200FE01FDFF0002FDFE01FE0200FDFFFFFDFEFFFDFD01010203FE0301010200FCFE01FFFFFFFC03030100FC02040301FBFE0001FFFF00010002FDFFFDFFFCFFFFFEFDFEFE02FFFEFE0303FD0101FFFF00FC02FFFF030101
,020202FE02FC03FFFF01FDFFFD0104FE0303FBFCFD04FFFCFD02FFFC00030302FBFE0002FC03FEFCFE0201FF020001FEFD0101FEFE010102FCFD00FFFC01FF0002FD0203020102FE020305000000010203040103010100FDFE0504FC03020202010303FCFD000202FD0400FF0003030100FD0300FDFEFC02FE00FF01FE020300,FCFEFCFF0103FCFF02FE000004FCFEFDFDFCFD0101FD01FC0300FFFD01FF02030401010301FF000204FDFE000100FC02030202FCFF02FDFF0300FD03FCFD0202FF01FDFFFAFDFEFE02FFFF0203FF0200FD03FEFDFCFD03FC020103FD0004000103FE030202FEFC00FDFF01FD01FEFE03FFFD01FF020003FCFD0101FFFF0201FC,FDFE0001FCFF030303FD000302FF01FFFD00000303FF010200030300FE02FF000400FD03FDFCFDFF00000001FF00FDFD020203FE000302FDFFFE01FF02FEFF01FDFDFDFDFDFDFDFF0202FC03000303FDFFFDFE01FD04FEFFFDFCFD00FD00FF000001FD000200FEFDFE01FE0202FFFE01FFFEFE0304FEFD01010302FF03FF0102,FEFE00FE0300FF01010301FC0003FE01FD00FF020303030103030302FF04FEFE00FC0000FCFD03FFFDFE01FEFE03FFFE01FD01FE00FEFF02FEFFFFFF0200000002FF01000001FE000203060003FE0000FFFD01040200000202FC030401FD000300FDFEFE0302030100FD03010302FF01FEFC00000203FC0202FDFFFE03FF0302
,01FDFD00FC02FF030204FF0302FE02FE0200FE0102FFFFFE000000FC020003FCFC0302010003FC02FFFFFF01FD0200FDFC03FF03FDFF02FFFFFEFE0102020002FC03FF01FC0401FC02FD02FDFE0203010203FC0300000204FCFDFFFDFD0304FD00FDFE02FEFE01000102FE0101FCFFFFFD01FF03FDFCFDFF01FC0101FD00FDFE,FD030200FE01FD0002FFFF00FD02000000FEFD02FEFF01FD03FFFF01FF02FD03040100010002FDFDFF03FD030200FDFC01FD03FE040003020203FCFD0001FD03FFFE03FFFE0003FFFD03FD01FE02FC00FD020103FF02FFFF02FF0001FEFEFDFDFFFD02030303FD0301FEFF02FFFD0302FD02FF0302FC02FC03FE030300000203,010300FE00FFFE03FFFF020001010102000303FEFF03FF01FEFE010201FEFD0003FE02FE0103FE0302FD0103000001FF010300FFFDFFFF01030100FE020202FFFFFF0101000204010001FF0201FD0002020103FD040000FCFC03FDFDFD04FEFDFFFCFDFFFD00FE0100FD03FFFEFE0101FFFDFEFF02FCFFFDFF01000002FDFEFF,FD0200FFFCFE020402030300FEFFFF0102FFFCFE02FE04FFFFFFFD0200030400FD0301FFFEFCFEFF010000FEFEFD03FEFC00FCFD03FE000103FF0003FC0103FF03FDFFFDFF0201FCFD0000FEFD03020100FD03FE0404FFFFFE050302FD0002040101FDFE0200FEFEFE02FD01FF03FEFE0302FD0304FE02FD00020102FF030104
,03FF02FF00FCFCFEFE0203FF03FE0000FF000001FE0002FF000304FEFDFFFEFE01FDFE00FE030102FC0002FDFD01020201FC00FD01030102FFFF02FFFD0303FF00FDFDFFFDFDFFFFFD010201FDFDFE03FDFE02FE0002FE02FF02FF01000100FDFEFCFE0100FDFD02FF0100FE02FF01FDFFFDFEFF02FCFCFF02FDFEFEFF030102,FFFE02FF00FDFD00FEFEFF01FCFD01FFFD00030301FDFE02030301FDFEFCFF000203FDFFFDFE01FEFD01020303FFFC00FEFF000001030102FE0000FEFE0200FE0301FD04FEFF03FEFC02FF020001FE0100FF020301030001FE04FDFE000405010100FE000200030302FF0300FE00FF0200FD01FDFDFC0103FFFE030102FE01FF,0100FF02FE02FF0203FE01FCFD030200030201000302FE03FCFD02FFFFFDFD03FD0103FC0102010302FFFC0000FD00FDFD03FC0301FE010003FD020001FE02FF0103020102FF02010002FE03FC01FE0200030303FFFF02FC020000FFFE00FEFEFE00FEFC020002FF0301FEFCFEFE0002FCFFFD02FFFF010100FFFF0001020302,FF020003FDFE030101FFFDFEFDFCFF02FDFEFD00FDFCFE0102FDFE000301FD03FF00FA03FC03FEFF0102FEFEFF03FFFFFFFFFF0101FCFEFEFFFC0002FC020103FFFD02FD02FF03FB00FF020102FE020002030303030103FE0203FE01FFFF03FEFFFC00FFFBFC00FE000001FD0103FCFE03FE020204FCFC00FCFD0000FF010401
,0102FF01FD020402FE0200FD0202FEFD00FD03FEFFFE0201030200FD0103FD010002FF00FC0000000003FEFE02FF00FEFB02FD010200FF01FC02FD01FF04FFFE010101FFFC00FEFC0103020201040000FFFEFD01FC0102FD030002FD01FDFF0102FF010103FE00FDFF0002FD0003020302000003FCFFFE030000FC020100FDFD,02030102FF00000302FE030203FF0301FFFF02FEFFFFFEFEFF0000FD0204FDFC0202FF0000FC03FE0003050002FFFCFD00FF040301FDFD01FF00FE0001020101FE03FDFEFBFB010101000204FF02FC0100FD01FC04FB02FCFD03FDFD02FEFE0302FE0202000203020102FEFCFE03010000FE0203FEFE01FC02010004FE000100,FD0202FD0303FE03FFFF01FDFF01FFFF0300FFFFFDFF0101000300FFFFFFFFFFFEFDFDFF03FC01000100FDFD02FF00FCFBFEFCFCFEFEFFFE000302FD0203FE020202FC04FC0301FD01FEFFFD01FDFFFF00FFFE000201FEFCFE050002FE02FD0102FF030302030102FEFE03FD00FE00FDFEFFFE01FFFD0000FE0101FFFF0100FE,FE01FEFC02FF03020102FE0102FCFCFEFD01010303FDFE000002000001FEFEFD000003000002FEFC02FDFCFE0103FCFFFBFDFC0400FEFC0300FDFF03FDFEFF0100FFFEFE02FDFE04FD01FE020203FF00FFFE03FFFCFEFDFBFD02FF0202020302FCFD0002FEFFFEFFFD0302FEFF00FF03FC020003010200FCFBFFFEFD04FF0201
,FC00FFFE00020002FF0103FFFDFDFF03FEFFFFFFFE03FEFFFE010403010103FF00FFFEFDFD000301FBFDFEFC0302FEFF050401FEFE0201FF010100020202FEFDFEFFFD00F8FC020003030300010303FD000000FE0301FEFF0301FE0002FEFCFE010203FF0301FFFD03030103FDFF01FFFEFD0004FF00FCFDFCFE03FC02FE0000,FC0000FD01FCFE0202FE01FE02FF01FE0000FFFE02020103FF0002FF0205FF0202FCFB01020301FD04FE02FFFF01FFFF00FEFEFCFDFE00FE030102FEFEFDFEFEFBFDFEFE02010202FEFE020300FFFD000301FFFF01020301FC00040000FE01FEFFFCFDFEF9FFFEFEFFFC02FF020101FEFD020101FF020100FEFEFFFFFEFCFE02,FD0002FFFC030100FDFD0401020102FF02FDFFFD0001FE00FF0303FDFC04FD03030203FC01FE01FDFDFD01000302FDFC0300FE00FD01FFFF0102FEFF00FE02FFFEFDFD02FF0202FCFC00FEFD0102FF0200FCFDFD0104000103FDFDFE01FE01010102FD0101FEFDFD04FCFF0000FDFFFE0102010002FC03FEFE03010203FEFDFF,FEFDFCFCFE0200FE00000100FFFE02FC01FD0003FE020203FDFF02FC00FFFC01FE0203FCFF02FCFD0400FF01FF020301FE0200FE00FEFFFEFFFE00FFFEFDFF030002000300FCFDFF02FCFDFD0203FEFE01FFFDFDFD01FFFF0100FFFD03FF03FF03FDFD02FDFE02FF0201FC03FF00FEFC0300FD020301FFFEFD03FD01FEFDFC03
,FF00FCFD040003FE0401FEFFFF03FE02FCFEFCFF01FF0202FC01FD00FC05FF0202FFFC0102FF0303FDFEFFFEFFFF02FF020101FFFDFEFFFF01FC03FEFF01FEFDFF030200FDFBFEFF0202FD00FF03FDFC0300FC020103FC0300FE0003FCFF0303020101FDFDFF02FDFF010100FD01FE0302FFFEFEFEFCFE030003000005FEFEFD,0003FFFEFC0200FDFFFEFD02FFFFFCFD01FD00020003FEFCFE00FE01000302FFFCFEFD0202FEFFFD02FFFDFDFEFFFD02030101FD010001FD03010002FE030100FD0202FF03FCFE0102020800FDFFFBFCFD0404030103FFFF020203FD0302FBFEFDFDFFFDF9FDFCFD0100FFFCFE02FFFDFD030305FFFFFB0004FFFA01050300FD,FE01FD0003FF0201FE02FE0102FF010200FFFD0101FE01FFFF03FF03FB01010200FFFCFD0302FE02FC01FE000003FE0103FF03FFFF01FD0000FE02FEFF040002FC0300FDFF0201020202FEFEFCFFFD02FE01FDFEFEFF01FC0001FFFF0101FDFF0302FF0300FF0101FE02FFFE0401FFFDFD0003FE01FCFDFEFFFDFCFD030301FC,FFFEFD01FCFD0103FD0400FE02FF0301FEFFFBFF000101FE0202020301FE02FE00FD0102FC00FEFD03FFFF02030200FF0402FDFD0201FD0001FF0000000200FD0300FD0300FCFD000302FFFFFF0302010002FEFF0102FEFDFC04FEFCFF03FF0002FC03FFFBFC020000FDFE000203FE00FE02FF0104010300FFFDFFFFFD040100
,01020303FE0104010201FDFD01FCFD01000103FCFEFD0000FEFCFEFCFD0100FCFF00FCFFFD0104FF01FD03000303FDFDFD0303030000FE00FFFD01FFFD01020201FDFFFD020301FEFE03FEFE0101FCFE0202FC00FFFFFDFDFF00FDFCFCFF010101FCFF010202FEFF0201FF010203FF01010201FDFF0002030001FCFE03000202,010200FEFD0103020101FE0001000301FCFFFDFEFC00FD03FDFCFD02FE01FFFF01010301FDFC02FD0400FFFFFE0300FC02FEFC01FE02FEFFFF01FEFEFD01FF0303FE020300FC0302FFFDFFFF030102FDFE00FDFC01FFFDFEFDFDFC0004FEFF0301FDFDFF00030100FE0203FD01FD020002FF020303010300FCFEFF02FEFEFC02,01FE03FDFE0200030104FD04FFFC00FEFD01000301FE00FCFFFDFF00030300FEFFFF010003FE02FEFFFF010302FCFFFEFFFEFF02FC0201010304FC0000000103FD03040304050202FC030200FE0302FFFF01FD01FC0201FF0004FE010301FE00FE020003FEFEFFFE0103FEFDFDFE0203FD02FE03FEFD03FD0002FE00030003FF,0102FE0100030200FCFE02FEFF000301FE0301FDFEFDFFFC020201000200030003FC0202FEFF0301FFFF000403FF00FFFC01FDFDFFFFFC02FD02FCFD02FD0202FC01FFFF010203FEFDFF040201FDFEFEFF00010202FCFE02FF04FBFD02FCFE0002FF00FF01FFFE00FFFE03FE0101FEFCFD0000FE00010002FDFD01FE030002FF
,FDFC02FC0001FE03FF00FEFEFC00FDFDFEFEFDFCFE0200000200FDFC0200020504FF02FEFEFEFF0103FE03FD03FFFDFE03FE0300FD03FDFE00FDFFFFFC03FE0102010302F800FE0402FFFBFDFFFC020103020203FFFCFFFD01FF0302FD01FDFD000201FD00FDFFFF03FCFEFE0102FF000301000201FEFD0203FDFDFD0302FE02,FD03FFFE0300FEFF0103FD0100FFFD000101FC0300FFFFFFFEFCFFFC00FCFE00FEFD00FC03FEFE000002020302FE01FD0003FFFDFE00FD02000301FFFDFD020302010104FF00FE03030102FFFD02FEFE02FFFFFE00FDFF00020100FFFDFF0104FD010203FFFDFDFF020201FFFE01FFFCFD0100FD00010300FFFE00020203FF02,FEFDFCFF0203FF03FE04FFFF02020200FCFD0201FC00020101FE02FC01FE03FF04FFFF02FC00FCFE010302FFFF03FF000101FFFDFE000300FD0301000202FFFD020000FD01FFFD00FDFD010303FD0000FD03FCFE0204020101FFFDFDFB00010000FE02FD0304FE0100FD01FEFDFEFFFDFE00FFFC00FDFF02FDFE0003FD03FCFF,0201FE0000FDFDFD01020002FEFF0302FD0102FDFE020303FE01FD01FF0203FEFEFFFEFCFDFF00FD04FF0100010000020202FF0203FE02FDFCFD02FEFDFD000301FF010201000200FE02FEFEFFFC02FD01FEFE03FF01FC01FD0200FEFC03FFFD01FCFD0103FDFD00FE0301FE03000200000102FFFD0101FEFF01FC00FD0201FE
,FC0003FF020100000300FF02010200FE0202FE0202040202020301FDFBFF00FC00000002FE0002FC0001FE01FDFEFE010003FD0103FFFEFDFFFD02020002FE00020302FFFD0001FF020201FE01010200FF0101FF00FC01FD0200FC01FD02FF000102FEFDFCFDFEFD01FF02FF02FEFDFDFE03FF00FC02FFFD01020200FDFDFCFD,0001FFFEFEFE00FF0301030104FCFCFD03010000FE000300FC02FEFE02FEFDFE01FEFE03FEFE03FC0103FCFE0302FD0200FFFCFEFC0100FC03FFFBFEFE0003FEFFFDFEFC01FF010101FF03FE0002FF02FC0402FFFEFFFEFEFAFFFE02FFFC00FEFC02FEFEFDFEFD02FF03FF00FDFF03FE010203FF02010202FD02FE02FDFDFF01,00FD00010104FF03050201FE0000FF010000FD0100FEFF0300FE020401FCFEFD010203FDFC01FE0001FDFEFA0102FF02000102FE01FD0001FDFCFE00020104FD000204FF0204FFFF0204FA00FE02010401FDFE0302FD020101FDFEFFFEFF0300FFFDFD00FAFD00010001FCFF00030104FEFDFE0100FB080200FCFC01FE0300FE,0100FC00FD0202FFFD02030003FE02020102FEFCFE020102FE01FD02010103FC0100FDFCFCFCFD0202020100FE00FD03FEFDFE03FDFD03FC0100FF020002010302FC030303FC02FF03FF0303FF0002010002FF03FF04FD03FFFE00FE000400FD0101FE03010002FEFFFEFD0303FF000000020201020202020201FEFF030101FF
,0301030100FFFE00FCFE02010102FE0002010202FE03FD02FD000403000303FF00020003FD0001FE02030004FE0100FDFCFEFFFDFE0202FDFE03FFFF020200030201FE02FD03FC010300FEFDFC030201FEFC01FEFDFF01030201020203FF000203FEFD01FEFD030203FF030200000003FF03010301FF00000300FF03FF00FE00,020202FEFC03FF01FD0201FD03FFFD03FD02000200FEFFFD01FF02FDFDFE0403FFFF000300FC0401FD000302FE02FC03FFFE00FDFD00010101FD00FD0302FFFE0000010303FD0300FEFDFE010102FC020102FFFF00FF03FEFD01FE03FFFD0300FE020003FDFFFDFD0300FE00FD02FD03FF02FF00FDFDFE00FFFEFF03FEFDFEFE,FEFEFFFC0101FFFDFC00FE0202000200FC01FF03FF0102FEFCFD0000FDFE0003FE020201FDFC03FC02FDFD0101FD00FEFCFD02FF00FFFD0002030000FFFCFE000100FE02FEFFFFFD0103FDFE01FFFEFD00FE0000FE0403FD020103000201010303000001FC01FE01FFFD0002020001FD02FC0100FFFDFDFEFFFF030201030201,030203FDFFFDFC02FE02FE0201FD0001FF0303FDFEFF010103FE00FE0102FD01FE00FF0003FD03030300FD0003FDFD00FA03FD0301FFFD0200FF0001FF0004FEFE00FF01FFFEFD0102020301FC020301FD0003FFFF010102FE0600FEFCFD00020303FDFEFE01020200FFFD03000001FDFFFC00FE000102FF0102FDFDFC010003
,FF01000000FE0103FF0202000201FE01FDFFFDFFFE010001FEFDFFFCFFFD00FE0000FD00FFFCFC010102FFFCFF02FB0305FFFFFE020201FEFFFF06FCFFFDFFFEFAFFFE0103FFFF020100FD0301FDFD03FF03FEFDFE05FD00FD040303050100FD020301FF0201FEFE02FD01FEFF030103FFFC030200010001FF01FE0301FF00FF,02FDFFFC03FF0202FD01FFFF02FDFD02FFFDFC02FDFC040103FF00FEFD02020100FF01FCFFFC00FE0501FE01FE010400FFFD02FD01000300FF0101FD00FD0200FFFD04FD020100FEFE02FB010001FE000200FE0201000303FEFDFEFFFE0001FD02FFFE010302000202FC0403FDFD0100FD0304FCFD020003FE03000204FE0001,00FDFEFE02FFFFFEFF010402FDFE00FD0002000201FF03FFFF000002FFFCFEFE0403030202FDFE02FB00FF0001010201FE01FD02020003FDFE0000FCFDFFFE01FF03FFFDFE0302FD03FFFDFD00FD02FDFFFD00FDFEFFFE00FCFE0104FDFD01FFFD01FF010200FD000103FF00000201000001FE0100FE0000020300FF03000100,FDFF0101FCFFFDFD03FF0401000002FF02FE010203FEFF01FD0302FDFC00FCFFFE02FB020203FFFFFFFE0302FC03030201FFFDFFFF01FE000201FE010101FFFDFE03FF02FEFF0300FFFDFF01030103FFFFFC000000FD0203FF01FF0103FD0301FD0001FC03FEFC03FD020201010003FDFF00FEFEFD02FD00FF02030300010003
,0101FEFD00FD0301FD03FD030102FD0003000202FFFDFE0101FD03FE04FF0003FEFE040100FD03FF02020302FF0003FEFCFE00FEFF0301FE00FF01010404FFFE03FE0303FEFC010202FF0100020201FCFF04FF030301FD03FD0303FEFD0002FEFD02FFFE00FFFD000102FF020302FFFC03FDFF00FFFE02FD030202FEFD03FC00,0001FE0300FFFEFE0003FFFDFEFEFD0201FEFD0100FC0200FD0302FD0003FFFC0202FF0100010101000300FE0300FF01FE0201FC02FDFEFEFF020402FD0100FFFFFFFFFFFF0403FEFF02FDFFFD0000FF0003FFFEFE02FD01FD04FCFC00FEFD00FF0102FD0302FF03FDFEFEFC010203FDFD010300FDFE00FEFFFDFDFC03000000,020202000002FEFFFCFE00020100FF01FFFFFE0002FFFCFF02030200FD01FE02FFFCFEFC02FDFEFFFEFDFC02FD0100000100020202FFFDFD01030001FE04FD030103FDFE03FE00FEFCFDFBFE01020203FCFF01FFFD03FFFFFF01FB0001FE04FF030303FDFDFF00000203FEFDFD010100FC00FDFFFD000002030000FDFD01FE02,0102FCFD00FF01FFFFFE00FFFD010202FFFFFFFF02FE0103FE010202000000FE01FDFCFEFDFCFEFE00FF00020002FFFFFFFF020100FF010001FDFD010302FF030001010303FC03FC010101FDFCFEFCFCFF04FE02FEFC00FC0302020102030000FD0203FE02FE02FD02FF030203030200FD01FEFEFCFE000300FDFEFE0203FEFD
,FE00FFFE02FFFEFE00FDFEFDFEFC030302FC0203FCFEFD0203FFFE03FD00000003FEFEFCFD030103010302FF03FC0100000401020201FF01FFFD02FE02FCFC0302FF0001050103FDFCFD000001FEFFFD02FE0101FFFD03FE03FD0202FE000300FFFF0100FD0300FE00FE01FE000303FF00FEFE01FD02FE03030100FFFD010003,FE0003FE030002FD00FF02FE02FD03FC010102FFFCFD05FEFC0103020201FFFE03000003FCFCFDFFFDFE0302FCFFFD00010001FCFF0000FC0102FEFCFDFCFFFC010002FDFF02FEFD02FFFEFDFFFF020003FFFEFE020003010003FEFFFC0301FE0100FE00FEFF01FFFFFC02FE000103FD0003FF03FD01FE01FDFFFEFFFE00FE00,0202FCFF0100FF01FE000101040302FFFF01FCFFFDFEFBFEFF03010101010101FE0302030000FE0000FD0301030200FE0002FD0000FDFCFDFCFD00FD0203FEFEFEFEFFFEFD0101FDFF03FCFFFE0304FCFD030300FC020203FFFF00FD00000204FE00FD0002FCFEFFFF0202FEFF03FC00FFFE00FD02FC0103FD02FD02FDFDFDFF,FF0003010301000104FFFEFC0302010203FDFF0404FE0204FC02FE0200FF0300FF02000002000103FFFEFDFD03FE03FFFFFDFEFE0002FE00FF01FDFEFD0204FDFE03FF0101FEFE02FFFE00FC020300030101FCFEFF010101FE01FF0100FD0001FD00FCFB04FF01FEFDFD00030200020201FD0300FEFF0204FEFFFF030000FFFD
,000100FDFEFE04FDFDFE00FD01FDFC0301FD0302FD0202FF000000FEFC010403FEFD030301FC0202010102FD0000FD0103FF00FEFF00FE01FD0102FD03FFFDFEFE02FE01020100030102FFFF0103FC01010003FDFF030100FEFDFD03FEFFFD030101020201FF0303FD010402FDFE0100FDFF01FFFC030100FE03FDFE0300FEFE,03FEFEFDFDFD0101FD03020301FFFF0200FD0200000205FDFCFD02FE020003FE0301FF0201FDFFFE0100FD0101FFFEFE03FEFD0102000202FDFFFB00FD0200FEFEFE0304020103FFFCFEFEFDFF00FE0202FD010200FEFDFF02030201FEFDFF01FEFD00010301FEFEFDFE04FD02FFFEFE03FCFFFDFE0200FC03FDFD00FE02FFFD,FDFEFFFCFE02FC0002FEFE01FFFDFF0103FEFF00FCFD0100FE02FE0302FF03FF0102FFFF01FF02FF03FD01FDFDFDFFFF010301FEFEFD03FF010201FCFD020202FFFE0301FDFE01FEFDFFFE02FE00FD00FF030301040200FD020400FCFFFF02030302FEFFFF0203FF02FD0402FE010200000301FE02FE0102FCFE01FEFEFEFC03,020001FEFCFC04FD01FE020201FEFF010201FEFF020300FE03030102FEFDFEFEFDFF010000020301FF03FF010303030102000103FD00FDFE010300FCFD03030002020201FFFDFDFC00FF0000FF0003FE00FF010402FE0002FF03FEFF01FEFFFF01FEFE0205FE02FC000102FE00FCFF030000FCFCFDFEFCFDFDFFFEFFFEFF0302
,0200FF03FF0002FF030200030100010202FDFEFD03FDFD04FE02FF010100FE02FFFEFE0302FEFFFEFE0002020202FDFFFFFF01FEFF030100FE040003020104FDFEFEFEFD00FDFD02FFFCFB00FC0302FDFFFE02FD02FF0200FCFFFC01FD02FF0301FEFD03FF03FEFDFD01FD01FC0000FDFE02000000FD04FF020101030104FFFE,FE00FF0102FF0300FE0103FC00FCFFFDFE000100FE000000FE00FDFDFD00FD03FD03FC03FD01FD01FFFEFCFE03FCFEFF010202FCFDFDFFFF02FEFD0302010000010202FD0002FF01FE00FDFE00FDFEFE0100FFFCFF03FF0301FF030201000400FF010202FE02FEFFFFFEFC03010001FE030001FE01020001FD03FE03FCFC0202,FF03FCFEFFFD0003FD01FCFD0203FD010300000100FC00000200FFFCFE0001FE030002FDFE00FDFF0303FC00010001020003FDFFFF0103FE01FF0103FC03FE01FF02FF03FD01020100FF01FD0000FFFEFF00FD03FE02FEFF0002FEFF00FE01FFFFFEFFFC030001FE0200000203FEFD02030203FDFC00FF030203FF0202FFFEFE,0001FCFEFEFE00FEFC01FFFD01FD02FC03FF01FEFE000100FF0003FD03030301FAFDFDFE00010000FF03FD03FEFF02FEFD03030301FE01010201FEFC0303FDFFFD0003FEFEFBFCFFFDFDFD0200FD02FFFEFD01FCFFFF02FF010400FD02030102FDFE0302FEFCFDFEFD01FFFC0200FE0302FFFE030100FEFE01010300FEFE04FF
,02FDFE02FF000103010001FEFDFDFD0101FDFF02FF0304FF01FCFDFEFD0000FEFF0200FF0101FEFFFD020400FD02020001FFFFFD01FF00020302FE01FC01FFFDFF000102FFFE0302FFFF0002FFFF010101FC02FE00FE0001FDFCFEFE02020100FDFD00FC00FF010100FE0003FDFE0202FD01FFFDFC00FF00FC00FE00010201FC,FEFD01FF02020002FDFE00010003FDFD0003FE0300FFFFFD00FDFFFEFD02FF0303FDFE0100FEFCFFFB0203FD0103030003FFFE0202FC02FE020202FF020303FD02FFFF04FF00FEFC01FFFF03FC01FFFFFFFE010203FF01FFFDFEFCFD00010001FEFD02FC02010001FE0000FD02FEFC00FC03FEFF0302FDFD0202FD0301FDFEFD,02FE0100FC00FD04000301000203000104FEFCFF000204FFFEFE01000101FDFD01010301FE0001FE010300FE02FD03FDFCFEFD02FF0202FCFD0201FEFFFD02FFFD0300FD040200FE02FEFDFFFFFEFF0201FF0201FDFFFF010302FF0102FF0001010202FFFDFFFD01FDFC02FDFD02FFFE02FF00FC02FF0303FEFD0002000001FD,02FCFDFFFDFF01FDFC03030103FCFCFE0201FD02FD02FE01010103FF00030000000101FDFCFD02FD00030103FF0301FDFC0000FC0102FC00FC0002FF02FEFD03FFFEFE00FD03FF0103020600FF0303000100030203FD020103FB03FF030002FE02FDFFFFFC00FDFEFC030201FEFF02FDFEFD04FD010203FDFE000401FF000003
,FDFFFFFDFD00030204FF03FD0100010301FFFD01FF0201040301FFFEFD030301FB0001FD020303FEFFFE000001FE02FD02FE000200010002FDFFFF03FF00FFFDFDFD0002FEFDFFFEFFFFFE02FFFCFCFCFDFDFE010202FDFEFCFD0303FC01FEFD01FC03FC03FEFCFF00FDFDFDFE0201020203FF03FF03FE02FC03040300FFFD03,FD010100FFFC00FE00FCFE00FE0001FF03FE0100FD0104FD0204FCFD000103FEFCFCFEFD03FF02030004FF010302FC02FCFFFC000000FE010203FE030300010304FF00FE0100FFFFFE0302FC0201030000FDFE02FEFE01FE01FE050403FE01FD01FEFF0000FFFE01FFFDFD000301FDFEFF030300FEFCFC00FFFC02FDFCFC0301,FD0103FCFD01FBFE02FF01FD03FE0202FF0102FEFDFD02000400FEFFFF020102FA0201FE00FEFDFE01FD03FDFC01FFFCFC01FF030102010203FF00010304FE03FD030101FEFEFEFD01FD02010302010003FFFC02FE0200FC02020200FF0103FD000303FCFE0201030302FDFF0102FDFC000000FEFD0101FCFD02FF000100FFFE,010303FC00FF04FF0103FC03FE0100FFFF020103FF01FDFD01020302FF00FEFDFCFC02FDFDFC03FCFF00030203010300010400FEFEFF0302030300FF0301FDFC0101FF00FE02FCFDFD02FE0201FEFCFDFCFE0002FFFD01FDFF0501FEFD0101000000FDFC03FFFE03FF03FCFE03FCFE03FFFEFE010100020202FF0102FE01FD02
,00000201FE010102FFFCFE0201FE02FF0100FFFF0203FF02FDFF010201FEFD00FF000302FDFF020303FFFF0304FE03FFFFFF000200FF0100FCFDFBFEFEFD00FDFD02FE0003FF0001FEFF01FDFD000003010401FE03FF0001FBFDFEFCFD0100FD010201FCFDFFFFFDFC01FF00FD0301FD0002FD01030001FD01FD030201FE0302,0202FE0000FFFD0402FD0301FDFCFEFDFD00FD03FF0104FE01FFFC02010102FD01FD01020300FF020201FD0300FF0300FCFE0000FDFFFEFE00FF0103FE03FDFD030203030003FF00FC0001010203FC0101FC0102FFFD00FD01FEFE0102FEFC02FFFEFCFE01FFFD01010101FDFEFE00FCFD01FF000302FD0001030402FD030302,00030101FDFE0500FE02FFFF00FEFEFD01FFFCFCFC0101FDFDFD04FE04FE0100FB03FEFF000300FDFFFCFF0200FEFD02FE00FE03FDFE02FEFCFDFE02FEFF02FE0002FEFEFFFCFF00FFFDFF04FCFDFFFF01FD0300FF0203FF0203FE0000FE00FD00FF01FEFEFD0003FE00FFFD000201020103FEFCFCFDFCFE000303FEFD00FD02,FEFDFEFC02FCFD03FF02FDFF030200FEFFFF00FE000203FD040001FEFEFD0202FB03FE0203FE0202FB01FD03FDFDFCFEFAFD000402010001000100FD020101FF02030202030200FEFFFD0203FDFD040200FEFC00FE020101FF03030100000300FCFF0301FF02020300020301FC0202FDFC00FE03FDFE0300FF01FFFE0002FF02
,FEFE02FE0102FF02FEFC00FD0002FF02FEFF0202FDFF03FF03FD01FDFE00FD02FE0302FF0202FE01FCFF00FFFD00FC0100FFFCFEFF02010102FF010203FE03FF01FE03FDFD00FCFEFFFF00FDFC03FFFC02FD0100000001FDFEFEFCFCFDFF02FC01FDFD00FF0103FDFDFF04FEFEFE0002FFFE0103FC00FDFE0202FF02FF00FFFE,FDFF0001FF020301FE0302FE0401FD010302FE020102FE0303FFFCFFFFFC00010000020101FDFCFF00FEFE03FDFCFFFD0003FE000301FF02FD00FEFE0004FFFCFFFFFFFD000203FDFCFCFDFFFEFF0103FEFE03010106FCFCFE04010000FFFC02FF0002FCFEFF0000FFFDFC01FF02FEFDFFFF01FF01FCFFFDFEFD00FF03FE0203,FDFEFD01FD03FFFE02FD0100FC00030300FCFC000302FF010001010300FDFE00FD00FF000201030102FEFEFF01FD03FEFDFE00FDFC00030301030003FFFE0101FF04FD03FD0300FE020202FFFF0000FE010300FE00FF0303FE03FD03FEFEFD00000302FDFFFF03FDFE0303FFFCFFFC0103FC040202FEFF0201FE03FD03FD03FC,FEFFFDFF02FDFD03FEFEFD01FF02FC00FC02FF0103FF010301030102010102FC00FD00FE0200FF01010200FD02FDFEFD020000FCFCFDFEFC02FEFD02FDFF020005FD04FDFC000203FD0100FEFD01FDFFFFFE00FE00FFFFFE01FE0203FE0101FD01FC01FD0103FFFD00FBFE0100FFFE03FE03FDFD0002FD01FCFE01FEFC0102FC
,00030101FD03FFFF02FF04FF01FFFFFDFF000201FDFFFF0101FEFD02FEFFFF03FCFEFDFCFC01FF00FCFE0101FEFC03FCFEFE0200FCFF02FCFFFF0301FE0100FE0400040200FFFCFD0101FBFC0200FF03FFFEFC01FE00FD0100FF01040202FDFC02FE0101000400FCFF02FFFC0300FD02FDFDFEFFFD03020103FE00FF01FD0101,00FF0103FCFFFEFD0400FE02FEFFFD0000FEFC05FFFEFE000101FE01FFFC0302FF00020202FD0201FF02FD0200FF010304FF0000FDFCFC0202FD0302FD01FF010301010102FF020002FD01FDFCFD04FC00FF01000202FC04FB0300FD010300FE00FE00FC0000FD020102FFFDFE01FDFDFFFE01FF0203FF02FFFE02FFFD0403FE,FCFD020202FE00FDFF0202FDFF020003010201FF01FEFF01FEFE03FCFFFD0201020302FDFEFC03FFFF02FE02FEFCFF00FC03FCFEFCFFFEFDFEFDFFFF0102FE000003020401FEFF03FEFEFEFD02000102FDFC020001FCFDFEFEFD03FDFD010200FFFE00FEFF0001FFFEFEFD01FF0101FDFF0300FEFFFCFFFE0302FD00FE0301FE,FDFFFF020300030200FC000003FDFCFCFCFDFF010100FF030101FF010103FE03FB01FB030101FE01FF010104FE0301FFFF0102FD0000FC01FEFF02FEFEFDFEFBFDFD02FDFFFDFFFEFFFE00FF0000000202FFFD0102FEFFFE0302030000030000FE02FDFFFDFCFDFEFC0100FD0002FFFE010302FD00FFFDFDFEFE0302FE03FEFC
,02FEFEFC02FDFAFE03000203FDFEFFFCFE0400FFFD02FFFD04FDFB0302FF000500FF03FFFEFF04FFF80202FFFE02FD03FF0402020303FDFD0304FCFEFCFF00000402FB020001FC0103FF01FCFC00FEFF00FFFFFE00FCFEFDFF0106FD040101000100FEFEFCFD01FE01FD0000FD0004FDFC0002FE00FE03FE0200020101FD0203,FDFE02020103FD03FEFFFDFEFDFFFE03FFFE0402FE0202FEFFFDFE02FEFD04000201FDFD0000FF03FD0201FC00FE0300020200FDFF00FDFE00FEFC0003FFFE0201FE000303FFFFFFFDFEFFFF010000010201FD03040103FCFD0002030300FEFCFC010000FF0101FD0101FD0303FFFF00FF0204FFFD02010204FE00FDFB02FC00,FEFCFC01FEFC00FD0100FDFE01FD00FDFF0100FF02FE000301020301FC01FF04FDFEFF0103FE03FCFCFC000204030001FCFE0100FDFDFE0003FD010202FFFFFFFD0303FF04FD0000FEFEFE030301020201FDFD04FDFF010004FEFCFF0002FC01FE03FEFE05020002030103FD010302FE01FD010102010300FF03030202FD0102,FEFF0102020204FFFC0002FDFF0202FE00FCFDFFFF00FE0000FDFEFDFDFDFD03FCFD010001010003010000FF010200FC02FE000102FDFD0100020301020001FFFDFD02FDFF0000FEFEFFFF0001FFFD0203FD0300020400FE0201FFFE02FD030001FDFFFFFDFDFFFD04FF0103FE01FC0000FF0101FFFF03FDFF0301FEFD0002FD
,0102010103FF02FF01040300FEFFFDFDFD010103FF02FEFE0001FD01FF0001FF01FDFEFFFE030002FBFF0203FEFE050202FDFFFEFD0300FCFE02FDFC03FD0303FD02000102FBFD03FE000302FFFEFFFFFD03FDFD02FA00FC03000200FEFE000003FFFC0003010102FE020100FDFC02FD010002FCFF02FE03FDFF03000000FF02,FDFF03FF00FDFFFC02FFFEFF01FFFC00FC0002FE00010301FD0103FD0003FE00030303FDFE01FDFE03FE0001FFFD050105020101FEFEFD02FE0406FCFDFCFFFC0000FFFFFEFD000104FFFFFEFEFC00FF01FEFFFCFFFFFF03FDFCFD01FF0002FEFCFEFDFD0402020004FC010201FDFDFFFEFE0204FFFD010002F60300FEFF02FF,FDFC03FF02FFFDFFFE00FE02FD01020302FE0204FDFDFF03FD0201FC03FE0200010300FD00FCFD02FEFF020201FE02FF010300FC01FDFE02FDFE000100FE04FD01FE000100FF0002FE01FE02FF03FF01FDFD010201FEFEFE00000202FFFD00FE0202FDFEFEFE0101FE0303FFFE01FE02FEFD00FE03030003FDFD0201FCFF0101,0302FD00FEFFFFFF03FC0201FE0202FCFDFCFCFD00FE01FD0300FFFE0102FE03FC00FF00FD0203FF00FD03FF00FFFCFD01FDFC01FF02FF030303FC02FF00FE03FEFEFE020303FE01FCFCFE000303FF00FF02030202FFFF0002FE00FEFDFD03FE0002030002FFFCFF030102FF0100FE01FD01FE0102FEFEFDFEFEFE02FD00FD00
,020101FE01FDFD0001FFFD0301FEFF0100FF00FEFD02FD03FDFE0003FDFF03FE020000FFFC02000003FC0302FE000300FCFFFCFDFDFD01010004FFFEFF01FC00FFFE0201FFFDFD0102FCFE0401FDFC01FD02FE01FCFF02FE0301FFFDFC02FEFFFF03FE010401FDFE03FD00FE00FE0000FD0300020302FD0301FC030304FF02FE,02FEFE0102FF0302FFFDFDFFFEFEFCFD020100FFFE0303FD0203FF010000FE03FEFC01FDFEFEFC02FFFFFD00FCFD030001FEFCFFFD000102FD0002FD00FDFDFE000301FE04FE00FFFEFDFBFD03FD030003000103FD02FE00FE0103FEFE02010003FCFFFD03FFFE02030000FE0202FD03FDFC0102FFFE0201FE030101FDFD0101,0203FE03FDFEFD00FDFE01FC0100FC0203FDFEFE000002FD020304FEFFFC03FD02030302FEFEFEFD050001FE0003FC00FEFD03FFFE00FF0101FFFE00FDFE0301FDFFFD02FE01FDFD01FFFF0102000203FEFC0100FC03FDFD01FFFFFC020204FF0302020102FCFDFE0302FFFD0103FD03FF03020002020202FF03FC01040301FC,00010301FCFD0203FFFDFFFF010202FD00FC0303FF00FFFD03FD00FC01FF0302FE0002FEFFFFFE01FF010303FCFCFE000200FFFEFF000003020200FFFCFF03FF020202FEFCFEFFFD03FC04FD02FDFDFEFD04FF01FDFD020302FB01FEFFFFFC0202FD01FD05FF0100FFFCFF01030200FD02FD03FF02FCFE03FEFE020202FDFFFC
,01FFFEFFFCFEFE00000001FD0301FFFD000403FEFD01FC0403FD02FCFCF7FD04FFFEFEFEFF02FCFE040000010102FE0002FCFEFF0004FEFE00FE0103FF0202FD02FE01FFFEFD020402FD0003FDFEFF04FC030103FDFE01FCFCFFFBFC02FEFEFE0102FC01000300FD01FEFB00FD03FF0303FE03000204FB0201FB00FD02000300,FEFF0202FE03FDFD01FDFFFE01FDFD0101FF0002FCFD02FF0203FD02FEFFFCFF03FC0100FDFC02FEFE0202FEFCFFFD00FD00FFFCFDFEFDFDFCFDFE03FD03FDFE03FF00040300010101FEFE0002FDFD03FFFE00FE01FFFFFD02FCFD01FC03FF020200FCFC0003FE0300FD02FD01FEFD030303FFFCFF02FF00FFFD00FF02010302,00FEFEFF020300FD010100FEFF01FDFEFF02FD00000302FFFEFE02FDFEFE0003FEFFFF0101FF0100FC04FEFF0200020103FE00020101000103040300FFFF00FEFC020300FC02FE01FF00FD00FCFD03FD01FCFE0202FF03FE0100FEFDFDFF03FDFFFFFDFFFE0101FE00FC01FF01FF000201FEFFFEFF01FEFF02020200FEFE00FE,01FE03FF00FEFEFDFC03FFFCFEFC0101FE01FD00010100FFFC0103FCFD0004FC000201FDFD01FF00FDFDFE0200FF0303FD0300FE0000FF02FF01FC0202FEFEFE010203FF01FE00030203FD010101FFFD0100FE0300FF020001FFFFFD02FE0003FDFCFEFDFE02FDFDFD00000200030301FC00FCFF00FDFE03FF02030303FF0301
,0300FE0002FDFFFD0203FFFEFDFC0202FEFD03FDFDFE01FCFD000100010202FEFDFF0003FD0102030103030001FDFCFC0204030101FCFE01FCFF02FFFEFE01FEFE00FEFF0201FFFC02FFFF03FDFD000102FEFD01FC00FF00FCFF0204FE03FF0402FD02FB00FC010402FF00FF0001FCFCFF01000302FEFEFD0300FE00FD0303FD,FF020001FFFF010101FE01FD02FF0301FDFE0301FE00FF00FEFC02FCFC00FD0002FCFD00FD0300FFFE00FF00FF0201FD0303FD00FEFF0003FE01FC01FC02FFFEFFFCFFFD00FEFD00FCFF0200FEFD0200FF03FFFDFFFDFEFFFFFCFD0203FD01FE00FFFCFF0203FFFFFE0001FCFC0203FF01FFFE0300FD03FF02000204FE0200FE,0101FFFEFD00050204FAFFFD000102020706FFFC01FFFBFA03FFFE0105FBFEFCFE0001FE0203FD030201FEFC000300FFFDFF0003FF02030002FEFCFFFCFBFD00FDFDFBFD05FFFDFB01FDF804FDFF01020202FEFEFEFDFCFF00FB05040004FF01FD030202FE00FE00FDFE040300FD0005FF0200FF0402FB00FCFDFEFF06FFFFFE,FDFD0302FEFD03FC03FC020300FF00FD03FE0202FCFEFD00FFFDFDFDFE00FD00FCFD0003FD000102FF03FFFF02FD00FFFEFCFCFDFC03FDFDFC04010201FD00FE0302FD03FEFDFD030002FF03FDFEFFFC00FE010300FF01FE0001FEFF02020403FCFDFF00FCFDFE0101FD01FFFD03FFFD030202FF000101FDFD01FDFEFF010300
,01FCFEFFFDFE0203000102FD01FE02FF03FD000200FF000002FCFFFEFF0000FFFCFEFD01FDFC00020200020203FFFCFEFC010202FF02FF02FF04FD03FDFEFD01FEFCFD0400FE01FC0201FB02FD0200030102FE000203FDFF0003FE00FEFD01FEFEFEFEFCFC02030001FE0002FE01010101000200FDFCFF0200FFFD0203040302,0203FE02FD0102020000030201FDFFFCFE03FC0403FE040001FDFE020101FDFE0600020000FFFEFD0303FF01FD04FEFCFDFEFCFF03010002FE02FCFD03FF00FE0000FD00FC02030000FF03FD02FEFFFCFD03020004FE010300FDFFFE0302FCFF030102FF020301FD000000030200FE00FC0201FC01FF020201FDFEFDFF020201,020200FEFF0001FCFE020000FC010102FEFEFC0001FFFD00FD0302030301FE03FF00FFFE03FD01FDFE020202FDFD00FCFF000002FD030200FEFF03FDFE02000303FF04FCFEFEFE0202FC00FEFDFD02FC030202030101FDFDFEFDFFFF00020200FF00000203FEFD0203FFFFFF02FE01010000FC0002FD02FDFC03FD030000FFFC,FE01FD01FE0301FEFE02FE000000FFFFFD0001FE02FDFDFE030000FDFD01000400FE03FEFDFDFCFDFDFD01FF010103FEFCFD0101FF0201FEFE04FEFDFE0302FDFD03FE03FE00FEFD01FE0202030103010103FC00FCFD03FF00010103FF01010403020000010201FC00FD02FCFE0003FE03FDFEFD0403FDFD01FDFE000203FFFF
