; Layer 5: dense biases (Q1.6 format)
; Shape: (64,)
; Total elements: 64
; Quantization: 6 fractional bits
; Range: [-2.0, 1.984375]
;
memory_initialization_radix=16; Hexadecimal format
memory_initialization_vector=00,FE,FF,FF,FE,FF,FF,FE,00,FF,FF,01,00,02,00,00
,FF,FF,FF,00,00,FF,FF,FF,FF,01,FF,FF,FF,FF,FF,FF
,FF,FD,FF,00,00,FE,00,00,03,FF,FE,FF,FF,FF,FF,FF
,FF,FF,FF,00,FE,FF,FF,FF,FF,FE,00,01,FF,FF,FE,FE;