; Layer 5: dense weights (Q1.6 format)
; Original shape: (400, 64)
; Total elements: 25600
; Quantization: 6 fractional bits
; Range: [-2.0, 1.984375]
; Memory organization: 400 addresses × 512 bits (packed)
; Each address contains all 64 node weights for one input
;
memory_initialization_radix=16; Hexadecimal format
<<<<<<< HEAD
memory_initialization_vector=06,FB,FA,03,F7,FA,05,FE,FA,00,00,06,FF,FD,FC,FC
,06,F9,02,FF,00,05,FA,04,01,F9,05,03,FD,02,00,FF
,FB,02,FF,04,05,00,04,02,02,02,02,02,FE,07,FE,03
,00,FE,F9,F9,F9,F9,07,01,02,FE,FE,FE,06,FE,04,FB
,FF,00,07,03,02,FA,05,04,05,FB,06,01,FC,02,00,03
,FF,FF,01,06,F6,07,02,03,FF,00,FB,03,FB,FD,FE,00
,FC,FE,FF,FD,FD,04,00,01,07,04,FA,00,04,07,01,FA
,02,01,05,F8,01,03,04,FB,06,03,FF,05,03,FE,FA,FB
,F9,FF,04,FD,02,FB,05,02,01,FE,FE,F7,FD,F9,03,08
,FE,F9,05,02,F8,03,FD,F8,06,FB,FE,FA,F9,03,04,FD
,FB,F9,03,03,FE,FF,FF,FA,00,FC,FC,FE,FC,01,F9,F9
,FD,F9,FD,FD,01,FD,FD,FF,06,03,04,FA,04,FA,FF,FA
,FE,01,06,04,FE,FF,FC,FD,06,03,FE,04,02,F8,FC,00
,00,FE,F8,FC,01,F9,06,06,05,F6,FC,04,FA,01,06,F9
,02,FF,00,FE,FA,FF,FD,FD,09,02,02,FE,06,F8,F8,FC
,FC,FA,FB,F9,03,01,00,01,FE,FB,02,01,FF,FF,FB,F9
,03,FD,07,05,01,FB,07,FA,00,06,03,00,FB,FA,FB,FF
,00,02,FD,FA,06,F9,00,FC,FF,01,F8,FF,03,F7,06,02
,02,FA,04,FB,00,00,03,06,01,FB,00,02,06,07,00,06
,01,03,02,F9,FE,FD,06,FD,F9,F9,08,05,01,05,06,F9
,FE,01,02,04,FE,FC,02,FB,FD,FF,01,00,F8,F8,FC,FD
,FB,FF,F8,F9,06,F6,02,FB,FD,F8,07,FC,F7,F6,02,FA
,01,02,02,04,FA,FA,FA,02,05,03,F7,00,05,FA,FB,FC
,FA,00,02,FF,FB,FF,01,00,FA,00,FB,FC,FB,00,F9,FE
,FB,01,05,FC,FD,FD,00,03,03,F9,03,04,05,F9,02,06
,FA,FE,FA,FA,FF,FA,05,06,00,07,02,FE,FE,00,F9,F9
,02,FE,FC,07,FE,05,03,FD,03,FD,05,02,F9,03,02,07
,06,00,FD,F9,00,FA,FB,00,02,01,01,FC,FE,02,04,FB
,FC,06,FB,01,FD,02,FE,00,FA,FE,FB,FB,05,01,FC,00
,01,FD,04,FE,01,FF,02,04,04,03,07,FC,04,FE,FC,03
,F8,00,05,FA,FD,FF,03,06,FD,04,F8,FB,02,05,F9,05
,01,FC,00,05,F8,FE,01,06,07,04,07,FF,FB,F8,06,FF
,00,FF,01,FD,FC,F9,02,FB,00,FF,FC,FD,FF,FB,05,01
,F9,FF,FC,00,FB,02,05,FB,FF,F9,FC,02,00,FF,07,FD
,FB,06,FF,04,02,FD,FE,06,05,FA,07,06,FC,FA,FF,02
,02,00,03,FF,FD,01,FE,FB,02,02,F9,FA,05,F8,FD,01
,06,05,01,FC,FB,07,04,06,05,FA,00,FC,FC,03,FC,03
,FB,FC,05,06,04,00,FE,05,FD,05,F9,F7,02,00,01,FC
,00,F9,FA,FF,03,FC,01,FB,05,FF,FD,03,FA,FE,08,00
,F9,02,02,05,00,FD,FB,04,FD,05,00,06,FD,06,F9,FC
,FE,01,FA,01,00,04,FE,07,FD,FB,02,07,FF,FE,FA,FE
,FE,05,F9,FC,FE,07,FD,06,FD,03,FD,03,FC,02,FC,FE
,FE,06,02,04,05,FD,07,00,04,F9,FA,03,00,02,FB,00
,04,02,06,FB,06,05,00,05,FA,00,FD,01,F9,02,02,03
,00,02,FE,FD,03,FD,FE,08,FA,F9,FF,02,02,FB,FE,01
,07,FB,FE,03,FC,01,05,04,02,01,04,04,05,FD,03,00
,FF,01,F9,07,01,F8,FF,06,FD,FB,FD,F9,04,03,FE,FD
,02,FB,00,FD,FE,FE,FA,FD,F9,FD,FA,FC,FA,03,FA,FE
,02,FC,FD,01,FA,03,04,FD,FB,FB,FE,01,FC,01,07,F8
,04,FB,02,01,FC,03,FF,01,01,03,FE,FB,FD,FD,FF,F9
,FE,FF,06,02,01,F9,FC,F9,05,FE,FC,FD,FD,FA,FC,FD
,02,FA,F8,06,02,FE,FC,FC,05,01,00,FC,FD,06,FB,01
,FF,FC,01,FD,FE,04,02,01,03,03,01,FE,FC,01,02,FD
,03,06,FA,F8,07,FE,FE,F9,F8,02,FC,FE,01,F7,00,FA
,00,06,FC,02,F8,FE,05,05,FE,FF,02,FB,FF,06,FD,06
,FA,01,00,06,FE,FF,FC,02,F8,FE,01,01,FA,00,02,FE
,FE,03,FA,FF,FC,FE,02,01,04,FB,FD,05,02,FF,FB,FE
,FD,03,FE,06,05,FF,05,05,00,02,06,FA,04,FE,FF,03
,FE,05,01,FE,FA,01,FC,01,03,FE,FF,05,02,04,01,FA
,FB,03,02,FA,FC,03,04,FE,05,FB,02,FB,FE,07,FA,03
,FB,03,FF,01,01,02,FC,03,FA,02,FF,FD,FD,02,FE,FD
,FA,FC,FE,07,09,06,F9,FE,05,03,F9,03,04,FC,FA,02
,FD,FC,FD,00,05,04,FF,FE,04,06,FB,FF,FB,04,04,06
,FC,FA,02,FE,FD,FC,05,01,FE,05,05,05,FC,05,FF,FB
,03,01,FE,F8,01,FC,00,FD,FE,FE,FE,FA,03,00,02,02
,05,FF,04,03,03,FF,02,03,FE,FE,04,02,05,00,FB,FD
,04,FB,FC,FB,05,F9,04,FD,FA,00,00,06,05,05,FF,F8
,06,FD,06,FA,04,FC,F9,02,FA,04,FB,04,00,FF,F9,05
,02,02,FC,FF,FF,02,00,FF,04,FF,00,00,05,FC,03,FF
,FD,03,04,03,FC,06,06,00,02,FF,00,FC,05,FB,05,03
,FF,03,0A,F8,01,01,04,00,00,F9,FD,06,03,FB,00,00
,04,05,05,FC,FB,03,02,00,05,02,06,FD,FF,FF,F9,00
,FA,FD,FB,FE,FB,04,FE,01,FD,F9,02,FF,05,02,FA,F9
,FE,03,02,FE,03,09,00,FA,01,04,FA,FD,03,FA,05,00
,06,01,F9,02,FE,FE,FE,00,FC,F8,FD,05,F9,00,02,FA
,03,FE,F9,00,04,FB,04,FF,FB,01,02,08,FD,06,FC,FF
,01,01,06,FF,06,FF,04,F8,FA,05,FD,05,02,04,FF,FC
,FA,04,00,06,09,FD,FA,00,00,FE,02,FE,01,FF,FE,FB
,FC,03,02,05,FD,01,FE,FC,02,FF,03,FA,F9,03,01,FF
,02,00,FB,05,F9,FA,04,FF,F9,FE,06,00,FE,FF,FF,01
,03,00,00,FC,03,05,03,08,01,03,FA,02,04,00,FB,FC
,05,01,04,02,03,03,FE,03,FA,F8,F9,F8,01,FE,FF,FC
,FE,F9,04,07,FE,FD,FB,FB,03,02,05,01,F9,FC,FB,FE
,05,02,FF,03,FF,06,F9,00,FB,06,05,04,FD,04,FE,FF
,02,01,FA,00,03,FA,F8,FF,FF,02,FD,FF,F9,F8,00,FE
,F6,FA,FD,FB,FB,01,01,02,FF,03,FE,01,05,F9,FF,FB
,FD,07,FC,FE,FF,04,FC,07,0A,FF,00,00,FA,FD,FA,FA
,FB,FB,01,02,00,FB,01,06,FE,03,F9,04,FA,FA,03,F6
,05,FC,FE,02,00,FD,FA,06,FD,01,02,08,00,08,F9,FC
,04,01,02,08,FF,01,FE,02,04,01,02,F8,F8,05,FC,FE
,07,00,05,03,FB,F9,F9,F9,04,01,F8,FE,FA,04,03,05
,06,FE,F9,05,FE,02,F9,04,FF,FD,FE,07,FA,FA,02,F9
,04,01,03,FA,FE,FC,06,04,05,FF,F8,03,FA,02,FD,FA
,FE,05,04,06,04,05,03,FE,00,06,04,03,06,F8,04,06
,FC,FB,FC,00,FC,05,03,06,02,FE,03,04,01,FC,06,FA
,FF,FF,01,F9,03,04,F9,06,04,00,FF,FF,FC,FC,06,FC
,01,00,03,02,02,05,05,FD,FC,05,01,FE,FF,FB,FC,03
,05,01,00,06,FC,00,FD,06,F8,05,01,FD,06,04,FA,03
,FA,05,05,00,05,01,FB,04,03,00,04,FF,06,03,F8,04
,FD,FF,F8,00,03,F8,FC,03,FF,FD,07,FA,06,FB,F9,01
,FC,FF,01,01,01,02,F8,02,FC,05,00,05,FE,FE,FD,FF
,01,00,05,02,02,FE,FC,00,FE,FD,F9,FF,01,03,FD,FC
,FD,00,FF,F9,FD,06,00,FC,08,00,06,01,FB,04,04,00
,F8,05,01,F9,FC,06,03,FA,F9,FB,05,01,00,FF,FA,05
,FF,02,06,FE,FA,00,02,FC,03,02,FD,00,FC,02,03,06
,03,FF,FE,04,FB,FA,01,02,F9,FD,FF,F9,F9,04,FB,FE
,03,00,FA,F8,FC,F8,FF,F9,FC,06,FC,01,00,FC,03,03
,FB,FF,03,05,F9,FE,FF,FC,FB,FB,F9,F8,00,02,FD,05
,FD,05,00,FF,FC,05,F9,FD,00,07,FC,F9,FD,F8,FC,06
,FF,06,F8,04,FF,FF,00,F9,FB,04,FD,02,FE,02,01,03
,02,FB,07,FA,F9,01,04,FC,FF,03,FE,FF,05,FF,FA,FB
,00,FB,05,02,FD,05,FF,05,05,FB,06,02,FD,FD,03,FE
,01,FE,FC,05,FA,FF,FF,FE,FC,FF,00,05,FD,FE,FE,FF
,F9,FA,FD,FF,01,FD,04,FA,FA,FC,02,00,FB,01,00,F9
,F9,FF,03,F9,FD,FC,01,FC,FE,07,01,06,00,FD,FA,FE
,FD,FA,FB,06,00,05,F9,06,FE,02,FF,FC,02,FD,07,03
,06,01,F9,FF,06,FD,01,01,FD,FB,FD,FD,03,06,07,03
,03,05,FE,06,FD,FF,01,F9,FF,05,07,07,06,F9,00,00
,01,FE,02,07,02,FB,FF,FD,03,01,01,F9,00,FF,FC,FF
,05,01,FC,00,06,FA,FA,05,FB,FB,FA,FF,03,00,FC,FE
,FC,05,01,00,FA,FD,02,04,FF,04,FB,FC,04,FF,04,05
,04,05,FF,04,FE,F9,FA,00,FA,04,FB,F9,01,06,FA,01
,01,FD,08,04,04,05,F8,01,01,02,FD,04,00,F9,06,FB
,FF,04,FC,06,FF,FF,F9,F9,FC,FC,01,FA,04,FF,FA,FD
,FC,F9,04,FC,F9,FF,FC,FD,FE,00,04,00,03,01,03,00
,FD,03,05,FC,07,03,07,FB,FF,FB,06,F9,FB,FA,FA,03
,FD,FC,FA,04,06,03,FB,00,FF,01,04,FC,00,F9,FB,04
,05,04,FA,FF,06,06,02,FF,04,07,FA,FD,FD,FB,07,06
,FF,FD,FC,00,03,F9,FD,FA,FE,03,FB,03,01,01,FC,02
,06,00,04,01,06,FF,FB,FD,04,FC,FE,04,FD,02,FE,FD
,FC,FD,FE,02,FC,FF,FB,FD,FD,00,00,FB,04,01,FC,FF
,FB,00,FD,06,00,F9,F9,FD,05,FC,02,05,FB,FC,FB,05
,FC,08,03,F8,06,01,F9,02,04,F9,FD,03,FC,03,FF,08
,FC,03,05,03,07,00,02,FC,FA,FF,08,04,F8,FE,FD,FF
,FF,FE,05,FB,02,FD,05,06,02,03,04,02,FE,FF,00,F8
,FE,FC,04,F9,FF,FB,FE,FA,05,FD,01,07,FE,00,05,F9
,05,02,03,FC,06,FF,FF,08,00,FE,FA,04,02,FB,06,07
,03,F9,FB,FA,01,FC,FA,01,07,04,FE,FA,03,00,FE,FD
,06,0A,02,01,02,01,06,FD,F7,05,04,FD,F8,00,05,F9
,00,01,FB,FB,F7,F9,FC,F8,FE,FE,06,FD,03,FD,F9,00
,FB,FC,FB,03,FC,FE,FA,FD,03,01,06,01,03,05,03,FA
,FA,03,05,03,00,F9,02,00,04,F8,FB,02,FE,00,06,03
,05,FC,FA,07,04,00,05,04,FD,01,05,FB,FD,FE,00,FB
,FE,06,FC,06,FD,FB,FC,F9,FA,FF,FA,FD,00,06,03,FE
,FD,05,06,FA,F9,01,FE,FE,09,FB,04,FB,FD,01,01,FA
,07,02,FB,FC,FD,04,06,02,04,00,FA,05,FC,FC,04,00
,04,08,05,F9,FA,FA,04,04,FC,02,07,04,02,FC,FF,FA
,01,FD,03,FE,FA,FA,00,FF,01,04,00,F8,06,FF,01,03
,01,02,FE,FD,06,FB,FB,F6,04,03,FD,05,00,09,FA,00
,FE,03,01,FB,04,FF,FC,04,F8,FE,FE,FC,FE,FA,FD,FB
,FD,FD,FB,05,FF,FA,00,FF,04,FD,FE,04,FA,04,FB,FF
,06,01,04,04,06,F8,FE,09,FE,FC,03,04,02,F8,FA,FE
,00,01,FF,05,06,FB,F8,FE,04,06,03,01,F9,FE,FB,FA
,FD,F9,FB,FB,F8,FD,FC,FD,FA,04,03,F8,FE,FC,F9,FE
,04,01,FB,00,00,FA,04,FA,04,05,04,01,01,05,04,FB
,FB,00,02,FE,05,05,FC,03,FE,05,FD,00,00,FD,05,FA
,02,FE,01,FC,00,03,FB,00,00,FE,FF,05,FC,05,07,00
,FD,07,FF,F8,FC,FE,03,FF,03,FD,FE,FF,00,FE,FA,07
,FD,03,06,06,FF,FC,FC,00,FD,FE,01,F9,02,FB,04,06
,00,02,00,F9,07,FC,00,FD,FA,00,FE,FD,05,FE,FB,01
,FC,06,01,F9,FA,FD,05,FF,FF,FA,04,FC,06,04,02,06
,01,F8,05,00,04,06,FD,F9,04,FF,06,00,FB,FA,04,03
,05,08,04,FC,FF,FC,00,05,FF,02,00,05,FD,04,01,02
,00,05,F8,07,FE,04,FB,FF,FE,FE,FE,02,F9,07,01,05
,FA,05,05,02,FA,FF,F8,03,04,02,07,05,00,06,04,01
,FC,01,FF,05,06,FD,06,FF,FA,FE,06,00,FB,03,02,FF
,FD,FA,FB,02,00,03,07,01,FD,FB,FC,01,FF,FB,02,02
,05,FB,04,05,07,FD,04,FD,01,00,FB,FA,05,05,01,FD
,00,03,FB,FB,02,FE,F9,FB,06,FD,FB,FE,FC,F9,FC,02
,05,04,FA,04,04,04,06,FB,04,FB,FD,FF,F9,FC,F9,FB
,F9,05,05,FF,FD,00,07,FE,03,02,FE,FD,04,06,F9,FB
,01,F9,FB,05,05,02,05,FD,F9,FB,06,01,FB,00,FC,FF
,06,02,FF,FE,07,01,F9,05,05,06,FF,FF,FB,FA,FE,FE
,06,FD,FE,FA,FA,02,F9,FB,FA,FE,06,01,FB,FD,F9,00
,06,04,FF,04,00,FA,FD,04,01,00,FD,01,01,05,00,04
,04,FD,FA,04,05,06,FD,FD,FE,FD,F9,FC,04,00,05,F9
,F9,FE,00,02,01,02,FD,06,FD,04,FD,FB,01,06,01,FF
,06,FB,FA,06,01,07,FC,FF,02,FB,00,FA,03,01,FE,FA
,06,07,01,FF,04,FA,FF,06,01,FF,FA,03,01,06,01,FF
,FB,02,FD,FA,04,FF,F9,03,FE,06,FE,FD,02,FE,FF,05
,00,FD,FC,05,FF,00,FA,FB,FA,05,02,04,04,FE,07,FD
,02,FB,F8,05,FE,F8,02,02,FD,FE,FD,02,FB,FC,FF,04
,03,FD,04,FC,02,F9,FA,FE,FD,FE,FE,FD,FC,02,05,07
,05,05,F8,08,FE,F9,F9,FF,FA,FE,05,F9,FA,04,01,02
,01,00,FE,F9,01,03,05,FC,03,FA,F9,FF,04,04,06,06
,FE,FF,FB,04,00,00,FF,F8,06,FA,FD,01,03,FD,05,FD
,02,07,00,FD,03,F8,07,FA,00,06,00,01,F9,FB,F8,02
,FF,F9,F8,05,FA,02,FC,FC,04,FF,04,02,06,03,FA,05
,04,01,06,FC,FF,FE,05,05,00,FC,FD,FB,FA,02,FD,04
,03,06,FF,01,FD,FC,04,FB,05,00,FE,00,01,FC,FB,FC
,FC,02,06,FC,06,FD,04,04,FA,06,05,FA,FA,FE,00,FE
,FA,06,FB,FD,FE,FB,FF,04,FD,06,FD,F9,01,04,02,FE
,FB,02,00,03,F9,06,FB,05,01,03,FF,02,FD,04,00,FF
,00,05,02,F8,05,01,FA,06,FC,04,FC,FF,03,05,F9,FA
,05,FC,05,00,FA,FD,03,02,02,FD,05,06,FF,FC,07,F9
,04,FA,00,FB,03,F9,FB,03,FD,03,FB,FB,FF,06,05,FB
,FD,FC,02,01,FD,F6,00,FD,FE,01,FA,FB,07,FA,05,FF
,FE,F9,FE,FC,05,FD,FE,02,08,02,01,FA,04,04,06,F7
,FF,02,00,07,03,06,03,07,FD,03,FB,05,02,03,01,FE
,FF,F7,FC,02,FE,FD,04,FA,F9,FD,05,F8,01,FC,04,FA
,04,06,FB,04,FA,FE,06,FF,FA,02,06,03,08,03,FF,FE
,01,FA,03,FD,03,05,02,04,FE,FC,01,02,FE,FF,FC,02
,FB,FC,02,04,02,F9,02,FA,F4,FF,FC,01,FD,04,FF,02
,FC,01,FC,FF,00,FF,01,01,FC,FF,08,FF,01,FF,FE,FC
,01,00,00,FB,FF,03,02,FA,FE,FB,03,F9,FA,FE,05,FD
,FE,02,FF,02,04,05,04,F9,FA,FF,FE,FC,F8,07,01,F8
,FB,01,07,FA,FF,FD,05,03,00,FA,03,03,FF,FE,03,03
,03,F8,03,01,FE,01,FD,FB,FE,FE,F9,FC,FD,FB,01,03
,03,FD,00,02,FA,04,FB,05,FD,03,04,FB,09,F8,FF,FD
,07,FA,F9,F9,05,FF,05,FE,00,FE,07,F9,FC,F9,FD,04
,FC,FC,00,06,FA,FE,FD,FB,FE,04,00,FA,FF,FA,05,02
,01,04,05,FC,05,02,FC,FF,05,01,FC,FD,00,FB,FE,05
,FA,FA,FC,00,02,05,04,04,FC,00,00,FC,FF,08,04,FA
,02,02,F9,F9,06,F9,02,01,FB,02,FB,F8,FE,03,FF,FD
,00,FB,04,FD,09,FE,02,02,0C,00,FD,FA,F8,01,FE,FF
,FD,03,01,00,02,F7,FA,FD,00,FF,00,FC,00,FF,01,FD
,06,FF,FE,FB,01,05,01,FB,03,07,06,FF,FE,02,F9,04
,05,F9,FC,FC,F9,FB,00,01,02,07,02,FD,00,03,01,FD
,FA,02,04,05,FA,FB,03,01,FF,FF,03,00,FB,FF,FA,02
,07,FA,01,05,FD,05,F9,FD,02,F8,03,03,05,FA,04,03
,02,07,F9,FD,02,FD,FE,01,00,05,01,01,FD,02,FE,02
,FF,06,05,03,05,FE,F9,FB,FC,FC,FB,FD,F8,03,FF,01
,FD,FA,FC,00,FA,F9,03,05,FE,FE,FB,FE,FB,00,03,04
,FB,05,04,FF,FD,06,FE,F9,06,00,FF,02,FF,03,06,FA
,01,03,FD,FD,FF,04,03,06,03,02,02,04,F9,06,FE,01
,FF,03,FF,FE,02,FC,00,FA,FC,FA,06,06,FC,01,02,F9
,F9,FC,FD,02,01,F9,05,FC,03,FC,00,FF,FC,02,03,01
,FE,01,FE,04,FB,01,01,FF,FE,FB,06,F9,01,FA,FA,04
,04,FD,FC,01,FD,FA,04,FC,01,FB,02,05,02,FF,F9,F9
,FE,F8,FA,FE,FF,01,04,01,F9,03,06,FF,00,FD,03,04
,05,00,03,06,00,F8,04,00,F6,00,03,FC,02,04,FC,04
,04,FC,05,FE,FC,00,05,F9,F8,03,FE,FB,02,04,05,FF
,07,FD,04,FC,00,03,02,04,FE,FE,06,FD,03,FC,02,FB
,FA,03,F9,05,FF,04,05,FC,04,FD,FE,03,06,07,04,F9
,F8,F9,FF,06,00,FB,F9,FB,03,FE,FF,FD,04,06,FB,00
,04,01,FF,FD,06,FE,05,04,06,FF,FF,05,03,FE,FF,FA
,FC,04,FC,06,00,03,04,06,02,03,FC,FE,FE,03,FE,FB
,FF,04,FA,02,FD,FA,FD,03,07,FA,F9,FA,03,00,FE,04
,03,07,05,01,05,00,FF,02,01,FD,01,FF,F9,FC,FD,FB
,04,04,FE,06,04,FF,06,FB,FB,FD,FB,FB,F9,F9,02,F9
,07,FA,FE,00,01,FC,03,06,FA,F9,06,FB,FD,03,06,FE
,00,FD,FB,FD,FC,04,FE,FA,03,FC,04,FE,F9,06,01,04
,04,06,F9,FF,FD,FB,01,07,03,F9,05,01,02,04,04,01
,FC,FE,02,FD,03,F8,FD,FB,05,FD,FB,03,06,01,02,05
,03,05,02,07,FE,01,FE,02,06,FF,FD,FD,F8,FB,FB,05
,04,06,00,04,07,06,FE,F9,FE,FC,03,FD,FF,02,FB,00
,FB,00,04,03,FA,03,02,F9,0C,FD,06,03,FE,F9,00,02
,02,FC,FE,05,02,06,FD,FF,01,02,06,FD,FA,FB,01,02
,00,FF,FB,03,04,04,01,00,01,FA,06,06,FA,04,06,FF
,FA,FD,00,FE,0B,07,00,05,06,FF,FA,FB,05,FB,01,04
,FD,01,02,F9,FD,F9,04,07,F8,FB,FD,FF,FE,F9,FC,FD
,03,04,03,FB,FD,FA,07,06,FF,FE,06,FA,03,01,03,04
,06,FC,FB,03,FC,02,FB,FF,FB,FB,FE,06,00,FA,03,04
,00,04,FB,00,07,01,FB,FB,05,FD,FF,05,F9,FB,06,06
,05,06,00,00,00,02,FF,FB,FC,F9,04,04,05,FE,02,05
,FB,FB,03,02,05,F9,FC,FA,FA,04,03,FA,05,FC,03,03
,FA,02,05,FB,05,FF,06,03,FD,00,06,FE,02,06,FF,F9
,03,03,01,FB,00,00,04,07,03,FF,07,FE,FE,FA,FD,FC
,FC,FD,FB,FE,F8,05,01,00,FD,FC,FB,06,FD,02,FF,00
,FF,FB,03,01,FF,05,04,05,03,02,F9,FF,05,06,03,FB
,00,01,01,FA,FA,FB,03,04,02,FD,02,08,03,FF,FB,FB
,FB,01,FE,02,00,00,FA,02,FF,FC,00,04,06,FF,FC,07
,FF,FC,04,FD,FB,05,05,FB,FD,FC,04,02,00,00,01,01
,09,05,03,07,00,F7,02,FD,FD,FB,FF,FF,04,00,01,02
,F7,FA,06,02,FD,01,03,01,01,06,FD,05,03,FB,FC,03
,09,02,FE,FB,04,FD,00,01,00,F9,FA,00,02,02,FA,FD
,04,FB,03,F9,FB,03,FF,FB,F5,FB,06,06,07,FB,04,FB
,01,03,FE,05,FD,FE,06,FE,F9,FA,02,02,00,04,04,FD
,00,00,04,02,04,05,FD,02,FA,FB,F9,01,05,03,FC,FE
,FB,FC,FC,06,00,FF,02,FA,04,04,FC,05,F8,FD,05,07
,03,06,06,06,FD,FD,03,01,F7,02,06,03,03,01,07,FE
,01,05,FF,FF,01,06,01,FE,03,FE,FC,FE,FA,FE,05,F8
,05,FE,FB,FF,03,FB,04,07,FE,01,00,FD,07,FD,FE,FF
,FC,F9,FA,05,FA,FC,FD,00,FF,FF,07,00,FC,00,05,03
,03,04,FA,FA,FE,06,FE,00,F8,FF,FE,FF,04,06,04,04
,01,01,07,07,07,FB,01,06,FC,FE,FA,01,01,01,FE,00
,00,FC,FC,FE,FD,04,FB,FE,FD,01,07,FE,F9,04,00,FE
,02,F7,05,04,02,FE,05,03,F8,FA,FD,F7,FA,FD,00,06
,FA,F8,04,06,02,06,01,F9,10,FC,FA,FD,02,FA,02,03
,F4,FD,02,02,F5,00,07,02,FF,05,FA,FB,F8,04,FB,FC
,FD,01,02,05,01,F9,FA,04,FD,FB,FB,FE,FD,02,00,06
,04,FE,FA,FB,00,FC,FB,02,06,03,FF,05,02,01,FD,FE
,03,02,00,00,04,FA,FD,05,0A,01,06,00,02,F8,04,01
,06,FD,04,FA,00,FC,02,00,F9,FD,FB,08,FE,00,FB,01
,07,04,02,FC,00,06,05,02,06,04,04,F9,05,FA,04,FA
,05,06,05,03,01,07,04,F8,01,FF,FF,FB,03,03,FE,FF
,FF,00,FE,00,02,FA,FB,00,03,FC,FE,F8,02,05,FD,03
,FC,FF,F9,01,03,FB,05,04,04,FB,FB,01,01,FC,FE,F9
,06,FD,FB,FE,FD,FB,05,01,06,02,FD,00,FC,06,00,FD
,FC,F8,F9,04,04,FC,03,07,FC,05,F9,04,FC,FC,FF,04
,05,01,FD,FE,03,FB,06,FF,FD,02,04,FC,FD,02,01,FA
,03,07,01,00,FC,FD,01,FC,03,06,FF,FC,01,05,FE,00
,01,02,FF,04,04,FC,04,02,FE,04,FE,05,01,00,FE,FB
,FE,FA,FB,04,03,FA,FD,05,FA,00,FA,FD,F8,FB,03,FA
,FB,08,02,03,F9,04,00,FC,FC,FA,F9,04,F9,FA,FB,FB
,FC,00,01,FC,FC,00,FC,03,FE,FD,FD,01,01,FD,FD,05
,FA,00,05,FB,03,05,F9,05,FF,FC,FC,01,FE,05,07,FF
,05,06,F9,04,FE,FC,06,07,00,00,FB,FE,02,FE,02,02
,07,FE,03,FC,04,FC,02,01,01,FA,FB,FB,03,F9,FD,02
,01,FD,FA,FF,FC,08,02,00,FD,00,FE,03,FF,02,07,06
,FA,FB,00,05,01,F9,FF,00,FF,FC,FE,04,FE,FA,05,FB
,FC,06,FD,FF,01,06,FA,FE,02,F9,00,04,FE,00,FA,06
,04,03,01,F8,F8,06,03,FB,FD,00,F9,06,FA,F9,04,FF
,02,03,05,02,FE,FF,FC,FF,04,FD,FB,FF,06,F8,00,02
,08,FA,03,FF,01,FF,FF,FA,07,FC,04,04,04,01,03,FB
,02,02,01,06,FD,FA,FD,03,02,05,FF,01,F8,FE,00,FE
,FF,FD,05,00,FA,06,FC,FD,04,06,FF,F9,FD,00,01,FF
,FB,01,FD,03,FB,02,FE,00,06,FE,FA,FC,00,FE,FE,FA
,03,00,07,FC,FF,F9,05,03,06,05,FC,03,07,06,01,FA
,03,FD,01,01,02,02,FC,06,FE,04,05,F9,FF,00,FE,FD
,04,00,FB,00,F9,FB,05,FC,04,03,06,FC,FC,F8,FC,04
,FB,05,01,06,03,FC,FC,F9,02,FE,FD,01,04,FD,00,FF
,07,FE,FE,FF,04,03,F9,FA,04,06,04,05,04,FA,02,01
,FA,FF,00,02,01,FC,03,FB,FE,FF,FF,06,05,F9,FB,04
,FA,FA,05,00,03,05,FB,03,01,FA,01,05,07,00,FF,07
,00,06,FD,08,FB,FE,05,04,00,04,F9,04,FF,FE,06,01
,02,05,06,03,FF,05,FD,01,00,00,FA,FF,00,05,06,00
,07,02,04,05,03,FC,06,F9,FB,02,01,FC,02,03,FA,02
,FC,FF,FC,04,FC,01,07,FD,FF,FF,FA,FB,06,FC,07,00
,06,03,05,FC,FA,00,00,FD,01,02,01,03,03,FE,03,03
,FE,06,05,F9,04,FB,02,03,03,06,FB,06,07,FF,F9,FA
,FB,02,FA,03,FE,04,FE,03,FA,00,FA,FE,05,FF,00,FE
,06,05,03,FE,04,03,00,01,03,06,FB,02,FE,FB,04,03
,F9,05,FD,01,F9,FE,FF,FA,06,00,FE,01,FF,00,FD,05
,04,06,F8,04,01,00,FB,08,01,FF,03,00,05,FB,05,FA
,FD,04,04,F8,06,02,01,06,02,07,04,05,00,FF,00,FB
,FF,F7,FC,FA,FD,01,03,FC,03,FA,01,FF,FA,04,00,06
,00,FC,00,FB,03,03,FE,F9,02,FC,FB,FA,FD,04,08,F8
,FB,03,01,01,FE,01,07,FA,04,06,FB,01,04,F8,01,FA
,01,F8,02,04,F7,01,01,02,04,F8,FC,FA,FF,FB,05,FC
,00,FE,05,FE,FC,05,02,F9,FE,05,FB,FA,FF,FB,FC,FA
,06,FB,FA,FF,FA,07,06,06,02,03,00,F9,FA,FD,FE,FE
,03,02,F8,03,FA,FA,FA,FC,FF,00,06,03,FA,05,FA,FD
,FA,FB,03,00,FF,06,FE,04,04,01,02,FD,FB,04,FF,02
,03,03,02,02,01,05,FB,FD,02,03,06,04,FE,FC,FE,F9
,FF,00,FF,FA,F9,F9,FA,01,FC,02,FB,FA,F9,03,03,FB
,05,05,05,01,01,F8,FF,FF,FD,04,FD,F6,07,FF,FB,FE
,FE,FA,07,00,FB,07,FD,05,06,FB,01,FF,06,FC,FA,FA
,FA,F7,FD,05,06,FD,F9,FF,FA,FE,FA,F9,F9,FE,03,00
,00,FF,05,F9,FD,02,04,FC,FA,FC,00,04,F9,FB,FC,FB
,F9,04,FF,FB,05,F7,03,FA,01,FA,03,FF,04,FD,FF,FF
,04,06,07,FC,FC,FB,FD,01,F9,F6,FB,FE,01,03,FE,FB
,F7,06,FF,FA,F9,FA,02,04,FE,00,FC,04,06,FE,01,FB
,FD,FF,FE,FA,01,03,02,00,06,04,F9,FF,FF,FB,02,F8
,00,FC,06,06,FE,F8,FF,01,FD,FA,06,00,01,01,F9,FB
,05,FD,FD,FC,03,06,01,FE,03,00,FE,FA,FF,FB,FE,FF
,FC,03,03,FC,05,F8,02,04,03,01,04,FF,03,00,FD,04
,FD,02,00,FC,FA,FB,05,03,02,FD,00,02,FF,FC,04,01
,FF,FA,FA,F9,06,02,05,04,F7,FD,FE,04,04,FA,FD,FD
,07,05,01,03,FB,03,FA,FF,06,04,FE,02,FC,01,FA,FE
,05,FE,FE,F9,FB,FF,00,00,00,FC,FB,FE,04,03,02,00
,FC,FD,FB,F9,FF,FD,02,00,FE,02,02,FC,02,FB,FE,FB
,FC,06,FF,00,07,FF,05,00,FB,FB,FB,04,FA,FA,FD,01
,FF,FB,FC,05,FB,FF,00,00,03,F8,FE,FC,FB,FB,F8,04
,FD,FE,02,FE,02,FF,05,FC,04,FE,FB,F9,07,FC,03,FF
,03,02,05,F9,03,00,FA,FD,FC,FD,05,F8,FE,FB,03,02
,FF,FD,FF,04,06,FC,FC,FD,FB,F8,F8,FB,FD,01,07,01
,03,06,FD,FD,FB,04,FC,00,FB,FF,00,FD,04,00,03,03
,06,02,01,F8,04,FC,00,00,02,FD,FD,FF,FC,FE,04,06
,06,FA,05,F8,02,FC,03,FB,FD,02,FC,02,04,06,03,FE
,06,03,04,03,FA,05,FB,FC,02,FC,04,FD,FF,01,F9,03
,03,FE,FD,FB,FB,04,04,01,FC,FE,FD,02,02,04,FA,06
,FA,03,F9,03,FC,FE,03,00,06,04,02,FD,FF,04,FE,02
,FC,FD,06,FB,02,06,FF,05,01,04,FB,FD,FF,FE,05,F9
,06,FE,F8,FC,FB,02,01,06,FE,FC,06,02,01,05,FD,03
,FE,FE,01,FE,05,FA,01,04,01,F9,FA,FC,05,02,FE,FD
,07,F8,03,00,06,FA,06,03,FA,F9,07,00,FA,FC,FF,03
,FF,01,FE,FE,00,FA,FD,FC,00,FA,FE,FA,05,03,06,05
,FB,FC,02,05,01,FF,03,08,FF,01,F8,FE,01,FF,00,FF
,01,01,00,03,FD,07,FB,F9,05,FE,00,06,07,02,FC,FC
,FA,00,01,FD,05,02,FD,07,FA,FC,03,FB,02,00,FF,F9
,FA,FD,03,FF,04,01,01,05,00,FD,02,FB,FF,05,FD,05
,FB,05,04,04,FA,04,04,FB,00,07,06,04,01,FC,FF,00
,01,FC,FB,FD,00,F9,05,FD,09,F8,FF,04,00,05,05,FB
,02,FD,FF,FB,FF,05,03,FA,FF,07,FA,03,FC,04,FB,05
,FC,FD,FA,01,01,F8,03,FB,06,FB,01,FB,00,05,01,FC
,06,FB,FB,F8,FB,05,00,FE,04,FE,04,FC,FE,FC,05,04
,02,01,06,02,03,FC,FA,02,04,FC,00,FE,04,05,FE,04
,00,05,FE,01,02,F8,02,00,03,FB,FF,04,02,03,FC,FE
,04,FD,06,06,03,03,FB,FE,FA,01,FB,09,FC,FD,FA,03
,FB,FE,02,06,04,FD,FB,FE,FF,FE,FF,04,FB,FD,01,06
,FF,F8,06,02,02,04,04,FC,06,FA,FD,F9,02,00,05,00
,04,F9,04,04,02,FC,FD,06,07,FA,FD,02,FD,05,00,05
,FD,00,FE,FB,FD,FD,03,05,FF,01,FD,FC,01,01,04,06
,04,FF,06,04,06,06,FD,08,FB,05,FA,FE,03,01,F9,05
,FE,FE,03,01,05,04,01,03,FF,02,05,03,FB,05,FA,02
,FE,FF,01,FB,03,06,FD,FA,01,FF,02,FA,04,FB,01,FD
,03,FE,00,00,02,F9,01,FC,06,00,02,F8,FC,FC,01,00
,05,01,FF,03,03,03,FC,03,00,FB,FE,FD,06,FF,FE,FB
,08,00,03,04,FA,06,FD,F9,02,04,04,04,03,FD,02,06
,02,04,01,FC,01,00,FF,FD,FD,04,FE,04,F7,04,01,03
,00,F8,00,04,02,05,04,FB,02,FF,05,FC,00,05,06,FE
,FC,03,07,02,02,02,01,02,07,02,FC,FC,FD,FF,FA,01
,FC,FA,02,00,FF,FF,FB,05,02,FE,08,00,FC,01,05,04
,FF,FE,FB,05,FA,06,02,FA,F5,03,F9,00,FC,05,00,02
,F9,04,FE,FA,FC,FB,F9,F9,01,FC,06,FA,FF,00,FA,03
,00,05,06,05,FA,00,06,03,05,05,F9,FD,FF,04,FA,FB
,F9,FF,FC,01,FB,FC,05,FE,06,FC,FA,FA,02,FF,05,FD
,04,03,07,FE,05,05,FE,FD,02,04,02,FB,03,05,00,00
,FA,05,FB,06,FB,FC,FF,FE,01,06,02,04,FA,FB,04,FB
,FC,FF,00,06,FE,01,04,FF,01,FC,02,01,07,02,04,FA
,04,01,FD,02,FD,06,F9,04,FA,FD,01,03,00,F9,FD,04
,00,FC,FD,05,00,FF,FF,FA,F5,F9,01,07,00,FB,04,06
,FB,00,FB,FC,FF,FF,00,07,03,FB,05,01,FE,F9,FE,06
,FE,01,F9,FA,04,01,FA,04,FC,01,03,05,04,FF,02,05
,01,FB,01,F8,02,01,05,02,FB,04,00,01,00,00,FF,01
,FE,03,FF,FD,FB,00,FD,09,FC,FA,03,01,01,06,FA,FD
,04,01,FA,FE,FD,06,FB,FE,FC,FE,FA,FE,05,03,FC,02
,02,FC,F9,03,FB,FF,06,05,FC,05,05,03,06,06,F9,05
,FF,FF,F9,08,FF,03,02,03,00,FD,02,FB,FF,02,01,02
,03,04,FA,07,05,03,FB,FB,09,03,FD,03,FA,FE,00,FF
,F9,FA,02,FB,03,02,FD,06,05,04,FB,06,02,06,03,F9
,02,FB,FC,FA,06,02,00,00,03,05,FB,03,03,03,FD,02
,FD,FB,01,01,FE,04,FC,00,FE,FD,07,F9,FE,FB,02,02
,02,00,02,01,00,06,FD,04,02,FD,FA,06,FF,04,01,05
,FF,FB,FC,05,05,02,03,F9,FE,02,FD,05,06,FB,01,01
,FD,FB,00,02,FA,02,FF,01,01,FB,02,FA,FB,FC,02,06
,FA,03,FA,FD,FA,FC,03,05,FC,FD,FC,FD,02,FC,07,02
,FD,FF,01,FA,FD,F8,FC,FC,04,01,02,FE,FD,FB,02,FC
,00,FF,F9,06,05,FF,FA,03,F9,04,04,FA,03,FA,FA,02
,FA,FD,05,06,FD,03,04,FA,F9,FD,F9,FC,06,FA,05,FA
,00,01,03,04,01,F9,03,FC,FA,FF,FD,02,05,F8,FF,F9
,03,FE,FA,FE,06,FC,03,04,03,FA,06,04,01,FF,FF,FF
,FA,05,FE,F9,04,04,06,FB,00,FE,06,00,01,F9,03,FA
,00,FB,01,01,03,06,FD,FD,01,FD,FE,FD,06,F9,FB,05
,00,02,FC,00,02,FF,FD,01,05,FC,05,03,FB,FC,FB,00
,FC,FE,07,FE,00,FF,FB,01,00,02,FC,FF,06,FC,00,F8
,02,FF,07,03,00,FE,FB,05,06,FC,04,FF,05,05,FD,FF
,02,FF,02,05,02,02,FA,FF,F9,F9,06,05,03,F9,00,FB
,FD,00,FA,FD,FF,FD,06,01,FF,05,FB,F9,F9,04,03,FD
,04,F9,01,FE,F9,FD,FB,04,F8,FB,FE,02,05,F9,F9,05
,FD,FE,00,F9,06,F9,04,05,05,02,FF,FE,FF,02,01,05
,05,04,01,05,02,01,04,06,FC,FC,FC,FF,FA,02,FC,03
,04,00,FA,04,07,01,FF,FF,FC,04,F9,FF,FF,FC,00,FA
,FE,FE,FC,FC,05,FF,03,FF,FE,FE,F9,FE,06,FC,FA,FD
,06,FC,04,06,FD,FC,04,FA,04,00,FA,04,FF,05,FC,03
,FE,FC,02,F8,FE,02,05,06,FD,FC,01,FF,FB,FF,FF,05
,01,03,F8,00,04,FD,F9,FB,FD,F8,FD,FB,01,05,00,00
,04,F9,FC,00,04,05,05,F9,FE,04,03,FA,FC,00,FB,05
,03,FE,FA,05,FB,FE,F9,FD,05,FE,FE,01,FD,06,FF,F9
,FD,01,FA,01,FF,02,06,03,FE,02,FE,FD,01,FE,FE,06
,FE,05,F9,FE,03,02,04,FF,04,FD,F9,01,06,F9,05,00
,FD,01,FC,04,04,00,FB,FB,03,FB,02,02,FC,FA,04,FF
,FC,FB,FE,04,00,04,F8,05,FC,03,05,00,FB,06,FD,06
,06,04,02,FD,01,00,05,FB,FE,05,FA,FC,FC,05,04,02
,FB,F9,01,05,05,05,01,01,FB,FD,06,01,06,00,01,F9
,00,FF,03,F9,04,00,03,05,04,FE,05,FC,04,F8,F9,FB
,FD,FC,FE,04,FD,F9,FE,00,01,00,03,00,00,FB,06,FE
,00,04,F8,01,03,04,01,07,FE,00,FE,03,FA,F8,FD,FE
,FD,FF,03,FA,FE,01,FF,FE,FF,F8,00,05,FB,00,FA,FF
,04,03,04,FC,F9,FD,04,FA,FF,04,FB,03,FD,04,00,04
,FA,05,F8,05,FB,04,00,06,FC,01,FB,FB,FE,01,FC,06
,FD,FA,FE,00,01,FD,01,07,06,F8,03,04,FF,F8,FD,05
,00,FB,01,FD,06,FC,FC,06,FE,F9,FB,06,F9,FD,00,FB
,01,FD,01,03,02,06,FE,06,FE,04,03,FB,04,FA,0A,01
,FA,06,00,01,FD,01,02,FF,F8,03,FC,05,F9,F9,FA,05
,03,FE,F8,FB,03,FD,08,05,FF,FE,FB,FB,03,FE,04,07
,08,01,00,02,FF,00,04,03,FF,FB,FF,01,FA,00,FB,03
,F9,03,03,06,FA,FF,FD,01,FE,FD,FE,F9,02,02,00,01
,FC,F9,02,03,02,FB,05,05,00,04,06,00,FF,F9,F9,04
,05,FE,02,F8,FF,02,04,00,00,04,03,00,F8,05,02,F9
,FF,01,FC,05,FD,FB,F9,F9,FC,04,06,FC,FD,00,FA,FE
,FB,02,FE,F9,06,FB,03,FB,FF,00,06,01,07,03,05,FF
,05,03,FF,02,FC,FB,00,06,06,FF,FC,FE,FB,FA,01,06
,FE,03,05,05,03,01,06,01,FE,FB,F9,05,08,02,03,FE
,06,FC,FD,FB,FF,02,01,06,04,FC,07,FE,FD,FF,02,06
,06,FB,FA,04,FC,01,FB,FF,FD,06,05,06,F9,F9,FF,FD
,05,02,FD,FF,01,00,FF,FA,01,05,07,00,04,FD,05,05
,01,FB,00,05,00,03,08,04,FE,00,FB,06,FE,05,02,03
,03,F9,FB,02,FC,FD,00,FF,FF,06,07,FA,03,03,FF,FC
,00,02,FE,05,03,F8,FB,03,FD,F9,FC,03,04,03,FC,FC
,00,01,01,03,04,03,FF,04,F9,05,FB,05,FC,05,FA,03
,00,F9,FD,FF,00,04,FF,03,07,FA,FC,FD,FE,04,06,06
,FD,05,F8,07,07,06,FC,04,04,FF,01,FC,FB,03,02,03
,01,07,00,F9,07,FF,FB,06,06,F8,04,06,03,04,01,F9
,00,FB,FB,F7,01,FF,02,05,01,06,FE,FE,FA,05,00,FE
,FD,06,03,00,FB,06,05,FE,FB,02,FB,FC,02,05,05,01
,FC,F9,FA,FB,01,FC,01,05,FD,FA,03,02,FF,04,03,01
,FC,FA,F9,02,FB,01,F8,01,02,FA,FB,FF,04,03,F8,FB
,FD,FF,00,07,FB,FC,05,06,FC,03,03,04,04,04,03,FA
,03,04,03,FC,FD,FC,01,02,06,FA,FA,03,F9,05,00,05
,FB,06,FE,07,02,03,FC,F8,03,FC,FF,06,FD,06,FB,FE
,FC,FE,01,FF,01,05,05,F9,FE,05,02,FD,FD,F9,F9,03
,FD,01,FF,FF,FF,F9,04,FD,FD,FF,03,00,06,03,03,FF
,02,FE,05,06,FC,F9,06,FD,02,FA,FE,FB,F9,F9,FA,03
,FD,06,05,F8,05,04,FA,05,FA,01,02,FB,FC,01,FE,00
,FB,00,03,04,07,FD,FC,FF,06,FE,F8,FA,02,00,04,F9
,04,FA,F8,04,06,02,FA,06,F8,00,00,05,06,02,FF,05
,FF,05,FF,FB,02,01,05,02,FC,05,F9,04,02,05,FD,06
,FB,FC,F9,FD,03,06,FB,06,00,FB,FC,06,FC,05,06,FE
,FD,03,F9,01,05,03,02,02,03,FA,01,05,01,FB,01,F9
,07,FA,FE,FF,FF,04,FB,FA,FB,FB,04,04,00,03,00,00
,07,07,05,02,FC,FD,06,FE,FE,F8,06,F9,FD,FF,F9,01
,06,04,FD,01,05,07,FE,FD,04,FB,06,FC,00,FA,04,05
,02,00,FD,05,06,05,F8,05,FC,05,04,FD,00,FD,05,03
,FF,00,FA,03,FE,00,FF,03,FA,F9,FB,05,FD,06,FE,00
,F9,FD,FA,FD,01,05,03,FB,04,FB,01,FD,F8,01,F9,03
,04,FF,01,FA,FB,FE,04,FC,FB,FC,03,05,FA,02,FC,05
,FD,FC,05,FC,04,FE,05,FC,F9,FA,FC,03,04,05,F9,FE
,04,00,03,01,FF,03,01,01,04,FA,03,FF,00,FA,02,00
,03,F9,FB,FB,03,01,04,FA,03,00,FA,FD,FD,FE,02,FD
,F9,FF,FB,FC,02,05,FC,04,FB,FF,FB,04,FE,FE,FD,05
,FC,F9,08,03,FA,FB,FE,FD,01,01,03,03,FC,FA,F8,F9
,FF,F9,FD,05,00,03,FB,FC,FC,04,01,FB,00,F9,FB,FA
,01,FB,F9,03,FD,03,FA,FF,03,FA,05,00,FA,FC,05,00
,07,06,FA,FE,06,06,04,FA,F8,02,03,06,FE,00,FF,F9
,01,FD,FD,FF,FA,02,FC,FF,FB,05,F9,06,04,04,00,FE
,FE,07,FC,FC,04,05,05,FE,05,02,FB,00,03,FE,01,FD
,FA,06,FD,F8,FD,FA,FA,FB,FF,F9,FD,04,FD,FD,FB,FF
,01,FD,05,00,FB,FF,F8,03,04,FD,05,F9,00,02,01,FE
,F8,02,00,00,01,F9,FA,01,F9,FA,FD,FA,FE,FC,FD,01
,04,06,FD,00,FB,FC,03,00,FB,02,00,00,04,FE,06,FA
,05,04,02,01,F8,03,FA,FA,00,FA,FD,05,03,FA,06,FB
,FD,03,02,F9,05,FF,FE,06,FD,FE,07,05,FB,03,03,00
,F8,00,F9,FD,FF,FC,FA,F9,F9,F8,F8,FC,F8,FA,FF,FF
,FD,02,FA,FE,FC,FD,03,03,FA,05,FD,FC,FE,00,FA,05
,07,02,FD,03,03,FC,00,06,FF,FC,FA,02,00,FC,00,FA
,00,FD,F9,F8,02,FB,02,FE,07,FD,FB,00,01,FB,FB,03
,FB,FC,FC,FD,00,FB,FA,04,F8,FC,FC,FC,04,06,04,F9
,F8,03,00,07,00,05,05,03,05,FB,FA,05,00,F9,FF,F8
,05,04,00,05,03,F6,01,02,03,06,03,FE,03,FB,05,02
,FD,03,FC,FB,FB,04,05,FF,FA,FC,F9,05,05,04,FF,05
,00,FD,02,F8,06,01,03,01,F8,01,02,01,02,FD,06,06
,00,00,F8,04,02,F9,04,06,03,FE,FD,F8,FC,FA,FE,00
,05,F9,04,FF,00,FF,03,00,05,FC,03,F9,FA,00,04,00
,02,02,01,06,08,06,FF,06,F9,FD,FD,FF,04,FC,FF,06
,06,02,FD,FB,F8,F9,F9,05,03,FF,FD,05,FB,04,FB,01
,04,03,05,03,04,04,F9,04,04,07,04,04,FF,FD,06,05
,01,FE,01,05,04,02,FC,02,00,FD,FB,04,07,03,FE,FC
,FF,FD,04,FC,07,00,06,F9,FA,01,F9,00,00,FA,FF,FA
,F9,00,FF,04,F8,F9,03,FF,FB,FF,F9,FB,FB,FB,05,FF
,F8,02,FC,01,FD,02,F9,F9,04,02,FE,02,05,00,01,FC
,FF,F9,03,05,04,04,FB,F9,01,FD,F7,FE,FF,07,FD,FC
,FA,FF,05,01,02,00,02,07,F9,FB,01,F8,09,02,04,06
,04,FC,F8,01,05,05,FF,00,0C,00,02,00,02,08,01,FC
,00,09,F8,FA,00,05,FC,FB,F5,01,02,00,FE,FE,F9,04
,03,FA,FA,F8,FC,01,05,FF,01,FA,FD,FE,00,FF,00,F9
,06,FB,FB,FD,FC,FF,FB,05,05,FD,FA,05,FF,02,05,01
,06,FC,FF,FB,FB,FA,06,04,04,06,04,04,00,FC,05,FD
,FC,01,02,FE,03,05,FD,FE,FD,06,FB,02,03,FC,00,00
,02,05,FB,FC,01,02,FB,FB,FB,06,02,00,FE,FB,FE,03
,00,03,06,F9,FD,03,FC,FD,00,03,FA,FF,FA,03,FE,FD
,02,FE,FE,03,06,FC,FC,FA,FE,FB,02,FA,04,00,03,04
,01,FD,FF,05,F9,FB,FB,06,FE,FF,FB,FA,F9,05,07,03
,F9,F9,F9,FC,FF,FB,03,01,FF,F9,FA,02,05,FF,FB,02
,00,01,FA,00,00,07,FA,04,00,02,FB,06,06,03,FF,04
,FB,02,FB,01,FE,05,FD,FD,01,FF,FF,03,F9,FA,FE,04
,FA,04,00,02,FA,FD,FD,03,00,FE,01,FA,FE,FD,FC,05
,06,F8,FA,06,05,FC,FC,03,07,FD,FD,FA,FD,01,FB,FD
,04,F8,FF,FB,FD,01,FA,FF,FD,FF,FD,FF,00,FC,F9,FE
,05,00,04,06,F9,FA,FF,FB,FA,02,FF,00,FE,06,03,00
,05,FB,FF,FF,01,F8,05,06,FF,03,FE,F9,FF,02,07,FD
,04,07,FC,F9,FE,FA,FF,FC,05,03,FA,05,FE,07,FF,00
,04,05,F9,04,00,FD,F8,00,FE,06,01,04,F9,02,FD,05
,F9,00,01,FB,FA,F9,FB,03,00,05,FC,03,04,FA,00,FB
,FB,00,04,07,FD,06,06,FF,06,01,FD,FD,FF,02,FE,F8
,FB,07,00,FF,F8,FC,FB,FF,05,FD,02,02,FA,FC,FB,06
,06,00,FB,FE,FC,00,FA,03,FD,FA,FF,05,03,03,03,FB
,05,FB,FD,FC,FD,01,FC,FD,01,06,04,FD,FB,FB,FD,06
,04,01,FD,02,03,FB,02,05,00,FA,05,03,FE,04,06,F9
,FF,02,F8,00,04,05,00,F9,05,02,FE,FF,05,05,F9,04
,02,03,03,FF,FF,01,06,00,00,00,FC,FD,FE,05,03,F9
,F9,F9,FD,05,FE,FD,05,07,FE,FA,F9,05,FD,05,03,FD
,07,06,FA,FA,FA,FE,FE,00,FC,FF,00,FD,06,07,04,FF
,02,06,FB,05,04,FD,FA,01,01,FC,00,04,FD,05,FE,05
,05,F9,02,F9,00,FD,01,FE,FA,05,F9,FA,FA,FE,01,FB
,04,03,FF,FC,FB,06,FD,FB,05,00,F9,F9,00,05,FA,FB
,FF,FB,03,01,FB,FE,04,FD,01,FE,01,FF,FF,02,02,04
,03,05,FC,FE,05,FB,FF,FA,01,FF,FF,07,04,FB,07,F9
,F9,FF,02,FF,05,05,FB,03,02,FF,F9,03,04,FA,03,FE
,FF,06,06,06,06,FF,04,FD,05,FF,F8,FD,FF,04,FD,05
,04,FC,FE,00,06,FC,01,06,02,03,05,05,FC,FC,01,F9
,FD,FA,FE,FA,FF,03,F9,FF,FC,01,F8,FD,FF,FE,03,06
,01,F8,FA,05,FE,00,02,FE,FD,FC,02,FF,04,01,FB,FC
,02,FE,07,04,FC,05,FD,03,F7,01,03,FF,03,FB,01,FF
,03,04,04,01,FD,03,06,FF,02,07,03,FE,04,00,07,04
,07,02,F9,05,FD,FB,05,01,FC,F9,02,FC,02,FA,F9,03
,02,02,FD,04,FE,FA,04,03,06,FB,FB,05,FE,03,FE,00
,FE,03,FB,F9,06,FE,F9,02,00,00,FC,02,FD,FA,04,FA
,FA,FA,05,03,00,FD,FE,FA,FD,06,01,FA,05,FF,FD,05
,FD,FF,FE,00,01,FF,01,FC,FD,00,FD,FA,03,03,FA,02
,FF,04,02,F8,04,FE,FC,02,06,04,04,FA,F9,FC,02,FD
,06,FC,FF,FC,04,03,01,FC,FB,FD,FB,FA,03,FE,02,07
,FF,06,03,02,07,FF,FE,FC,04,05,FD,04,FA,02,00,03
,FB,01,04,01,FE,FB,FC,02,FE,02,02,02,FD,04,FE,06
,09,F9,00,02,01,02,FD,02,FC,FB,03,FF,00,00,FF,F9
,04,FD,03,02,FE,FC,FD,FD,03,04,FF,FA,F9,FA,00,F9
,FE,02,FB,04,02,FA,FE,FB,05,FB,FF,05,FA,FB,FA,FF
,FF,FE,F9,02,05,FA,FA,02,02,01,01,FD,FE,02,FD,FC
,FB,FD,00,05,07,05,03,00,00,01,FA,F8,00,06,00,01
,F8,02,F9,04,00,00,FF,FF,02,06,02,FD,01,05,02,FB
,04,05,00,FD,FB,FF,F9,FE,05,05,F8,FC,FE,FA,F9,04
,FC,FD,FA,F9,03,FB,01,FE,01,06,04,F9,07,04,FD,02
,FD,FB,FB,02,FD,FE,02,FC,03,01,FC,FA,FC,FF,FD,04
,FA,F9,02,FB,01,FB,00,FC,FB,F9,03,02,FF,03,FA,FC
,FD,03,05,FF,01,06,05,FC,FA,03,02,F8,F9,FD,04,F9
,F8,F9,FD,FF,FE,06,03,FE,FB,04,F9,FB,04,04,FC,02
,F5,FA,02,04,00,F8,FB,FD,F9,FC,06,FF,03,05,F9,07
,FA,F6,01,05,04,FA,FC,FC,0B,FD,F9,07,00,06,01,FC
,04,FC,05,FC,00,01,03,F9,FA,01,03,03,FF,FB,FA,FC
,02,FC,FC,03,06,FF,F8,FF,07,FB,06,FD,00,04,05,FB
,FD,02,FC,04,04,02,FC,02,02,FC,05,06,FF,02,FB,05
,03,00,06,04,07,FB,03,F9,0B,FD,FB,FB,FD,01,03,04
,03,02,03,FB,05,FB,05,FF,F9,02,06,03,FD,05,FB,FF
,00,FF,FB,FE,03,06,FD,02,05,05,03,FC,FA,FA,FF,01
,FB,FF,FF,FF,00,01,FE,06,FA,00,FB,01,03,03,FA,03
,FC,05,FB,05,06,02,03,F8,FE,FA,04,FB,03,02,FE,FA
,FB,FD,F8,06,FD,03,04,FC,02,FC,06,FF,02,05,FD,02
,FF,FF,06,01,FE,04,05,04,FD,FA,01,05,FD,01,F9,FB
,FB,01,03,01,FE,04,02,05,05,FF,FB,FC,02,02,01,FE
,FB,FB,F9,03,04,F9,05,03,FA,04,01,00,01,03,FB,00
,FF,00,00,FB,FA,07,07,FE,04,F9,01,07,00,FA,FA,01
,01,FB,FE,FC,04,FB,02,FF,03,FF,FA,FD,02,FE,FD,FE
,F7,FA,F9,00,00,FD,03,FF,08,01,FB,FD,04,FD,F8,02
,03,02,06,FE,00,02,00,04,FB,FB,FD,05,FD,05,04,FC
,03,FE,FC,FC,05,01,FF,FC,FE,04,02,03,FC,FF,00,04
,F9,01,F9,FD,05,FF,F9,03,FB,05,FD,FE,03,FD,FD,02
,06,03,06,01,FD,FB,FD,FC,04,FE,00,02,04,FE,06,F9
,F8,04,02,04,03,05,FB,FA,00,FB,06,FB,00,04,FC,00
,FA,FD,FF,FB,02,06,07,FE,F8,FA,FF,FD,F8,05,05,FF
,05,FF,FB,F9,00,FE,02,FC,FA,FE,FC,02,FD,07,03,FF
,FC,FF,FF,FA,01,FE,F8,FF,00,03,05,FB,05,FA,FC,00
,FA,F9,03,FD,02,01,03,01,FA,FD,06,04,F8,00,04,06
,FF,FC,06,FF,00,07,FA,02,FA,FD,01,09,04,03,FE,01
,02,FA,00,01,04,03,05,07,FB,FE,FA,05,FE,01,06,FA
,04,00,FD,FC,FA,FC,06,04,04,FE,FA,06,05,04,FD,00
,FA,FE,06,03,FF,00,04,FF,FC,FB,FB,00,FC,FF,02,02
,FD,FE,06,00,05,02,FD,FD,05,FA,FA,FB,03,00,04,FC
,06,02,00,03,01,04,01,FF,06,06,FE,03,FE,FE,03,06
,FC,FA,06,03,04,FC,FB,04,FB,03,01,FD,03,00,06,FB
,02,FD,03,FC,02,01,FA,07,02,06,00,F9,02,06,F9,01
,FA,FB,04,03,FC,01,FB,05,02,FB,FA,03,01,03,03,FD
,00,05,00,FF,F9,00,06,FF,03,04,05,FC,F8,F9,FD,05
,00,02,04,F9,08,FE,FA,F9,03,FB,FF,F8,04,FE,05,06
,05,02,00,06,FC,FD,FD,FE,FD,02,04,FF,00,02,FC,04
,05,F9,05,04,00,F9,FB,03,FD,00,06,F9,FC,02,00,04
,FC,01,FA,F9,FF,FA,F9,04,FB,FE,FA,F8,FA,FE,FC,FC
,04,FC,FE,FC,04,03,FF,01,05,03,04,02,FF,FC,FF,02
,02,00,F9,01,F9,03,04,03,03,06,FA,FB,FD,FF,01,FA
,FA,06,F8,04,02,FA,FB,FD,FF,06,03,01,06,FC,04,F9
,03,08,03,FA,03,06,FA,03,FD,01,03,01,06,03,FF,FE
,FD,02,05,01,F8,04,05,F9,05,03,FB,04,FD,FB,F8,05
,FD,04,FB,03,05,FF,FB,01,FD,FA,00,F9,04,00,00,00
,F9,FA,04,FB,06,FE,FA,01,01,07,FE,07,FC,05,03,FF
,FB,08,FD,06,F8,FF,02,03,F8,01,02,FD,F6,FD,07,03
,F9,FE,06,FA,02,FF,FD,F7,08,03,06,05,FD,07,FD,01
,01,05,FD,FE,07,04,F8,05,09,FA,FE,FE,FF,F8,02,FF
,FA,FA,06,06,FA,06,07,F9,FE,FE,FF,FD,FD,FB,07,FD
,FE,01,FA,02,F7,FF,02,07,FB,00,03,03,00,F9,FF,00
,0C,01,FD,00,F8,02,FB,FD,FB,01,F9,04,01,03,FD,FB
,03,01,01,F8,05,00,08,FA,F9,FC,05,FE,F8,02,04,FF
,FE,01,00,03,02,01,05,02,FD,FE,FF,FF,F9,03,03,02
,FA,FA,02,FA,05,01,FA,F9,FD,F8,FB,00,FE,FB,FC,02
,FB,03,FD,FE,FB,01,FB,FF,00,01,FB,FF,03,FD,FC,00
,FD,01,FD,01,02,06,FB,01,FE,04,04,F9,06,00,FC,F9
,FA,FA,FA,00,03,01,04,FF,02,FA,FD,03,04,FA,03,F9
,00,06,02,F9,00,01,FE,FD,FC,05,FD,01,FD,FC,FD,05
,08,06,FB,FC,F9,01,05,05,09,FE,F9,09,03,FC,FD,F8
,FB,FF,06,F9,06,FA,03,FE,00,06,05,FF,FD,FA,05,01
,04,FA,00,F9,FF,FF,01,FE,FE,00,05,05,01,FF,FB,01
,FA,02,F8,FF,07,F9,FA,FC,02,FF,FA,04,FB,01,04,FE
,F9,FF,FF,02,04,FA,FA,01,FF,F6,FA,04,06,00,04,01
,FC,02,00,FF,02,00,FC,FE,01,FD,01,01,FB,04,FB,02
,FE,FF,FE,FB,FC,FB,FF,07,FD,01,02,01,FA,05,F8,FE
,FB,07,FA,FB,08,00,04,F9,FB,02,05,FF,01,FD,05,00
,FF,02,05,F9,02,FE,06,FC,FE,05,FA,05,F9,F9,FE,FC
,FD,FB,FC,FB,F8,05,03,F9,FF,04,F9,05,02,05,FF,F9
,02,01,FD,04,06,FD,FB,06,04,04,05,FF,05,F9,FB,F9
,FC,FD,04,02,06,FC,05,FC,FA,FD,01,FA,05,05,05,FE
,03,00,01,FA,FB,02,FE,FF,FC,02,00,FA,FF,FC,FE,02
,FD,02,02,06,05,FF,04,04,06,F9,06,FA,04,04,FF,FB
,02,02,03,04,FF,06,06,00,FA,04,FC,05,04,FF,05,FA
,00,02,F8,00,01,F9,06,04,01,FB,05,FD,05,FB,FF,F9
,FE,01,FD,F8,03,00,FF,FA,02,FE,FF,FC,05,FE,01,FC
,03,FC,02,FA,FF,F9,01,01,FD,FC,FF,07,04,02,07,05
,04,FA,F9,F9,FD,02,FB,F9,07,FB,01,FC,FC,FD,FD,01
,02,08,FD,02,FE,FF,01,FA,FE,02,FF,05,FF,FD,FF,08
,F8,01,04,F9,05,FA,FB,FB,04,FB,05,FE,03,FA,04,04
,FE,FE,00,00,F9,05,F9,FE,00,FB,03,00,F9,FE,FF,02
,FB,FC,06,03,05,02,FA,FF,02,01,03,02,FD,FB,FC,01
,FC,05,05,FD,05,03,FF,02,03,03,FE,00,02,05,04,03
,FD,F8,FB,03,FD,FF,05,04,04,FE,00,FB,01,FC,FF,FA
,FA,00,05,FA,00,F9,FD,FC,FD,06,00,FA,FD,00,02,FC
,FA,FD,01,FE,06,02,01,FB,06,03,03,03,02,FD,FE,02
,05,05,FA,FD,FF,04,00,00,05,FD,FA,02,FD,07,06,00
,FF,FA,06,F8,F9,F9,FF,04,02,FD,05,FD,00,01,FA,02
,FC,FA,FF,00,FB,01,FA,04,FF,06,FD,FA,FA,04,02,06
,FA,FC,06,06,FF,FB,00,FB,03,01,01,04,FF,01,03,02
,04,FB,03,02,04,FD,05,02,F9,FC,F8,04,03,FD,FE,FA
,01,01,F8,02,FC,01,FD,01,FA,00,06,05,06,05,FD,06
,06,00,FD,02,F9,FF,F9,F9,01,02,FB,FF,FC,FA,03,FE
,07,FA,FA,02,FC,FE,FF,02,F9,02,FE,F9,06,01,FF,FF
,05,FE,FC,01,FA,FF,F8,03,00,01,05,05,FC,02,05,FE
,01,06,02,F9,05,00,FD,FE,00,F7,04,02,05,FC,02,00
,06,04,04,FE,FF,F8,01,FE,00,FD,FA,FE,00,FD,01,FF
,07,FD,F9,FD,FD,01,05,FB,FB,FD,03,FE,FE,FD,FD,FA
,02,05,01,FA,FA,00,03,FA,FC,FB,02,03,00,FC,00,FF
,06,FF,02,01,03,06,03,02,05,07,01,F9,01,FC,06,06
,05,04,00,01,FF,FD,FC,FF,04,FF,07,02,06,06,FF,FD
,FE,FF,FD,05,06,07,FD,FD,01,04,05,FC,02,04,FD,02
,F8,06,05,03,FC,FE,FB,06,05,00,05,03,03,FF,04,FB
,F9,04,05,F9,02,FE,FA,FB,03,F8,05,00,FE,03,FB,FC
,03,FB,00,00,FB,FD,00,05,05,04,FD,FB,04,03,03,FC
,FA,02,02,FB,03,01,06,FC,02,F9,00,FF,05,F8,03,04
,FF,FF,04,04,05,02,F9,02,02,FC,05,F9,FA,03,FA,00
,00,06,F9,02,00,FF,FD,FE,05,F8,FE,03,02,02,03,00
,FC,FB,FA,FF,FD,01,01,04,03,02,FF,04,FD,05,01,06
,00,00,00,F7,04,06,03,FC,FF,05,FE,04,03,03,05,06
,FF,00,07,F9,06,00,00,FE,FD,03,06,F9,FE,F9,04,02
,08,FB,FB,FD,F6,FF,03,04,07,FE,06,00,07,F8,05,FA
,04,01,08,FB,06,04,00,FB,FE,FC,02,FE,00,FD,00,01
,01,00,FC,FC,05,07,00,FA,F8,FC,FE,02,04,FB,FF,02
,04,04,06,FA,07,FE,FB,FD,00,02,04,00,04,00,FB,07
,09,02,05,F9,FE,01,FA,FE,08,FB,FC,FC,FC,01,06,FE
,03,03,05,FD,FA,04,05,F8,01,FB,FC,05,F8,FF,01,FE
,05,FF,FA,FD,07,FC,02,FF,FA,FF,FC,01,FB,FE,FC,02
,01,FE,FA,F9,FB,FE,06,01,00,01,00,05,FF,F9,05,FC
,05,00,00,04,FC,F9,FA,03,05,FD,F9,FB,F9,04,05,04
,FA,FB,FE,FE,06,FA,F9,FE,01,F9,05,01,F8,05,01,FC
,FA,FB,FC,FB,06,FC,F9,05,03,01,FB,FD,04,FB,FA,05
,F8,06,02,02,FB,02,01,00,FF,06,F8,F9,03,F9,FD,01
,04,FD,FE,04,FA,FC,01,04,FF,06,03,02,FC,FE,FF,05
,03,FA,F9,05,04,FE,01,FF,FA,FB,08,01,F9,03,FF,01
,FC,FF,FD,FA,FE,07,FB,FF,FA,F7,01,FF,F9,05,FE,F8
,FD,02,FD,FF,03,03,FF,FD,06,FA,FF,04,00,FE,FC,FE
,01,01,FA,FF,FF,03,FB,FD,02,F6,FB,01,FB,03,04,F6
,06,01,FF,FC,FA,03,02,FB,01,02,FB,00,FD,02,01,00
,08,F9,FD,03,03,00,F7,FF,06,FF,FA,FD,01,05,03,F7
,FA,FC,04,FD,FE,FC,F9,FD,00,06,00,FC,00,05,F9,00
,FB,05,FE,FC,FB,FB,F9,01,FC,FC,06,04,05,FE,01,FE
,F9,FA,02,01,FB,02,FD,FF,F9,00,03,FC,02,00,03,03
,01,F8,05,FD,00,FA,FB,07,05,03,05,05,03,01,FA,FE
,03,06,FF,FC,06,06,FB,FD,05,02,FE,05,05,FC,06,05
,F9,03,04,01,FE,07,02,FB,05,04,01,FF,FB,00,FD,03
,F9,FD,FA,05,05,FF,FC,F8,08,02,FE,FB,02,00,00,05
,05,FB,03,03,01,04,FB,FA,06,FF,FF,06,01,02,02,FB
,02,00,FF,FC,04,01,03,02,04,03,FB,F9,03,FD,07,F9
,FA,00,04,FE,04,FF,03,FF,07,FF,FE,FE,01,FD,F9,FA
,02,04,FF,04,FF,FE,00,05,07,FC,05,FD,04,FB,FC,FE
,01,06,FD,FD,F9,03,F9,05,FA,F7,03,FE,F9,06,04,FD
,FC,00,02,02,FE,FC,FB,FE,F8,FC,06,FD,FB,05,FC,FB
,03,FF,03,00,02,04,02,FB,02,03,F9,FA,07,03,FF,00
,FD,05,02,03,05,02,03,06,05,FE,01,03,FB,FB,04,FA
,05,FF,FD,03,02,F9,05,FD,06,01,03,08,02,FC,04,FF
,03,02,00,00,FA,FF,FE,FA,03,FB,03,07,00,FE,01,FA
,01,FF,FC,FB,01,FE,05,02,FF,FD,00,04,FA,04,FE,FE
,06,01,00,FC,08,FC,06,06,FF,FA,F9,FF,FD,FB,FC,06
,00,FC,05,06,04,03,FB,FE,FB,02,FD,FE,FB,06,06,00
,02,01,F9,FD,02,FB,04,03,01,05,FE,FA,01,FA,FC,07
,06,FA,02,FE,F9,05,04,00,FE,02,04,FF,03,00,F9,01
,FF,03,03,FB,03,05,02,FD,FD,06,06,02,FA,F9,04,FB
,00,FC,00,07,01,01,06,FD,FA,01,05,FF,FF,02,02,FD
,06,FF,FD,06,06,05,FB,08,FA,FD,FB,04,00,02,FD,05
,FB,00,01,FB,07,02,03,FB,02,07,F9,FD,00,04,FC,FB
,FA,FC,FA,F8,07,03,03,04,00,FE,07,01,00,FB,00,FA
,FB,02,07,04,06,F8,FA,FF,05,FB,01,FE,FE,03,FB,01
,FC,FE,FE,FC,01,02,FF,06,01,FB,02,00,FD,05,06,01
,01,FB,03,FC,FF,FF,FE,01,FB,FA,03,FA,05,06,00,FF
,FA,FE,05,06,04,FF,02,05,FF,00,F9,FA,06,FF,05,01
,F9,FE,FD,08,F9,F9,02,F9,05,FA,00,01,05,01,FF,FE
,02,FA,FA,FA,00,FC,F8,FF,00,04,F9,03,FA,FD,FE,FC
,F9,02,06,FA,08,FC,06,03,FB,04,04,FC,06,FA,FC,F9
,06,FF,FA,FA,02,05,04,FB,05,00,FD,04,FD,05,FB,01
,FC,FE,FA,04,FE,FC,00,04,03,06,06,04,06,04,06,FA
,00,FA,04,05,02,F9,FC,FD,00,FA,06,FD,FE,FE,FE,03
,04,FB,FB,01,FC,02,FB,05,05,FA,FF,05,FE,05,06,00
,05,03,00,FE,05,FB,06,FA,FD,04,FB,00,FD,00,FB,02
,00,04,02,04,FB,02,04,02,05,F9,03,02,05,F9,05,FD
,FF,FE,05,06,FA,04,06,03,FC,FC,FB,FA,04,FA,00,FB
,FD,FF,03,F8,FE,03,05,04,FF,07,FB,FA,FC,05,01,FB
,04,03,02,FB,01,FF,01,04,FB,00,02,FB,01,FC,03,FB
,06,FE,00,04,05,F7,F9,F9,05,FE,01,FF,05,02,03,03
,01,F9,07,04,FE,FE,00,06,FA,04,04,04,02,FB,05,02
,FF,FA,FA,06,03,FD,FB,FC,03,02,06,04,FD,FD,02,03
,FB,FE,08,05,01,01,FB,FB,FD,02,07,FA,FA,00,07,04
,00,01,F9,02,F7,03,FB,FB,02,FE,FF,FD,02,04,FF,FD
,03,05,FD,FD,06,04,FD,06,04,04,02,04,02,03,07,FA
,FF,04,07,FC,FE,05,FA,FE,FA,FE,01,04,08,06,04,FB
,FC,04,FE,03,06,FE,FD,06,02,00,04,FB,FC,02,02,FA
,04,FE,FD,08,00,FE,F9,FF,00,01,04,04,03,FC,02,02
,FD,F9,FE,F9,FE,03,FD,02,FE,00,06,01,05,05,04,FC
,05,FA,FF,FB,07,FC,FF,FD,02,01,F8,FD,FF,F9,FA,FC
,01,03,06,F9,FA,00,FF,FF,06,03,05,FB,FB,F9,05,FD
,00,F8,04,05,04,01,06,FD,FA,FE,FF,FB,FE,FB,00,FC
,F9,03,FA,05,06,FB,FE,FE,00,06,F9,FC,02,02,FB,00
,00,F9,FF,05,FE,03,FD,FF,00,FD,FD,00,FE,F9,00,FC
,03,FB,05,03,00,04,FE,05,03,FE,06,FB,03,FD,05,FD
,FD,FF,04,04,01,07,05,02,05,04,00,01,00,06,F9,00
,03,01,04,04,FA,FE,03,FB,05,03,FD,FD,00,02,FB,FA
,FC,02,05,01,08,01,02,02,07,FE,01,FB,FF,00,FC,FB
,01,FC,08,01,00,FD,03,FA,F7,05,F7,01,03,FE,00,02
,00,F7,05,00,FE,03,FB,FC,F9,05,FD,FC,00,F9,FC,02
,FF,01,02,02,FD,07,F9,03,01,FC,03,01,FC,FE,04,04
,06,F9,07,FC,FE,FC,FC,05,05,FA,04,03,FA,02,05,FC
,FD,02,FD,03,01,04,02,FD,07,FF,FE,01,01,06,03,04
,05,04,05,03,03,03,FA,02,F9,09,05,00,06,01,FC,FA
,07,FD,05,FD,FC,FD,06,01,FC,03,01,03,05,04,F9,FD
,01,F9,05,FA,01,03,03,FA,05,FA,FD,01,01,FD,FD,FB
,01,01,FA,FD,FC,FD,06,FA,FA,00,06,04,FD,F9,FD,04
,FC,02,F9,FB,F9,03,05,FE,02,FC,04,06,FA,FA,04,FC
,F9,FF,FA,FE,02,04,05,FF,FB,FA,FB,FF,FB,FB,FC,F9
,FC,03,F9,FC,00,FA,01,FA,FF,FB,FC,F9,FC,F7,04,06
,FB,FB,FC,05,04,FA,F9,07,FA,02,FC,04,03,FF,01,FD
,00,05,FF,03,02,06,02,FF,F9,FD,00,FB,01,FF,FC,04
,01,04,03,FD,FE,01,F9,FE,01,FE,FB,01,06,FF,04,01
,05,FD,02,FE,FF,04,FB,02,05,04,FF,FF,06,03,FC,03
,04,FF,00,06,FF,06,06,00,FF,FD,F9,FC,FF,FD,FC,FF
,02,FF,FF,FF,02,04,05,FB,02,FD,00,01,FC,04,FB,FB
,FF,03,FD,FC,01,06,06,FF,00,FE,FA,FF,00,FC,00,FD
,F9,02,FB,FE,FC,FF,F9,F9,02,FE,FF,00,FC,00,05,FE
,03,06,FD,FA,04,00,01,07,06,FE,05,05,05,01,FA,FA
,00,00,02,F9,03,FC,06,02,FA,00,F9,FF,FA,00,FA,06
,00,FF,05,FD,04,00,FA,04,FC,FC,05,02,FD,01,FB,F9
,02,01,FC,06,F9,FC,F9,FB,F9,02,06,05,07,07,FC,02
,FC,FC,00,02,03,04,07,FC,00,06,03,FF,04,FB,00,FC
,FB,07,06,02,04,FE,FF,FB,05,F8,FF,FE,F9,03,03,03
,03,04,FF,04,F9,FE,FB,01,FC,FD,FB,FD,03,FA,FF,02
,FF,FE,06,FB,01,01,FA,01,05,01,F9,07,FE,FC,00,00
,FC,00,05,00,04,01,05,04,04,06,FA,01,01,FF,00,03
,06,FC,04,03,01,FC,FC,F9,FC,FD,FF,FE,FC,F9,05,04
,FC,FF,04,02,05,03,05,00,FA,04,02,FB,04,FB,05,04
,FE,FF,05,FE,FB,01,02,06,02,09,03,03,06,00,FB,FF
,FC,FD,FB,08,01,FA,00,FD,07,03,03,FA,FD,00,FB,04
,F9,00,FE,FA,FF,05,01,07,FC,04,FE,00,F9,FE,FB,05
,F9,01,00,05,FA,00,FF,03,FE,02,FA,03,FE,03,00,01
,01,F9,FF,03,01,02,02,FD,04,F8,06,FF,F9,FD,01,06
,FD,05,07,03,FD,01,01,F9,FD,02,07,F9,02,FF,FB,F8
,FB,02,05,05,FC,02,06,06,01,06,FD,FA,05,04,07,F8
,02,03,03,02,05,FE,F8,FE,02,01,FB,F9,FD,01,03,FF
,06,04,01,01,00,FD,FE,FB,06,FB,00,00,00,FC,01,F9
,06,FC,FF,05,FE,FC,FA,05,FA,FB,02,FF,FA,FA,FD,05
,FB,04,03,FE,FB,02,02,FC,FC,04,FE,FE,03,FD,FF,FE
,FD,F9,02,FF,FB,FB,FF,FB,02,FC,05,03,FE,FE,01,00
,03,FE,03,FA,F9,FF,F9,FC,FF,01,02,04,03,06,02,05
,03,00,FF,01,06,00,FB,01,02,05,FC,FE,F9,F8,00,04
,FC,05,05,02,04,01,FA,02,00,F9,FF,FE,04,04,02,FE
,FE,01,FC,00,FF,FB,FB,FB,FD,FC,F9,FF,FE,05,02,FF
,05,FF,04,F8,07,00,F9,03,05,04,FD,03,05,FD,FA,00
,FB,03,03,06,07,FB,FD,07,FC,FB,FA,03,04,03,FF,03
,03,FB,FB,FD,03,FD,FE,F9,FC,00,03,FC,FC,01,01,F7
,FF,FF,05,04,06,F7,FB,FD,FC,FC,02,06,FE,01,F8,F9
,01,05,01,FF,00,06,07,01,FE,01,05,03,FF,F9,03,03
,FE,FC,04,03,02,FE,F9,F9,04,02,FC,FD,FA,FC,FC,07
,02,01,04,07,FE,07,02,FD,FD,00,05,FC,04,01,02,F9
,FF,03,04,04,01,FF,F9,06,04,04,04,FD,05,FA,04,05
,FE,FC,01,01,FB,06,F8,FA,06,FF,03,01,01,01,05,FB
,FA,04,FA,06,05,FE,02,FE,FE,03,03,00,02,FA,07,FF
,FC,FC,F9,FB,F9,00,FB,05,FA,00,07,FF,FD,FF,FB,FF
,FF,04,06,06,00,FA,03,04,08,00,00,FC,FA,FE,FD,FF
,FF,01,06,06,07,01,FC,FB,FF,01,04,01,06,FC,06,06
,04,06,04,FB,FC,FF,02,04,FD,FA,04,04,04,06,02,00
,FE,FA,04,07,01,01,FE,FD,F9,FE,02,FE,06,01,01,03
,FA,FF,FA,01,F9,FF,03,F9,FE,FB,01,01,04,07,00,03
,03,FB,00,07,FF,03,04,FC,FF,FE,02,F7,03,F8,03,01
,02,FD,FE,05,04,FF,FC,01,02,FB,FF,06,FF,F8,00,FF
,F9,FC,FF,00,03,00,FE,FA,F9,FA,04,FF,F8,01,01,FC
,03,03,F9,FD,FD,00,00,FA,FE,02,01,02,00,08,04,FA
,04,02,03,00,06,05,FD,04,FC,FE,FA,FE,05,FF,FB,01
,FD,FD,FB,02,FF,FF,FA,06,03,03,06,05,02,02,06,02
,FE,04,FD,F9,05,01,02,06,04,05,FB,F9,07,01,00,FB
,04,FF,03,FC,F9,FA,00,FB,FF,FE,07,FF,03,06,FA,01
,02,02,FA,F9,02,01,05,FE,02,FF,FC,FC,00,F9,02,F8
,05,04,FD,01,FC,F9,06,FD,03,FD,02,02,06,FB,02,05
,FC,FE,04,00,01,F8,FB,FF,FA,FC,FE,06,F9,01,01,FE
,FA,FD,01,FE,05,04,F8,FB,02,00,FF,FA,05,FB,00,07
,02,05,FA,04,02,FF,00,F8,FF,06,FD,06,06,05,F9,06
,06,FF,05,01,F9,FC,02,FD,07,05,FA,FB,F9,00,07,F9
,06,06,FD,FC,02,FA,01,03,04,FE,03,FE,FA,F9,FB,00
,01,FA,FF,FE,02,06,03,05,01,FA,F9,FF,06,02,FE,FF
,FC,F9,FB,F9,FC,00,03,FB,01,06,01,01,FE,02,FA,05
,03,FA,FE,FF,05,00,FB,F9,FB,F9,05,07,05,FE,01,FE
,FE,06,06,03,FA,04,FD,FA,F8,04,03,FF,FF,FA,FC,FF
,05,00,FB,02,FA,01,FA,00,FE,FE,07,05,07,08,F9,FE
,FE,FB,FB,FC,05,05,00,FD,02,FE,F9,04,03,01,05,FF
,FA,04,F9,FD,06,FE,07,FC,05,02,FE,FC,F9,FA,04,04
,FA,03,00,00,FE,FE,06,FB,FA,FE,FA,FC,FE,FC,04,02
,06,F9,F9,05,FF,02,00,04,01,FB,FA,FE,FE,04,FD,04
,FC,07,F9,04,FD,FC,01,00,04,FF,03,05,02,FB,04,07
,07,FD,FA,FD,00,FF,FB,F9,02,FE,06,06,FF,FC,07,FA
,05,FF,06,FB,FC,FE,FC,06,FE,FB,04,05,02,01,FE,F8
,03,FD,FC,05,06,04,03,04,05,01,02,00,FF,00,FA,06
,04,FB,00,F9,FD,00,F9,F9,00,02,FC,07,F9,03,FF,02
,F9,F9,05,01,FF,FF,FA,F9,FD,FD,F8,06,FA,FF,03,FF
,FC,03,FF,F9,FB,F9,02,FE,FE,F8,FB,03,01,05,FC,FF
,03,05,04,06,01,02,00,06,FB,FD,FA,06,00,05,FB,FF
,FE,06,FB,FD,01,07,FE,04,01,08,05,F9,FE,03,05,05
,FD,02,FC,06,FE,FA,07,FF,00,01,FA,02,FA,FC,00,02
,FF,F9,FB,FF,FE,05,00,FE,FE,07,FD,FD,FC,02,06,03
,F9,01,FD,07,FA,FA,FE,FE,07,F9,FA,FA,03,FD,FC,FF
,FB,FF,F8,FD,02,01,03,F8,FD,05,F8,03,06,FB,F9,03
,00,05,07,05,04,03,04,FC,FC,01,00,04,FF,00,05,00
,03,02,FA,07,02,05,00,F9,05,FD,FB,FE,06,02,02,FD
,FD,FF,01,05,FF,FF,02,01,FE,05,FC,F8,FE,02,05,02
,F8,01,FB,03,FE,01,FE,F9,FE,00,05,01,FB,01,03,FA
,FC,FF,FD,03,03,00,02,06,FF,03,FB,01,F8,FB,02,FB
,FB,04,06,03,FC,05,04,00,FC,07,FF,FB,05,05,02,06
,00,FC,F9,FD,FD,FC,04,05,05,FA,F9,FD,03,04,FE,FE
,03,FE,FE,FF,FC,FC,00,FC,03,00,00,05,FC,00,06,04
,FF,00,03,FD,02,FA,05,02,FB,FE,FF,00,FA,01,00,01
,01,03,FF,FB,04,02,FB,01,FF,F7,FD,FD,FB,02,07,00
,FF,FB,F9,FA,F8,03,FE,02,FC,05,FA,00,04,FA,03,08
,06,05,FE,FD,07,04,FD,FF,FE,00,FD,07,FB,FF,FE,02
,02,FE,FE,04,00,FD,00,00,F9,FB,F8,F9,05,FA,02,F9
,06,F9,01,FD,FD,FC,FE,03,01,FA,02,01,FD,FA,FA,FC
,FD,06,FA,02,05,00,F8,06,FC,FD,03,FD,06,0B,03,03
,02,FA,F9,03,07,07,05,02,06,F9,02,04,02,02,FA,05
,03,FB,03,03,03,05,04,FF,05,FB,04,07,00,05,01,05
,00,07,FF,03,02,00,05,03,FA,FF,05,07,FD,05,01,FC
,FA,03,04,FF,FE,00,FC,FE,05,FF,FF,F8,FE,05,01,FF
,05,F9,03,FC,FF,F9,FF,01,FC,02,FB,FF,01,01,FA,FE
,02,02,FC,FD,FE,FC,F8,00,01,04,F9,02,FC,F8,03,FD
,FA,FC,FC,FD,FC,06,01,01,F8,03,02,FC,03,FA,FA,FD
,FD,FE,FF,FC,03,02,01,FC,04,00,FC,FA,FB,FA,00,FB
,FA,05,FF,FA,FB,02,FA,02,00,02,FD,FE,03,FE,03,00
,01,01,FB,01,FD,FD,04,03,FD,02,00,03,F9,06,00,FB
,F7,05,FB,03,04,F9,06,05,00,FD,06,02,03,FF,05,06
,FB,F9,FF,FF,F9,F9,FB,F9,00,F9,00,FD,FC,FC,02,04
,03,F9,FF,F8,04,00,FC,FD,FC,FF,FC,FC,06,02,F8,FD
,02,00,FA,06,04,06,03,03,05,00,FF,05,F8,05,00,07
,FA,F7,FC,07,FA,FB,FE,05,F7,03,FF,04,FA,03,FE,05
,FE,00,F8,04,02,06,02,FF,FE,00,03,00,04,FB,02,FA
,FF,FA,04,00,00,06,05,FA,00,FE,FB,F9,00,03,04,FC
,F8,04,00,FC,FF,F8,FE,05,0A,FF,FE,00,02,02,FE,F8
,00,06,00,FE,00,FF,F9,02,03,F9,FF,FF,04,FF,FC,FF
,06,02,FB,05,FC,FC,FD,FC,00,00,FC,02,FD,F9,05,05
,00,FE,FA,06,FB,02,04,FB,FD,FD,01,01,FD,05,FC,F8
,00,01,03,FB,FD,05,FB,FE,04,FA,03,00,F9,05,FE,F8
,FF,FD,FF,FE,FF,F9,FF,FB,04,01,FA,FA,02,05,06,02
,FA,04,FF,F8,F9,01,F9,02,02,00,F9,FA,FD,02,FC,FD
,05,FA,F8,02,FD,07,FE,03,03,07,FD,02,07,06,FC,05
,FF,FD,FF,03,FF,F9,03,FC,FA,05,00,FE,F8,FB,FB,04
,03,00,FE,06,05,05,FD,04,FA,01,04,FD,FB,06,00,FC
,FB,01,F9,FB,FE,FA,FC,FE,03,FB,06,FC,FB,05,05,05
,05,FE,FF,FC,FA,FA,FA,FB,04,02,FD,FD,01,00,FF,02
,FF,00,FB,F9,01,03,01,F8,05,05,01,06,04,FA,FB,F8
,FD,03,03,01,FE,FF,F9,FF,FF,FA,00,02,FD,F8,02,01
,FE,03,FA,FE,FE,FB,01,01,03,FD,00,FA,00,06,FD,FF
,FC,01,FC,07,03,05,FD,01,FE,FF,FE,FE,06,04,F9,FE
,03,FC,FF,01,FC,05,FE,F9,02,FF,05,FA,FE,01,FF,00
,02,FE,F9,F9,04,FE,FF,FA,04,06,03,FF,06,F9,04,03
,03,00,04,03,F9,05,FF,02,FE,F8,05,FA,05,FA,F9,04
,FA,05,FF,00,FE,00,03,02,FD,FF,FD,FC,FE,FC,FC,02
,FC,FD,04,04,FD,02,07,FB,FC,FC,02,05,01,06,FC,F8
,04,FA,F9,FA,FE,03,06,FF,01,F9,01,01,FC,F9,FF,00
,01,FA,FA,03,FF,06,FA,03,01,FC,02,F9,FB,FA,FA,F8
,FF,FA,FD,03,FF,FD,F8,04,04,04,01,FC,FD,F9,FF,05
,FF,FD,FF,05,FF,FC,FD,03,03,04,F9,FB,01,00,06,FB
,01,07,F9,FB,FB,FC,05,FD,FE,FC,FD,07,FE,FE,FE,FD
,FC,04,06,03,FF,01,04,00,05,05,FE,04,05,FE,FD,00
,FD,06,04,FB,03,06,06,FC,FB,03,FC,02,FF,FB,04,FB
,00,FE,F8,03,F9,06,FD,06,FE,FD,03,01,01,FE,FA,F9
,FA,06,03,FB,FA,F9,FB,06,05,04,05,03,06,FA,00,FB
,06,03,04,FC,05,04,00,FE,04,01,FF,F9,06,FF,00,03
,FB,FB,FC,00,00,FD,FF,04,06,00,F8,00,FD,FC,02,FA
,FA,FE,04,06,FE,FD,03,03,01,01,05,07,02,FC,FF,FB
,F8,F9,04,FC,03,F9,FD,FB,05,00,FC,03,05,FF,FE,03
,05,02,FB,FC,06,05,F9,04,02,03,FA,FA,FE,FD,05,F9
,02,FE,04,FE,05,03,05,FE,01,04,03,05,FB,06,06,00
,06,00,FA,01,04,F9,00,FE,FD,06,F9,FE,FA,00,00,04
,FB,01,03,FB,FE,FE,01,FE,FE,06,00,08,03,FD,FA,04
,FF,01,00,FD,04,06,FE,FB,FE,03,FA,FD,FB,00,FF,FE
,FB,02,06,FE,02,04,05,FC,01,FF,06,FA,FD,FF,06,FE
,02,02,FA,03,FF,04,F9,07,FC,FC,FD,FC,02,FA,02,02
,FC,06,FB,FF,FC,F8,00,02,F9,01,FC,FE,FC,FD,FD,FC
,F9,FD,FE,FD,04,F9,04,FD,06,FB,06,FF,FC,00,FA,04
,FC,02,02,FF,02,FE,FA,05,01,FE,FA,FD,FD,01,FF,00
,01,FD,FD,00,FC,FA,06,FE,06,FB,FA,01,04,FA,01,07
,01,06,FC,FE,FC,FD,03,FB,02,F8,FA,03,F7,04,00,03
,00,FE,FC,06,FB,03,02,04,FC,00,FB,FE,04,03,FC,FF
,01,FF,FB,00,F8,05,FE,07,01,04,F9,06,00,03,FD,01
,FD,01,02,F7,FE,04,00,FC,02,00,01,07,FB,02,06,01
,FF,F9,FE,FA,F6,00,06,03,00,01,FF,FA,F9,FE,04,FC
,F9,FF,F9,FB,FB,FA,02,02,FB,FF,00,03,05,FC,FE,02
,03,FA,FF,FF,FA,FA,FD,FE,01,FA,F8,FC,04,05,06,FD
,F9,03,F8,FF,FA,02,FD,01,06,02,01,FD,04,F8,FE,06
,04,03,00,FC,FA,F9,FB,FD,03,05,FD,02,FA,FA,00,FF
,FC,01,04,03,FD,FC,FF,06,F9,FE,03,F9,07,08,03,F6
,04,06,09,F8,F7,FC,05,00,02,FF,05,FC,FB,05,F9,FF
,06,FA,F9,01,FD,FD,00,04,03,FC,04,02,02,FA,07,FC
,FF,03,00,F8,FF,02,FF,FE,04,FC,08,F9,FB,F9,FD,FF
,01,01,03,03,00,FE,FC,FB,07,05,03,FF,F8,F7,FF,F9
,03,F8,FA,FF,FC,05,FA,01,FD,04,06,01,05,01,FB,F8
,00,FF,04,FC,FF,FA,FC,F9,05,03,06,03,00,01,05,04
,06,FB,FA,FE,04,04,05,FB,F9,FA,FF,FA,02,01,F6,FD
,05,FF,FE,06,FB,02,FC,04,FB,FE,02,03,06,FE,FC,02
,FF,FF,FB,FB,04,06,FB,FE,02,07,03,FF,03,FB,FC,FD
,FC,01,02,04,FD,F8,FF,F9,08,02,04,07,06,03,04,FC
,06,FA,F9,FD,FD,01,FA,FC,F9,06,06,02,FD,06,FB,F9
,FE,07,06,01,03,02,FA,05,00,FD,FA,01,FA,FD,00,05
,FC,06,FF,05,03,03,FF,FD,F9,03,FF,FE,FC,FE,FA,02
,06,FC,FA,FE,02,FE,04,FE,00,FF,02,FC,FB,FE,FA,06
,FE,FB,F9,07,08,F9,02,F9,FA,04,00,04,05,01,FF,FF
,FC,FE,F9,04,FD,F9,FE,FD,06,FC,00,FD,FB,00,FC,FE
,FF,03,07,FF,F6,06,01,04,02,F9,FD,06,01,FC,FC,05
,FB,FF,FA,FA,FB,05,04,FE,FB,FC,02,05,FA,FF,FB,FE
,02,04,FF,01,01,FF,04,FF,FB,FC,02,04,FC,03,02,02
,FD,FE,FA,04,FF,FC,FC,FD,FB,FF,FA,00,FB,FA,FC,03
,00,00,04,FD,03,03,00,02,00,01,05,FF,04,04,04,F9
,05,01,FB,FF,F9,00,FB,FA,FB,01,01,FD,FC,01,FF,04
,01,05,FC,07,07,FC,F9,F9,02,05,05,03,04,FF,00,05
,FB,04,FB,FD,00,FC,FD,03,FB,FD,FD,FA,03,FF,04,F8
,FD,02,FE,F9,F8,08,FD,FE,FD,03,02,02,FE,06,00,04
,F8,05,06,01,03,02,02,02,F8,FE,FB,05,FD,04,FD,04
,05,00,03,FC,03,04,00,FE,02,06,FA,FA,04,05,FF,01
,04,07,07,02,02,FB,05,FD,02,03,02,FE,06,07,02,00
,F9,FD,04,04,FC,03,FF,03,02,F9,06,03,FE,00,00,FB
,03,FE,FB,04,FB,02,06,F9,01,04,FA,00,FF,FA,05,FC
,05,07,FE,FC,F8,FA,F9,FD,F9,04,02,07,FF,FD,06,FB
,05,FD,FF,FC,01,FC,FA,03,FF,02,02,F9,02,03,FA,F9
,02,02,F8,FD,FF,00,FA,F8,FC,FC,F9,02,FA,04,00,03
,FC,FE,F8,04,FF,05,FB,00,F9,F9,03,02,FC,FA,04,FE
,FF,06,04,07,FB,FB,02,FE,FE,FD,02,03,F9,FC,FD,03
,02,FE,FD,FA,05,FA,01,FB,02,F9,F9,06,F9,04,FD,FA
,04,FD,FA,01,04,03,05,FC,FC,F9,05,03,06,00,FD,FE
,FF,FF,FB,F9,03,FE,FC,FD,FB,03,FB,FC,FD,FC,00,FF
,05,06,FA,FE,05,00,06,00,FF,FB,FB,FF,05,04,FB,FA
,FB,F9,F9,04,FC,01,01,01,F9,01,FB,FD,F9,F9,FE,01
,FE,03,FC,04,FC,02,06,FA,FF,01,03,FD,FF,03,04,01
,FE,03,00,FE,FC,05,FA,04,00,00,FD,05,FC,00,02,04
,04,02,05,F9,01,FD,FE,FD,07,00,FF,00,FB,FF,06,FD
,05,FA,F9,FC,FF,FC,03,04,FE,01,04,FB,FE,03,07,F9
,FF,00,04,00,04,FC,FC,04,FA,04,FF,FA,05,05,FC,F9
,05,04,FF,04,F9,00,FF,F9,FB,00,04,FF,F9,03,01,FF
,02,FA,05,FB,02,FF,FA,FD,06,FD,FF,05,FF,F9,05,03
,FB,FB,FF,01,02,02,04,01,02,FE,02,01,00,FF,01,FF
,FF,FB,05,FA,05,F9,05,06,01,FE,02,03,FD,04,FF,04
,01,03,FB,FC,04,06,FA,01,05,F9,01,02,00,FE,05,06
,FE,05,F9,FE,03,FD,06,F9,02,FF,06,01,06,FF,FC,F9
,01,07,03,05,FC,FD,00,03,02,FB,FA,00,00,04,FF,FB
,04,FE,FA,03,F7,FE,FD,FE,05,FB,05,02,FD,FF,FC,07
,F8,FC,FA,F9,04,05,02,FB,01,02,01,04,FF,03,FC,01
,FE,00,FA,FF,07,01,04,FC,FA,03,07,05,04,FD,FE,06
,04,06,04,06,FE,FA,00,F7,FE,F9,FB,FB,01,FC,03,FF
,FB,01,FE,01,FE,FC,FA,F9,00,05,F9,00,03,FC,06,F9
,FD,FB,03,F8,06,06,FD,FF,FD,FF,FD,FD,01,02,FE,01
,FB,01,05,01,FC,FC,07,02,01,02,FF,FB,FC,00,03,FE
,04,01,05,04,04,02,FF,FD,FD,F9,FC,FE,FE,00,FA,F9
,01,02,FF,FF,FF,02,FE,00,FB,FE,FF,FC,04,01,02,FE
,FD,FC,FD,FE,FE,05,06,F9,05,FE,00,F9,07,01,FB,06
,05,F8,02,FE,FD,03,FA,00,05,02,FE,04,F9,FC,FF,04
,FE,01,02,02,FC,05,01,02,F8,06,FC,FF,07,06,03,FB
,FD,01,FF,FB,02,FE,03,05,01,02,FD,FE,08,04,05,F9
,04,04,07,FE,FA,03,FF,F8,FD,02,FA,02,01,FF,01,00
,04,01,01,03,FF,05,03,04,04,FC,00,07,03,00,FA,01
,00,04,FB,FB,FF,F7,FC,01,03,02,FD,02,FD,00,FF,F8
,FF,04,04,F8,03,02,04,07,FE,FB,04,09,02,FA,F9,04
,F8,05,F5,04,07,FB,00,00,04,F9,FE,01,02,00,FB,00
,02,F8,04,FC,FF,FD,03,04,00,FD,00,FF,03,FA,01,F9
,03,01,05,F9,FC,05,FF,05,FB,00,03,01,FA,03,FC,04
,05,02,FF,F9,05,06,06,FE,FA,01,FE,02,05,FA,04,FD
,FB,FB,FD,FF,FE,FE,02,00,02,FD,FB,FC,00,04,FC,F9
,07,02,05,FB,00,04,F8,04,FD,FB,05,04,05,FC,FA,FE
,01,FD,05,FB,FC,03,04,04,00,00,FB,05,FE,00,FC,FC
,FB,F9,05,F8,FC,05,06,FF,FC,03,F9,FE,05,FB,01,02
,06,FE,06,F8,02,04,08,04,06,03,FA,FB,FC,01,FE,02
,02,FF,06,00,FE,01,F9,00,FD,02,00,03,F9,00,FC,FE
,03,05,02,FB,FB,F9,05,FD,F7,FD,06,00,FE,03,07,FD
,F9,06,01,03,FD,00,FA,FA,FD,00,FC,FD,03,06,FD,05
,FB,F9,FF,FC,FD,02,FD,06,03,00,01,FB,FF,FF,FE,05
,05,FA,FC,05,01,FF,04,06,04,00,04,07,FE,FC,01,00
,FE,FB,05,FD,07,F9,FA,03,FD,01,FE,07,05,FA,FB,FF
,FA,FD,01,06,08,FF,02,04,F8,F8,F8,03,FA,FA,00,F9
,05,04,F9,FB,01,FD,FB,FF,00,FD,01,07,02,FB,04,FA
,02,FB,FE,FC,FF,FC,FC,FC,04,00,FE,FE,00,FA,00,04
,05,07,00,01,FE,05,06,FF,FF,FE,01,FF,02,07,FB,FB
,04,FD,03,FE,06,FB,05,04,02,FD,01,F9,F9,03,FD,04
,FA,02,FC,02,F9,FD,02,FB,02,FC,03,FE,FA,F9,06,FB
,06,03,FF,F9,FE,01,FB,FF,FA,F9,FB,FC,FF,05,FD,FD
,FE,F9,FE,04,05,07,FC,FF,02,06,FB,FE,FE,05,FB,05
,03,FD,FC,F9,FB,07,06,F9,FB,FF,FA,02,05,F8,00,03
,00,FB,FD,F9,FA,FD,03,FF,F8,FB,04,00,02,00,01,05
,00,FA,07,FE,FB,03,02,FF,02,00,02,04,05,FB,FB,FD
,03,FA,05,01,03,FC,02,FB,05,06,FE,FD,06,FF,03,00
,04,00,FD,F8,02,05,07,F8,FA,04,04,01,FD,FB,02,04
,02,00,03,02,FC,00,01,FA,02,FA,02,F8,FF,FB,FE,06
,06,FF,03,F9,FD,F9,04,FE,FE,FB,FD,03,01,F8,07,06
,07,01,03,FD,04,FB,04,01,01,FC,FC,FF,FD,01,FE,FE
,00,FD,FE,01,00,FE,F9,01,FF,FC,FB,01,FD,01,FB,F9
,06,04,FB,07,02,FA,00,05,01,FC,FB,05,FD,FC,FB,06
,FF,FF,02,FF,FC,F9,01,04,FE,04,FE,F9,FD,FD,FF,00
,FE,FF,F9,01,06,FA,F9,01,FE,02,F9,07,02,FF,05,FA
,F8,02,FC,FA,01,F9,FD,00,02,FA,06,02,FA,03,06,FD
,FE,F9,03,FA,F9,FF,05,05,01,FB,03,00,FB,FB,FC,06
,01,06,01,00,05,FA,FD,FC,02,00,FA,02,FE,05,04,04
,FC,FC,FA,FC,FB,07,FC,04,01,FA,FA,05,04,FE,FB,FC
,06,06,00,FA,00,01,F8,03,FF,06,F8,FF,03,05,03,06
,01,04,FC,05,FB,00,FF,FD,08,FC,FB,00,04,F9,FB,FC
,FD,FD,FB,FB,00,05,03,06,F9,FF,01,FA,FA,FF,02,04
,03,01,06,FE,F9,01,04,FA,F9,06,01,FA,FE,00,02,00
,FE,03,FD,FA,00,FB,F9,FA,FA,06,FA,FD,FB,F9,00,FC
,04,01,00,FE,FC,00,FE,05,FF,03,FD,F8,03,FB,FB,02
,FC,03,02,FC,F7,FC,FB,FF,06,02,FF,FD,03,F8,FA,F9
,04,F7,05,FB,00,FF,06,00,FD,FF,FC,02,FB,FC,05,FA
,01,01,04,FC,06,05,F8,FE,FB,FE,02,01,02,05,01,05
,06,04,FD,05,03,FD,FC,FC,01,FC,FE,FB,05,03,06,05
,FD,FE,FE,03,04,03,F9,FB,FE,04,06,FF,04,FA,00,FC
,04,FC,03,03,FE,02,FF,00,FF,05,01,05,FD,08,01,03
,03,FB,FB,FA,01,08,02,FB,00,0B,03,01,FF,05,05,00
,02,FB,FE,F8,08,FE,01,03,FD,FC,00,FF,F8,00,01,FA
,FF,F9,FF,01,FB,00,04,FE,FC,F9,F9,01,00,FC,01,FA
,03,FB,02,FA,05,04,FC,FD,03,04,03,04,FB,FC,F9,02
,00,F9,01,03,01,FE,05,04,FA,00,FE,F9,06,FF,F8,FC
,07,FA,05,FF,04,02,FA,03,05,06,FF,03,FE,F8,FF,F9
,05,05,FF,00,F8,04,FE,FF,FC,FE,FC,02,05,FD,FF,00
,02,04,FB,03,07,00,03,02,03,FA,FD,03,FA,FA,02,05
,00,07,08,01,03,05,03,01,FE,FD,04,05,FC,FE,FF,FF
,FF,FB,F9,04,FC,FB,FC,03,03,FC,04,05,06,00,04,06
,07,03,01,00,F8,07,02,02,00,07,F8,07,FA,FE,FF,04
,00,03,F9,F9,FD,F3,FA,FF,02,FA,FF,FC,03,01,FC,01
,FC,FE,04,FE,00,01,02,04,FD,03,03,02,02,02,FA,06
,FF,06,02,07,02,01,01,03,01,05,FF,05,F9,00,02,05
,F6,FC,06,F8,FD,FB,01,04,01,03,00,FA,07,01,03,FD
,05,05,FF,02,05,FF,FB,04,07,04,FC,FF,03,05,08,FA
,05,FC,00,FC,03,07,00,F9,FA,00,FA,F8,FF,01,FF,04
,FB,FA,FF,00,01,05,08,01,04,04,03,FD,02,FB,05,01
,FC,00,FE,04,00,00,01,FA,FA,07,03,FD,03,06,06,FD
,03,00,01,FF,04,FD,F9,06,03,02,FE,FF,F9,FF,06,05
,FD,FE,F9,03,FE,02,FE,FE,FE,F8,05,03,FE,FF,04,01
,00,00,FC,02,02,03,00,03,FC,F8,04,02,FD,02,04,05
,03,05,FA,01,06,FB,FA,04,00,02,05,FB,FD,06,06,FC
,02,03,02,FF,FB,04,FB,03,FA,FF,FA,FD,07,05,FE,FA
,01,00,FC,FD,04,00,FB,04,FB,06,FE,00,03,01,01,02
,03,FD,00,05,04,05,FD,03,06,FE,F9,F9,05,FD,FD,02
,05,05,06,06,01,06,04,FF,FC,06,01,06,FB,01,FA,03
,05,FF,04,06,FA,03,FE,03,FD,FE,00,08,02,03,FE,07
,05,06,04,00,01,FA,06,06,05,FC,F8,FC,FC,02,01,FD
,FC,FF,00,FF,03,05,03,03,FE,FA,F8,FE,FE,03,05,03
,FE,F9,05,FF,FA,02,01,FA,FD,FE,03,FF,04,02,FC,FA
,FB,FB,FE,FD,01,00,06,FF,FB,FD,02,05,06,02,FB,07
,02,05,01,FB,FA,00,01,F9,FF,08,FE,07,FA,00,04,00
,FA,01,FB,03,01,F9,FD,FC,FC,FF,FF,FC,FE,02,07,FD
,FC,03,FA,FB,FE,00,04,FA,FB,FE,FF,00,F9,00,FC,05
,FB,FF,FF,00,02,FD,FA,02,02,06,03,05,03,01,01,F9
,02,06,FC,FD,FD,00,FE,03,FA,FE,03,05,FF,04,01,FE
,FA,FA,04,FE,02,FB,05,FF,04,02,F8,03,06,03,FA,01
,00,06,F9,FF,FE,01,04,FF,FE,FB,FA,FD,FF,03,04,02
,04,FD,FC,03,FA,F9,06,01,05,04,00,00,05,FF,00,FA
,05,FC,F9,FF,03,03,04,FA,01,01,FE,FF,F9,04,FA,04
,05,01,00,06,00,03,FD,FE,00,02,FC,FB,03,FE,FB,FB
,FA,05,FB,04,04,FA,02,05,04,FC,F9,FC,05,01,02,FE
,FE,00,03,FE,F9,02,F9,FD,00,FF,07,00,02,FF,F9,FE
,FC,06,FB,02,05,FB,04,01,04,03,00,FF,FF,03,F9,FE
,FA,FA,FD,02,F9,FF,FB,04,FD,00,03,02,02,FE,03,02
,01,FE,F9,FA,FD,F8,FE,FB,05,00,03,FD,05,03,FC,00
,02,04,F8,FB,FD,00,FF,07,04,FE,06,F9,FC,FB,FD,00
,04,FC,FC,02,FE,FD,03,FB,04,FD,FA,FD,FF,FC,01,04
,F9,03,04,FB,03,FA,FE,FE,02,04,FB,FA,FB,03,05,FE
,F9,05,FF,FB,05,04,FE,FB,04,FF,05,F9,01,FF,FB,00
,05,06,07,FB,04,FF,FA,00,FD,03,F9,03,FB,06,FE,FF
,FE,FF,FA,05,FB,FB,05,F9,FE,FE,FD,03,FF,02,04,00
,01,00,04,02,05,FD,06,06,00,00,05,02,00,05,02,05
,FB,FB,FE,FC,06,01,00,00,00,F9,05,04,00,06,FB,FC
,03,04,02,02,FE,FE,FF,03,FB,01,06,FF,03,06,FB,01
,02,01,00,00,01,FE,FC,F9,02,06,00,02,03,04,FB,04
,02,06,FF,00,FE,F8,02,FE,FF,03,00,FD,05,FE,F9,03
,FC,05,03,01,FD,FF,FF,07,03,01,FC,01,00,00,FA,FD
,FA,00,01,FA,FD,02,FB,05,04,04,F9,09,FE,FB,05,05
,00,02,03,FC,FF,02,FB,02,03,02,01,06,FE,05,04,FD
,FC,03,02,FA,FD,03,06,FC,02,FF,F9,00,07,06,FF,FA
,FD,04,01,07,FB,00,06,04,FD,FE,FF,00,06,FD,F8,FD
,FC,FE,05,FD,FB,04,FC,FF,FF,04,02,05,04,01,FD,FA
,03,FF,02,00,04,05,00,01,FB,07,FF,03,FD,FE,FC,FC
,FD,F9,FC,FE,FD,FA,05,F8,FC,07,01,02,FB,F9,FB,05
,FF,FE,FF,03,FD,02,01,02,FD,FE,01,05,02,FE,02,02
,F9,FD,FD,FA,FB,03,03,00,01,FA,01,00,FE,03,03,FA
,F9,01,02,FC,FA,02,F9,03,FD,03,FC,04,00,FD,F9,FD
,03,03,FA,FA,F9,06,00,FC,01,FE,FA,02,FD,FD,FC,06
,02,01,00,FC,02,FD,02,00,FF,FC,FF,FE,00,05,FA,FE
,05,07,FC,06,02,FB,07,FC,01,F9,FF,FC,FB,FB,05,FC
,07,FF,FC,05,06,03,FF,01,FA,01,F9,00,FE,03,FE,F9
,F9,06,00,06,07,00,FC,FE,FD,03,FE,FC,FD,06,01,06
,06,06,06,F8,03,FE,FA,05,FC,F7,F9,00,00,00,03,05
,FB,01,FA,FC,FA,FC,04,FE,04,02,01,FD,F7,02,FE,FC
,04,03,05,00,FD,05,F7,FF,01,05,03,02,FC,FF,FB,FA
,FA,00,0C,FC,FB,FB,FB,01,FF,05,01,FD,F9,01,FD,FF
,FD,FF,FD,02,02,FF,03,04,FD,00,00,F6,01,04,00,FD
,03,03,FD,06,05,FF,F8,FA,07,05,06,FE,06,08,FA,05
,FF,FF,FF,F9,05,04,FF,FF,FE,01,F9,06,FA,FA,01,FA
,FD,FF,06,FE,03,02,05,FC,FE,02,06,03,FA,00,06,FE
,F8,FA,02,FE,FC,06,04,F9,00,FF,FC,01,05,FA,F9,FE
,01,FD,FF,F9,F8,06,00,04,00,03,05,FF,05,03,FD,07
,01,F8,05,F9,FF,FB,06,00,F8,FA,FC,FE,FF,FB,05,04
,01,FA,FB,03,00,FE,02,04,FF,03,03,FF,FA,FF,FF,FC
,FC,F9,05,06,01,05,FE,02,04,FC,07,05,FE,F9,05,FE
,F8,FB,FB,FA,FB,03,01,FC,FD,05,F9,01,FF,FB,FA,01
,FB,03,F9,FD,FF,F9,FF,01,F9,02,FF,03,00,FA,03,03
,04,05,00,05,02,FE,FC,FD,FC,05,04,FF,05,00,FD,02
,02,FB,04,05,FF,03,06,FE,02,01,05,03,FF,FD,FA,05
,04,F9,FA,00,FC,01,FA,FF,FB,02,F9,01,FD,FB,FB,FC
,FB,03,FF,00,F9,FD,00,FC,01,00,F8,FF,FB,FF,FE,FC
,05,FC,FA,FE,02,FC,03,FB,00,FB,02,01,FB,FE,FC,FD
,FB,FB,01,FB,FF,FF,01,FB,FC,F8,04,FD,FB,FF,05,02
,00,06,06,FA,FE,04,01,FA,00,03,FC,FD,04,04,FB,07
,FE,FF,04,05,00,02,FF,FF,FB,02,04,03,FA,02,FE,04
,FB,03,05,FE,01,FE,FE,FC,01,FA,FD,FD,06,05,05,04
,F8,F9,04,FD,FD,FB,06,03,FE,03,05,FC,04,FA,FB,FC
,FF,05,FC,03,FE,FD,FC,02,FD,F9,F9,05,02,06,03,04
,FB,FC,FC,02,FB,01,FB,F9,00,04,04,FD,FD,05,00,FE
,02,05,03,FD,01,F9,06,FB,FB,02,F8,FC,06,02,06,FC
,FB,06,05,02,F9,02,FA,FC,FA,F8,FB,07,FF,F9,05,05
,FF,03,02,00,FE,FC,00,02,F8,FB,FD,FB,FF,FE,06,FF
,F9,02,FC,FE,FE,06,01,FA,00,FB,04,06,01,05,06,06
,03,FF,F8,FD,04,06,FE,FA,FC,F9,02,FD,FF,FB,FA,F8
,FC,00,FB,FD,F8,FE,FD,FD,03,FB,03,00,FD,FD,01,FF
,FF,FB,07,FD,04,04,00,FE,08,01,F8,FF,FF,FA,FB,03
,04,F8,F9,FD,FC,03,00,01,FA,FD,04,FB,F9,00,05,FC
,03,FB,FB,FB,00,05,FD,FA,04,01,FC,04,06,F9,FE,FC
,04,00,06,FF,FB,F9,07,06,06,01,03,00,FC,01,FA,FB
,00,02,FE,02,04,06,02,06,01,FE,FD,F9,04,FD,FD,02
,FA,FF,05,FD,05,FC,06,FD,03,FA,01,FE,F9,FE,01,06
,F9,FC,FF,01,04,FD,F9,FD,FA,FA,00,04,01,06,FD,F9
,FA,03,00,00,04,FE,FE,05,F9,01,FE,00,00,FD,04,03
,F9,FE,01,FD,00,06,FD,FF,00,FE,FA,FA,00,02,06,FA
,FE,FD,00,02,FF,FC,06,FC,01,FC,F8,FD,00,FB,05,02
,F9,02,03,FA,03,FD,FA,04,FE,FF,00,FF,FF,FE,01,FC
,06,F9,FA,FF,FD,06,F9,FC,FE,FF,03,04,02,01,03,FF
,02,FC,01,F9,01,FA,FB,FD,FC,01,FC,FD,FB,02,06,05
,04,FE,00,FB,01,FD,06,00,FF,FE,01,04,FA,FF,FE,05
,00,06,FD,FD,FA,02,02,FF,FF,06,04,04,F9,03,06,FE
,FB,FF,06,06,02,FD,00,03,04,05,FA,02,01,FA,02,00
,FE,FB,FF,FB,02,09,05,FE,F9,01,FA,F8,F8,F9,05,FF
,01,03,FF,05,09,04,FB,02,07,08,06,08,05,02,FC,FD
,06,FC,FF,05,05,FE,FD,01,01,01,04,FD,F9,FD,F9,FD
,04,00,03,04,FC,00,04,FA,04,FA,05,03,F9,06,05,FF
,06,FC,01,FF,F9,00,01,FD,09,05,04,01,03,06,00,00
,00,F9,FF,00,08,06,F8,06,05,04,04,FC,FC,FC,03,FC
,FA,FF,FE,FA,04,FE,FD,06,04,FA,05,01,FE,F9,03,F9
,05,04,04,07,02,02,FD,02,05,F9,05,FD,FC,FE,03,FC
,FC,FC,FB,FA,05,02,06,FE,FC,05,FB,FD,F9,F9,04,FF
,F8,FE,FB,FE,00,03,00,00,F9,FA,FE,03,FA,FD,00,01
,05,03,01,FB,00,FA,FE,FB,F9,06,03,02,05,FC,00,04
,FF,04,F8,FF,04,00,06,06,06,FE,FB,03,00,03,FD,F9
,FE,07,04,00,01,03,FD,01,08,FD,F9,02,FD,06,04,05
,06,FA,02,04,01,00,01,06,FC,FB,05,FB,03,04,00,FA
,FA,FC,05,F9,02,FD,FC,05,FF,02,FF,FB,04,05,FC,FD
,05,04,06,00,04,01,FB,04,02,FA,05,FC,00,05,FB,03
,00,F9,FF,FB,FC,FF,02,01,FE,01,02,FA,FF,01,08,00
,FD,04,FF,FC,FC,04,FF,FB,FD,06,04,F8,FE,00,F8,FF
,03,FF,04,05,04,FD,F9,00,05,FC,FE,FB,FD,FF,FA,01
,08,FF,01,00,0B,FE,02,07,FE,00,02,FC,FD,FE,04,00
,FE,FC,FE,02,06,FC,06,03,04,00,01,02,FD,06,FF,FB
,FA,00,FE,FC,04,FD,02,00,01,07,05,FC,03,04,FA,04
,03,06,FF,F9,FD,F9,02,FC,01,05,FF,05,FB,04,FB,02
,04,FA,FB,04,06,00,FA,06,F8,03,07,FE,FB,03,05,00
,01,FD,FC,FA,06,F9,05,FB,FC,04,01,FF,02,02,05,FD
,FC,FE,05,00,00,FA,05,05,05,06,FF,FD,07,02,03,02
,FD,03,FC,03,01,FA,05,06,FE,00,FF,01,04,02,00,F9
,06,FC,FD,02,F9,FC,01,FC,FC,FA,FF,FC,FA,FE,01,FE
,06,01,05,FC,04,FA,04,FE,FE,FC,00,02,FE,03,FE,FB
,FE,03,F9,FE,FE,FD,FC,02,00,FE,04,FF,07,FB,02,00
,03,FB,F9,FD,01,01,FB,FC,FB,04,FA,05,02,04,04,FD
,01,04,FE,06,FF,03,FD,FA,FC,01,F9,01,00,FA,FE,FF
,00,03,01,FD,00,FF,00,FB,FD,04,FA,FA,04,04,04,F9
,03,FF,F9,07,03,05,FE,02,04,02,03,03,02,FE,FF,FA
,F9,05,03,FE,FA,01,06,FB,F9,06,F9,00,FC,FA,FD,F9
,06,01,01,02,FA,04,FB,FC,F9,FC,FE,FC,03,05,01,FA
,00,00,FA,FD,01,04,F9,FE,04,F9,FE,02,05,02,FA,02
,07,03,04,03,F9,04,00,05,FC,FE,F8,03,05,04,05,00
,01,02,FB,FD,02,03,04,F9,00,FB,FC,02,03,06,FF,F8
,FF,FC,05,04,FB,FF,FE,FC,03,07,FE,FC,04,00,FF,02
,00,05,01,06,02,07,00,FC,FC,FD,FD,FB,00,FC,FA,07
,04,FB,00,03,FD,00,04,04,02,03,FD,FC,06,04,04,FB
,FC,FE,FE,FE,05,05,FE,06,06,05,F9,04,FB,02,FE,FC
,FD,02,FF,07,02,FB,FD,F9,01,FF,FD,06,03,FE,03,FE
,FA,FD,FA,FF,03,01,FB,FC,01,06,FD,07,06,F9,04,FB
,FA,FD,07,01,FF,FC,FD,FB,00,FC,03,F9,02,FC,FD,FB
,01,F8,F8,FA,01,FE,FA,03,02,FA,04,05,FA,05,FB,FD
,00,01,04,FC,FA,FC,01,02,03,00,07,09,FF,F9,FE,00
,07,FC,FC,FB,06,04,06,FE,FB,FD,04,FA,F9,02,F9,03
,05,00,04,06,01,06,05,04,06,05,00,FC,06,FD,FC,04
,01,05,F9,FE,00,06,00,FE,F6,FE,05,FB,FA,FD,FE,FE
,FF,02,00,FD,00,01,02,05,FF,02,00,04,FF,02,01,00
,FD,06,FD,04,FC,FB,03,FF,FC,02,FD,FB,FF,FD,05,FC
,F9,FB,04,00,08,FF,FA,FD,02,02,FA,05,FD,02,FF,FF
,06,FA,FF,F9,FB,06,FB,F9,FE,FF,06,01,03,05,FF,FA
,FF,03,F9,01,05,07,FA,FA,F9,FF,F9,06,FA,01,FB,03
,01,04,F9,FE,FE,FF,FD,03,01,FF,FF,00,04,FB,FB,FE
,01,FC,01,FB,FB,FB,FD,FB,F9,FF,06,04,02,FD,02,01
,05,FB,00,F9,FE,06,F9,02,05,F9,02,FD,FC,FC,03,04
,01,01,FB,FA,02,FE,F9,F9,FE,FB,04,02,02,FC,06,04
,00,02,FB,FD,FE,FF,05,FE,FD,FE,04,FC,01,06,01,FE
,FB,04,FA,FF,FC,F9,FC,01,02,02,06,04,06,00,F8,F9
,FA,07,FC,01,F9,FB,02,01,FC,FE,05,FD,00,FF,00,05
,FB,05,06,01,FE,F8,FA,FC,FD,01,01,FE,05,F8,04,FC
,F9,02,05,FC,FF,FC,06,03,06,FF,FA,FE,06,FE,03,FE
,02,FD,FF,03,FD,03,FC,01,FA,FD,FA,04,09,01,F9,05
,03,FA,FC,F9,FA,00,07,03,FF,02,FA,00,FA,02,00,04
,FA,FC,FC,04,FB,01,FA,FE,FE,02,05,01,FE,FA,FE,00
,F7,FF,02,FB,FD,04,FE,00,FD,FD,FD,00,03,05,00,07
,FE,02,F9,FB,FD,FE,FA,FD,FA,F9,06,00,FB,FA,FA,07
,00,01,FE,FB,FD,FF,F9,05,05,F9,00,FB,00,FA,01,01
,00,07,05,02,FD,FC,04,FF,03,01,03,07,03,05,FB,06
,FF,FF,03,FC,08,00,FE,FB,FE,04,06,08,00,03,FB,02
,01,05,00,FA,FC,00,00,01,00,07,07,02,06,FA,FA,FA
,FF,01,F9,F9,02,00,00,07,01,02,02,00,07,01,04,FB
,FB,FB,03,04,03,FB,FF,FF,FD,FF,00,03,FA,03,FA,FD
,04,04,FF,FF,FB,01,FB,FE,00,FE,FA,FA,06,07,00,04
,03,05,FA,FA,09,FD,05,00,03,05,FF,FE,03,00,F8,FD
,FC,00,03,05,FC,FE,04,FD,FE,06,FC,01,00,FC,05,FC
,FC,00,FA,03,05,FE,02,02,FA,02,FB,01,FD,F8,FE,04
,FF,FF,F9,FC,FC,04,03,FF,04,02,04,FF,FE,06,06,F8
,FF,F9,00,FA,F8,FD,02,03,FD,04,02,FB,FC,01,02,F9
,02,00,FD,03,FD,00,02,06,01,F9,04,03,F9,FE,FD,FD
,FD,00,FB,FB,00,FC,00,00,FC,FC,01,04,FE,03,01,FA
,FC,FC,FC,01,FF,00,01,F9,FC,FE,02,08,FE,FC,03,01
,06,FD,FC,FD,F6,FC,04,00,02,F8,03,FD,FD,F8,05,FE
,FB,02,03,FD,F9,F9,04,F9,05,FD,03,02,06,02,FB,FF
,05,FD,01,01,02,05,06,04,00,FF,03,08,06,03,FC,FB
,FB,FD,01,FD,06,FB,01,05,01,00,00,FD,FE,03,FC,FE
,05,FE,FA,FF,F9,00,03,04,F8,06,FB,02,FD,08,FC,FE
,FB,00,05,01,01,FD,06,03,FA,02,03,04,02,05,01,FC
,FF,FE,04,07,FB,FD,05,FC,01,FE,02,FC,03,00,01,F8
,03,FB,04,FB,FC,02,04,05,FE,00,FC,05,FB,05,FD,00
,FA,04,01,05,01,02,FB,05,FD,00,06,FD,FA,FC,FB,FC
,FA,F8,FF,FE,05,00,FF,FA,FF,02,FB,01,FD,F9,05,04
,FF,FD,FA,06,FE,FB,06,05,05,09,05,FB,06,01,FC,F8
,04,07,FB,03,00,FB,05,03,08,FF,00,03,01,00,05,04
,FD,FF,F8,00,FC,04,FE,05,02,06,04,FB,FA,FE,F9,FE
,FB,06,F8,06,F9,06,00,FD,06,FA,00,05,06,FD,03,06
,03,04,F8,07,00,04,01,F9,FC,04,01,00,FF,FA,FC,FB
,FA,00,03,03,FA,06,03,06,04,FB,FA,04,FF,02,FB,04
,04,FC,02,06,01,04,FA,00,F8,04,03,02,03,06,01,F9
,FF,FC,00,FB,F9,FB,FF,FA,FB,F9,06,FC,FF,FE,FB,FE
,07,F9,00,03,05,05,03,04,01,00,FB,02,04,05,FE,F9
,FB,F9,FE,FF,F9,04,FE,FF,02,03,06,02,04,FF,FC,FB
,04,FD,FD,05,FD,FF,02,05,04,FD,FB,02,FA,FE,FB,00
,FD,05,02,06,FE,02,FC,FB,FC,01,FB,03,04,FE,05,06
,00,FE,03,FE,05,FB,F9,00,FA,F9,04,02,FD,FC,FF,F8
,00,04,04,02,03,FB,FF,06,01,FB,FE,F8,04,01,00,04
,FB,06,FF,02,01,FD,F9,FC,04,FB,FC,FB,FE,FE,FC,06
,06,FD,FC,06,05,FB,FD,FE,F8,FD,04,06,FE,FA,03,02
,F9,FD,03,01,FB,F9,FF,FA,F9,02,01,01,F9,F8,03,FB
,03,FE,05,F8,07,03,FA,05,02,05,FE,00,07,FB,FF,FE
,06,FD,03,04,03,FB,FE,04,FB,FE,FF,01,00,FC,00,01
,F8,FF,FB,05,F8,01,05,00,02,04,05,FE,06,01,FC,FB
,03,F9,FD,FA,FD,05,01,03,00,02,FD,F9,FE,07,05,FF
,05,FE,FC,05,07,00,F9,00,FE,04,03,01,06,07,FA,02
,01,FE,F9,02,FE,FA,F8,01,00,FE,FA,FF,FD,F9,FE,F9
,FD,01,FB,FD,03,02,FB,03,00,04,04,F8,FA,FE,FE,00
,00,00,FF,FC,00,03,01,FA,F9,04,FA,00,03,FA,01,F9
,FB,FA,03,FB,FF,05,FF,06,FF,FD,F9,06,F9,FA,01,06
,04,FF,06,FF,F8,02,F8,02,04,04,FA,F8,FD,01,01,04
,FE,00,05,FA,06,FA,07,00,04,F9,FA,06,FA,05,05,FA
,06,04,FB,FE,04,FF,00,FD,01,01,FF,FF,FB,FF,FE,FD
,FE,03,FE,F9,FF,05,02,FF,FF,05,FB,05,FB,02,FE,FD
,FA,00,FF,00,03,03,FE,FF,FB,FE,FE,FF,03,03,FE,03
,FC,FA,04,F9,03,FE,FA,FD,FC,FA,FA,05,FF,03,05,05
,FC,02,05,05,FD,01,FE,FF,03,02,06,FF,06,F9,FC,FE
,04,05,02,FC,03,00,FD,FC,02,00,FC,FC,01,FB,F8,FB
,00,05,06,02,FE,03,FF,06,02,FE,FF,04,07,01,FA,FD
,FA,FA,FB,FE,FF,FD,00,FD,05,F9,FA,FC,05,03,FC,01
,FE,FE,FD,03,FB,02,06,04,02,FA,FE,02,05,02,05,FC
,FD,02,FA,01,FF,03,00,FE,06,FE,07,F9,FF,04,01,03
,05,FA,05,FE,00,F9,F7,06,FE,FC,01,03,06,F9,02,FC
,04,FE,01,01,06,FF,04,01,03,F8,04,FD,FE,F9,FA,FF
,FC,FC,01,00,F7,06,06,FC,04,F9,00,07,FF,02,06,FF
,03,01,01,00,03,02,01,02,FE,FD,FA,07,01,FD,F8,FB
,04,FF,FE,07,FC,00,01,FB,03,02,FF,06,FF,05,06,00
,F9,FB,FA,03,F9,04,03,04,01,F8,04,F9,FB,03,06,00
,07,02,FB,F8,01,FD,FF,F8,01,02,04,07,F9,01,FD,04
,F9,FC,F9,FA,FF,FB,FA,FC,FE,00,FA,01,00,FD,FB,FE
,FD,FE,05,03,FD,00,05,00,05,08,FC,FB,06,02,04,04
,FA,F8,02,FD,FA,04,FD,04,02,06,F8,04,FD,FA,08,FE
,FA,FE,FB,02,02,FF,FE,FB,01,03,FB,FE,03,04,01,FC
,FC,03,01,01,00,FF,FB,05,02,04,04,FB,FF,04,00,00
,02,FC,02,01,FC,03,02,02,04,FB,04,06,FE,FB,FC,FF
,FE,FD,03,00,06,FD,FB,FA,08,F9,FB,F6,03,01,00,05
,00,01,00,00,FE,FE,07,FB,FE,01,F8,00,F9,FB,FF,02
,FC,FD,FE,01,FB,FD,00,04,F9,05,03,FB,FF,FB,01,04
,04,03,FA,FA,03,FF,03,06,FB,FF,04,F7,01,02,03,03
,03,00,FE,FC,FD,06,FD,05,00,01,05,01,FA,FC,01,FB
,00,04,05,F9,FE,01,FB,FF,FA,FA,FC,F8,FB,00,FE,FA
,02,FD,FC,FA,06,03,FD,FB,03,01,02,FC,06,06,FE,F8
,05,04,FD,03,FD,FF,03,F9,03,02,00,06,00,04,03,F8
,FF,FC,FF,06,FF,05,F9,FD,05,05,FC,06,FB,F9,FE,04
,FD,FB,06,02,FF,FD,F9,F9,01,06,00,FF,01,04,FE,02
,00,F9,F9,02,FB,04,00,F9,FF,FB,FA,05,02,06,FE,04
,05,01,FF,02,FE,00,FB,04,FB,FD,02,03,05,FE,F8,FD
,FF,FD,02,07,FB,FE,00,01,FC,F9,02,02,FE,03,FF,F9
,06,05,FE,FD,F9,FC,00,04,06,FD,F9,FD,06,FE,FF,F9
,F9,06,04,05,FB,05,02,05,06,03,FA,05,FD,04,00,FC
,FF,04,FF,FF,FC,03,06,FF,04,06,FE,04,02,03,01,FC
,06,FB,02,06,FF,02,FE,01,04,F9,FB,05,FF,04,02,FA
,FC,FD,FE,06,06,00,FF,FD,FF,FF,FE,03,00,02,FC,F9
,FD,02,00,02,05,03,F9,F9,FF,04,04,00,06,02,FA,00
,03,FE,00,08,F9,03,04,F9,00,00,FE,FC,FB,00,FA,00
,06,00,FE,FC,01,FF,FB,F9,02,F9,FC,FE,02,05,04,F9
,FB,FC,04,FC,05,00,05,FB,FD,05,FF,F8,02,FF,02,04
,04,FF,03,02,FB,03,FF,FF,07,06,FA,FD,FB,03,FF,FB
,01,FD,04,FA,F8,06,01,05,FC,07,FD,05,02,05,02,03
,FD,02,FE,FB,FD,FB,00,04,FC,00,02,07,FB,FA,FB,01
,02,FF,04,FB,04,FB,03,06,04,F8,03,03,04,06,01,FF
,FA,F9,FD,FA,07,FE,F9,03,02,01,03,02,01,FD,01,00
,01,05,06,FB,02,FB,FE,04,05,02,FA,03,04,03,F9,F9
,00,00,F9,FE,05,F9,FB,01,F8,06,FF,FA,FB,05,04,05
,FD,03,FD,07,06,FE,FA,FB,FE,03,03,FD,02,05,00,01
,01,04,02,06,FA,FA,02,FE,FD,07,FD,FA,FA,01,02,02
,FB,05,FA,FC,F9,FD,03,FF,03,FD,04,FF,04,05,03,05
,05,F9,00,FF,FA,04,FA,FC,FC,F8,01,FF,07,FD,00,F9
,FB,01,FA,04,04,FD,05,FF,06,F9,FA,FC,02,06,FF,F8
,FA,FD,03,FB,04,03,02,04,FE,F9,F9,05,F9,07,01,FB
,FB,F9,03,FA,01,01,FD,FA,05,FB,04,FC,FB,FC,04,FB
,FB,FF,03,FE,FC,F8,06,00,04,FD,F9,FB,03,03,05,00
,04,FB,03,FD,02,FD,FB,02,FB,FD,02,01,F9,F8,F9,05
,FB,02,FC,06,02,04,00,06,05,04,03,06,FC,01,FC,04
,02,FF,FF,03,FF,FD,03,F9,FC,06,FE,FB,FD,04,02,FA
,02,FB,02,F9,04,01,07,FD,00,FF,02,03,F9,04,01,FE
,F9,F9,F9,03,FA,03,FA,03,01,FC,03,FD,FE,FF,00,FE
,05,05,FA,FB,06,FC,FB,FA,F9,FC,FD,FE,04,FB,FC,FD
,05,FD,05,FA,FC,05,00,F9,FB,05,FD,FF,01,FE,01,04
,00,05,FF,FE,F9,FF,FF,02,07,FE,F9,FC,02,FC,01,F8
,FE,F9,FB,F8,01,05,FC,FA,04,FC,02,FF,F9,FA,04,03
,04,FB,03,F9,01,00,03,04,FC,FE,05,00,07,FE,FB,01
,01,06,FA,FA,02,09,FA,FC,07,01,01,02,00,02,FF,FF
,FD,F9,FD,FB,FC,FE,FD,F9,06,FE,00,04,04,FC,00,FA
,FA,F8,02,00,FB,FA,02,FE,FF,02,FF,07,FE,05,04,FF
,01,FA,01,06,FD,FC,02,FD,00,FA,FD,F9,03,07,FF,07
,01,FA,02,03,FC,FF,04,F6,04,02,FD,FD,FA,FF,FF,FA
,02,FE,05,FD,05,FB,FE,FD,FF,03,FE,05,04,06,02,00
,FA,FF,03,03,FF,00,06,FC,08,FC,01,03,F8,03,05,FD
,FD,00,02,06,FE,01,04,04,03,FF,FC,FC,01,05,F8,FA
,03,FA,FE,03,F8,00,02,FB,FD,FE,FA,FF,FD,FF,F9,07
,05,03,F9,FD,FE,F8,FD,FF,02,FC,00,FA,FE,FF,FF,06
,01,05,FE,F8,00,04,00,06,FF,05,03,01,02,FA,FB,00
,03,02,FD,02,05,FF,F9,02,FC,04,FA,09,02,01,00,00
,FF,F9,02,FA,FB,02,01,FE,00,FE,01,FD,F9,01,FD,FB
,FA,00,FF,FF,FB,01,FC,00,FA,FB,FD,05,FC,00,07,03
,06,FD,04,FA,FA,04,FB,04,05,F8,09,06,FB,FD,00,01
,FF,03,F9,02,07,FD,FB,08,02,01,03,FC,FC,FD,04,FD
,FC,F9,FB,03,02,F7,FB,00,02,FC,FF,04,FB,03,F7,FF
,04,FD,03,FB,08,01,FA,F9,03,03,F7,07,05,FD,FD,FA
,00,FC,FB,FD,FE,FD,07,04,FC,F8,F8,02,02,01,FE,FD
,00,04,F9,FF,05,01,FF,03,05,00,05,FE,FF,FC,06,FB
,FE,FD,FC,F9,03,FD,05,F7,FF,F7,FE,F8,FC,F7,FC,FB
,F9,05,02,FB,FF,FB,01,F9,0D,04,05,FE,FC,FD,FF,FD
,FA,02,FC,00,FA,FE,00,02,01,FF,03,FD,FE,FB,08,06
,FE,03,F9,06,01,03,FE,FF,FC,FF,04,03,03,02,FE,01
,02,00,FA,FE,05,FB,FD,00,FB,05,04,07,03,FF,FD,FA
,FE,FA,03,FA,FF,06,05,06,FC,FC,01,FD,04,FF,FF,FE
,06,FA,04,FC,01,FF,02,06,00,08,02,FD,FD,00,04,00
,FE,FC,F9,FC,03,08,00,00,FE,05,FB,00,00,FD,FD,F9
,FC,00,FD,03,FE,05,04,FA,06,01,FC,05,06,02,F9,FE
,03,04,FA,02,FF,02,FA,00,04,06,02,02,00,05,02,06
,00,FE,FF,06,FF,F8,FC,FF,FB,02,FC,00,03,F9,03,04
,FD,03,04,FF,05,05,F9,01,03,F9,FF,03,FF,00,FB,07
,FF,05,FB,FC,05,00,00,04,F8,F9,FA,FE,00,FA,03,FE
,02,FE,FE,03,FD,FB,04,FE,09,00,F9,06,FC,FF,FA,00
,03,00,05,04,FB,FD,FE,01,FA,04,04,04,01,FB,02,FD
,02,03,FB,05,FF,04,00,FC,FA,FE,FA,F9,05,04,FA,06
,02,01,F9,FB,04,05,06,04,03,FF,03,03,F9,FA,03,FC
,FE,05,03,FD,FF,FC,FD,FB,FF,01,01,00,FA,FE,01,FB
,05,F8,03,05,08,FA,FF,FA,FD,FE,F9,01,FE,FA,03,00
,FA,FA,FF,04,06,01,FE,06,F8,FD,07,FF,FF,00,FF,FF
,FE,FD,FE,FC,00,FE,FA,04,FE,00,01,06,03,FA,06,06
,03,FE,FD,07,FE,FF,01,FC,02,02,04,FC,04,03,01,01
,F9,03,FF,F9,FB,FA,F9,FD,FB,02,04,FE,F9,04,01,05
,05,F9,04,FC,04,04,FB,02,FA,FB,F9,FC,FD,03,FC,FE
,05,FF,06,04,FB,07,06,03,FF,06,FC,FB,FC,FB,06,FC
,04,03,04,00,FC,FE,FD,01,F7,06,03,FD,F9,FD,01,FE
,FE,FE,05,FD,FE,01,00,FF,FC,FD,FB,05,00,03,FC,04
,FC,01,FA,04,FD,01,FB,FC,01,F9,03,04,05,FF,FE,F9
,02,02,FC,00,FE,01,02,01,02,03,02,F9,01,02,F9,FD
,FA,03,01,00,04,00,FF,F9,00,F8,FB,07,FD,FF,01,FA
,04,FB,FA,04,06,00,03,00,FB,03,05,05,06,05,FD,F8
,02,06,F9,FC,FA,08,06,05,FC,00,02,FA,03,FD,F8,02
,FC,06,03,04,FB,02,05,02,FC,F9,FE,04,FF,FA,FA,FE
,00,FF,00,FD,FD,01,FC,FE,FF,FE,FB,04,05,FE,FB,03
,00,FC,00,03,FE,FB,FB,04,00,02,FD,04,F8,03,FE,FC
,08,06,FA,FD,05,FD,04,05,F9,06,03,FB,00,FF,05,06
,03,05,03,03,FA,07,F8,03,04,00,00,06,02,01,02,07
,06,FC,04,08,F8,F9,05,05,05,FD,01,06,FE,FD,FC,05
,07,FC,F9,FB,00,04,FC,FF,FF,04,FB,FE,F9,06,FD,05
,02,FD,05,00,02,04,FB,FC,01,FE,01,03,08,01,00,03
,FC,00,FC,FF,FA,06,03,F9,FD,02,00,00,FF,02,00,04
,01,03,FB,00,FF,00,03,FB,FD,FF,FE,FA,06,F9,05,FF
,04,FE,F9,00,03,04,FD,05,05,FD,FF,FC,04,01,FA,05
,FB,FA,03,03,FD,FD,FC,04,FE,04,FC,FF,05,01,08,FB
,02,FF,05,02,05,FE,05,06,FF,FB,02,FB,00,00,FB,02
,06,FE,FF,FB,FA,FA,FD,FD,00,F8,FF,F9,FF,01,FC,FC
,02,F9,05,F6,00,FC,07,05,FC,00,02,03,FB,FA,01,00
,05,FF,05,06,FA,07,03,04,01,FD,04,FE,FA,02,FF,01
,FC,04,FE,03,05,01,02,FD,06,04,01,FA,05,FC,F9,FC
,03,F9,02,05,02,02,02,FD,FD,F9,FA,FC,FE,00,05,FA
,00,04,FD,04,FF,01,00,FF,FB,FE,01,07,05,03,00,FC
,FD,00,FB,F8,02,F9,05,02,FE,07,03,FB,05,F9,03,F9
,FF,01,F9,FC,FC,F8,00,00,FD,03,FE,FD,03,F9,FC,FD
,FD,FC,03,06,04,05,02,FD,FA,FA,F9,04,F9,03,FB,06
,FD,04,00,03,03,07,FE,04,F9,02,03,FE,F9,01,00,FF
,FD,FE,02,03,FB,05,05,F9,01,FD,FA,05,FE,FA,01,05
,06,06,04,FA,01,04,03,06,03,02,FE,FA,03,06,00,03
,01,F9,FD,FA,02,01,02,02,05,F8,01,FC,06,FD,FA,03
,F8,FA,05,FC,00,FB,03,05,04,02,FE,07,FD,FD,06,FE
,F8,F6,FE,04,01,FE,01,FE,FE,03,02,FE,FE,07,03,02
,F7,03,07,FF,FE,00,F9,07,F7,0D,F8,FC,FD,04,FA,06
,FB,FE,00,02,00,FB,04,F6,02,FA,FF,0A,F9,04,04,FF
,04,08,03,FF,08,FF,04,04,FF,03,05,FC,FD,FA,03,FF
,01,06,FD,02,FD,FD,FD,03,05,04,01,06,FA,FF,07,FE
,03,F9,02,FA,FB,FD,FC,03,04,FF,03,FA,FE,04,02,06
,FE,FE,07,00,FC,01,FE,FB,05,01,FE,01,01,FF,FC,00
,03,01,FA,07,FB,06,F9,FE,FB,00,FC,FE,02,FB,03,08
,03,FB,01,05,05,07,F9,F9,03,04,07,01,FF,01,FF,01
,05,FD,F8,FC,F8,03,04,FE,FB,07,FA,02,02,01,05,FA
,FF,F9,02,05,04,FE,08,03,05,03,05,02,06,03,F9,01
,07,06,FE,01,03,FD,07,06,FE,01,06,01,FE,00,03,FD
,FF,FE,01,06,03,FD,FD,04,06,05,F9,06,FD,05,06,03
,04,03,04,FC,06,FF,FB,FB,08,03,FB,FA,FA,04,FA,03
,00,FC,05,04,FF,00,FC,05,00,FC,01,FE,FE,FE,FA,00
,02,F9,FA,05,04,03,01,06,02,F9,03,FD,FA,06,03,F8
,00,04,FE,FF,04,03,02,03,FA,00,FB,02,FD,FB,FD,03
,04,04,02,07,02,FB,FA,FE,FD,06,03,05,FE,FE,FD,04
,FE,01,05,08,F9,04,FA,00,06,FF,FB,FB,FF,FB,FE,F9
,05,FF,01,02,00,04,04,FA,06,FA,00,FF,FC,FC,F9,FA
,FD,FD,FC,00,FF,FD,03,FD,FD,FE,06,02,05,FF,03,F9
,07,FF,F8,FE,F9,04,FF,FA,03,FE,04,FD,02,FE,FB,FF
,00,02,FB,FB,FA,FB,FD,01,F5,03,F9,FF,07,FA,04,FD
,05,02,04,FA,08,01,05,06,05,03,05,03,07,01,00,04
,02,01,FE,06,FC,02,02,04,06,FC,04,FC,FA,FE,06,F9
,FF,FB,04,F9,05,01,01,FD,FF,06,03,04,03,02,FF,06
,03,03,05,FD,01,FE,08,04,FD,05,FA,FA,F9,FB,00,00
,00,03,FC,00,06,F8,FC,01,04,05,02,FE,00,02,FD,FA
,00,FE,01,FB,F9,07,01,F8,05,02,03,08,03,FC,04,01
,05,F8,02,02,F8,00,01,04,F7,02,FD,05,02,FA,05,FC
,05,FF,03,05,02,03,09,FF,FD,04,01,03,02,03,FD,00
,FD,F9,F8,03,FA,03,FD,FA,F9,FF,03,06,FA,00,06,FF
,01,FE,FE,FC,06,FA,FF,FB,FE,06,04,FC,02,F9,F9,FA
,FE,02,04,03,06,02,F9,05,03,03,F9,05,FD,05,FE,04
,02,FB,FF,01,FC,F9,00,06,F8,FF,03,FE,05,FE,FB,F9
,03,FE,02,FB,07,FC,05,FC,01,01,02,FE,FB,06,FF,FF
,07,01,03,FB,04,FA,00,02,02,01,04,02,00,FD,01,FF
,02,FE,FC,FA,01,05,FE,03,FE,04,F8,04,FE,FB,F9,FB
,FA,07,00,F9,02,03,01,02,01,F9,FA,01,06,00,F9,FE
,05,05,07,FE,F9,06,FE,01,FE,02,07,FD,FB,05,FD,03
,00,02,FC,03,F9,F9,FD,FF,F9,03,05,FF,FC,FB,06,07
,FD,F8,06,FB,02,02,05,03,01,FC,05,03,02,03,FC,FB
,FE,F9,FD,00,03,FA,FD,FC,F8,F9,FA,FB,FC,FE,FB,02
,FA,02,FF,FF,FE,FE,FD,03,FE,04,FD,FE,FF,00,02,03
,00,F9,02,FA,01,06,03,F9,00,02,06,FA,06,FD,04,FC
,03,01,FA,01,02,04,03,FA,FF,07,05,FE,01,F7,F9,06
,04,FE,04,FD,FC,01,03,FD,FD,02,04,01,FD,00,07,00
,07,FD,05,02,F9,01,06,02,FF,FC,FE,FE,04,03,03,F8
,FA,01,FB,FD,FE,FD,05,07,04,FC,06,FC,FF,07,07,04
,FC,FF,00,04,01,01,02,FC,02,06,00,FE,FC,FE,FF,02
,05,FF,F9,05,FA,F9,04,FE,FB,04,FE,01,03,06,FF,F9
,FF,F9,FB,FB,01,FF,FB,01,FE,02,FB,04,FB,FD,F9,02
,02,FD,02,04,01,FC,FA,00,09,FF,04,01,04,FD,06,01
,02,FC,05,06,FB,FE,05,FD,FE,07,FD,FF,01,01,01,04
,FA,00,FF,FA,04,04,F9,FB,01,06,FA,07,00,03,FF,03
,04,F9,F8,FA,F9,02,FC,FC,04,05,07,01,FD,F9,FF,F7
,02,06,06,04,07,01,FF,01,FA,FF,FE,02,FA,01,06,FB
,06,FB,05,05,04,02,02,02,02,01,02,F9,04,05,FE,FA
,02,FE,FF,02,01,04,02,FE,FE,FD,00,FD,01,FD,FE,03
,02,05,FF,FF,03,07,FA,FF,FA,04,FD,FF,FD,F9,01,FF
,FA,F9,05,FC,FD,05,02,00,06,03,F9,02,F8,02,07,FD
,FA,FA,02,01,FC,FB,FD,FC,08,F8,FE,FA,FA,FD,03,05
,04,FB,FC,02,02,FA,01,01,FC,01,F9,04,FD,FA,FF,FB
,FD,07,FB,FB,F8,FE,F9,01,05,FB,FE,06,FD,05,FD,FE
,01,FF,FC,FE,08,FD,FD,03,07,FB,07,FF,FA,00,FF,FD
,04,FB,03,06,04,FF,FB,FE,FF,0A,FB,F8,09,FB,F8,04
,01,FF,FA,FB,0A,01,04,FE,06,07,FC,01,00,FC,FC,05
,05,FA,02,03,07,FF,01,07,01,FF,FC,06,FC,FA,FC,FB
,00,FE,FC,FA,FD,FC,06,03,FA,FF,02,FF,F9,FC,F9,FF
,FA,F9,FE,FE,FF,05,FE,00,F9,FB,06,FC,01,FC,F9,FB
,01,04,03,FE,FA,FE,02,FC,01,05,FE,02,01,FD,FF,02
,04,01,06,07,04,FE,FA,FE,03,FD,02,03,06,FC,FF,02
,02,02,FD,FC,FE,FF,01,04,04,04,01,FE,FC,FB,04,FC
,FA,F8,FE,FC,02,FF,03,FA,F9,05,FF,00,FA,F9,FE,FD
,02,FA,FF,06,06,05,FD,03,05,06,FF,02,02,F8,F9,FB
,07,05,02,FF,02,03,05,00,06,FD,01,08,03,05,FE,FE
,05,FA,FD,FB,05,FF,FA,FC,FF,F9,05,03,01,F9,FF,05
,06,FE,FA,00,02,F9,FA,FE,FE,00,03,FF,FB,03,02,F9
,FD,03,03,02,06,F8,FE,05,02,FE,06,FC,FA,00,FF,FE
,05,04,FD,FA,00,03,02,FC,07,F9,FD,FC,00,03,FE,02
,F9,07,F9,FD,05,06,FE,06,FF,06,FF,FA,05,00,FB,00
,03,04,02,01,00,03,FF,06,FD,00,FB,F8,00,02,FE,03
,F8,FF,FE,07,FD,03,00,FB,00,FE,FE,05,FE,02,02,FB
,00,FE,FE,01,FF,FC,FF,FB,F9,FF,01,03,FA,04,00,02
,03,FF,01,FF,FE,F8,FE,F9,03,06,FB,04,04,F9,02,04
,FF,FF,00,FE,FF,01,F9,FC,FB,09,05,05,FE,03,04,FB
,03,00,FB,06,04,03,07,04,FD,FE,00,FA,05,06,01,FC
,FB,FC,F9,FB,09,FF,02,F9,06,01,FA,FC,FA,FB,FC,FC
,00,01,01,FB,06,02,07,01,01,FB,FA,05,06,05,07,05
,07,00,FA,05,FB,FC,02,FD,00,08,01,02,FE,FC,04,04
,05,05,01,FB,FD,FE,02,00,FE,FF,02,FB,FF,FA,FC,FB
,FE,02,01,FB,FA,FE,FF,02,04,04,05,01,04,FA,FE,FE
,05,01,FA,F9,00,FA,FA,F7,06,FC,FB,09,FD,02,F9,FC
,FF,05,FC,FF,FA,06,FA,FC,FD,FF,FC,FE,03,F7,FA,FA
,06,02,05,06,03,FA,05,FE,FC,F9,03,07,05,03,FD,FF
,00,04,FE,FD,FB,00,F9,02,FA,FF,FF,FE,FE,F9,03,01
,00,00,03,FE,02,00,00,02,02,05,FE,03,FD,F8,FD,FB
,00,FB,F8,FF,00,03,FD,FF,FE,03,06,05,FC,03,FE,06
,06,05,05,02,FF,FD,FA,02,FB,05,02,FA,02,06,FC,07
,FF,FB,04,08,FD,F8,FE,FA,00,FB,F9,00,FD,FF,FC,05
,F9,FD,FE,01,06,03,07,F9,02,FE,03,FA,03,FF,07,FF
,FC,00,00,FE,FB,FC,01,06,FA,FE,06,FA,02,05,05,FF
,FA,FF,FD,03,FE,05,02,04,F9,F9,F8,FD,FA,05,FC,03
,03,FB,FD,00,FA,FD,04,FF,FD,FD,FE,01,02,FA,00,05
,02,FF,05,05,FA,FF,FE,FB,01,F8,FC,FA,FF,05,02,03
,02,FF,05,03,03,02,02,FA,F8,FF,05,01,FE,02,06,02
,00,FD,04,FC,FC,02,07,F9,FE,03,06,FB,05,FC,FB,FB
,01,FE,FE,FB,01,00,05,FC,FE,00,01,FE,FB,FF,00,01;
=======
memory_initialization_vector=04FC01FC04F900F7FAFD08F9F905FC050602FAFF02FAFC0606FDFBFD0406FB00FDFBFE0105FF04FEFD050004FFFEF9F80000F6050005FD0405F9020508FCFB05,03000003FB050402F902FDFCFA06FDFE07050304FBFB04F903FAFD02030002F705FBFD01030406FCFE00FCFFFC0005060002FC040400F80102FE05F9FFFC0102,04FEFB010303040701FEFD0200F806FC00FF03FA03FD030006FCFEFDFBFFFA04FAFBFE04FB03FD02050001FF0AFDFD0303F9F7FBFBF703FE02000700FD09FB02,FF02F902FAFA03FC0102FE04FC03FEFCFE0407F9F903FE0204FAFBFA06FEFD00FD04FE000301FEFBFEFD0C00F80406FF03FA04020402F901FE060005FBFE00F9
,FAFB010603FE000305F9020506FE0607060201FEFE070606FF0406050207FEFAFF060506030504FCFBFBFCFDFCFEFC0503F901000201020206FDFAFC03FD0302,FC030403FF03FBF60606F801FBFCF8FFFFFA03FCFA050000FA0706040102FE05FB040400FEFFFD01FB0000FA06FF060107F9FA05FC07FA00FE01F9FB05030207,FB04FEFDFF00FFFEFE06F80101F8FEF9FBF9F9F6FF04FF04FDFB00020602FD00FDFEFCFDFCFFFDF800FE0400FCFB02010102FDF9FD05FD00FCFEFF04FEFBFA03,06F90303FDFAFD01000504FE0001F8FB04FF04FB03040500FF0403F90005FB0104FC030106FE060006FFFB01FBFA05FDFEFFFF04FB00FF0506FEFC00FE060601
,FEFEFBF8FD05FB0400F905FBFEFE02FB06F9FCF903FDF9FC040307FDFF020001F906FF04FFFCF9FBFE00020605060500FE0003FDFAFF02FAFDFAF90502FF03FA,FC0400FF0508020406F905FB04FFFFFBFC0604F8FFF9040400FEFB02060303F9020100020604F902FA04FBF70105F8FB0305FDFD000004FC0506FDFDFBF9FEFB,04FBFD08FFFF04FBFCFD05FF02FBFBFC02FA0203FFFA00FDFA0402F805FF02F9010304FF0704070600F8F7F7FD0000FD050409FFFBFEFC0603FEF905FE07FF05,07FF02FDFFFC00FE03F801F9FD00FE0601FAFF04FBFD04FFFDF90503FEFF06FB0104FB06FCF9FF040003FEFD01FC03FD07FB0606FDF7FF0600060605FFFD01FB
,0201FB05FEFC01FE00F9020604FBFBFB0100FFFD03FD01FC05FFFF0601FDFEFB01020003FFFD01FD06FDFC06FE02FA05FBFAFA03060103FB0603FA00FBFFFD07,03FC01FF0602FCF8FAFCFAFB00FDFF06020403FD0002FBF8020502FA0203FAFAFBFCFC02FE01FAFCFF02FFFE05F9FCFF03FB06060402FBFB04FF0605FF030303,08F9FDFB05FB020102FBFCFEFE03FEFEFA0304FD0303FF06FAFC03FB0400FE0306FC03FD01FE050101FCF8F804F90506FE04FEF804FF00FBF9FEFCFA01FB0205,01FB00FE03FE06FEFBFFFD0001FA03F9FE0600FB0602FFF9FAFFFB0004FBFA00FE0504FB02FFFFFEF90206FD06FFFCFB01FFFB0706FAF9FF06FB04FF010207FA
,FBFE02FB01F6FDFC000206FAF9FDFC05FD0201F903FAFD04F9FDFCFC04070606F907FB02FEFE06FC050507040204FDFFFB0103FAFCFC06FDFDFBFCFF020006FA,030603FAF9050302FFF9F7FF06FDFD01FC01FA04FFFAFBFDFF00FE020505F9F9FD04FA00F9FC060502FE04FA05F700F9FCF8FF0502050202F900F900FC00FEFC,FE0500FAFAFDFD04FB02FBFAFE060400FAFFFAF7FF02F9FDFE000504F807FDF9FCFCF70202FA0105FBFFFAFBFFFFFD03FAFE0604FCFCFDFD050605040406FB07,0902040201F40600F900FDFF02FE03FF07FE06F80204040202030005010701FFFFFD05FD040205FE000901F8FB00FD0206FB000603FC00FFFBFEFF0600FC00FB
,FAFEFDFF0201000501FBFA04FC02FA03FBFDFEFD01F9FDFA01FE06F9010604FEFBFC06FA01030303FEFA0602020506FBFBFEFA050404FEFF0406FF0302060605,F80406040102FAFC00FEFCFF05F9060206FF02030201FDFB03FCFF0502FAFE0407FFFAFF03FEF9FFF9FFFE03FCFE01FE0403020301FDFF00010605000303FE01,FFFE01FAFE0201060205F9F806FBFC030302F8000403FDF9F9FF06FE05FFFFF8FCFE00FD04FE03FF0306FAFD020302040500FEFBFDFEFB04FDFBFB0101FC0205,02FE0105FD0301F9000006FB0105FCFBFD0504030702FFFBFC0301FD00FDFDFDF904030400FF06020004FAF6FDFF01FFFB0304F9FBFD05FAFE0500FBFFFC0102
,060702F9FB05020003FDFC0105FF01FA0500FAFC0301FDFB0704FBFBFF04F9FAFF0303FFFC04FB00FEFD01FB05FE060504FC03FA02FF0303FCFBFDFFFBFEFC00,05F7FE00FD05F9F700FD03FB02FEFF04FBFEFF00FB0508FCFBFB00FDFB00FEFB02F9FEFFF9040305FBFD01F900FDFEFA01060103F8F9FF06FA01F901FAFCFBFB,FFFFFAFBFC0C00FBFF02FD01FDFDFAF8000706FBFB03FE05F901FE01FF00FDFAFD03F903FDFFF80402FA05FCFE0005FC05FFFA04FCFFFE010103F905FF040100,02050106FA0405FE0003FA03FF02050506FBFB020604FBF800FE05FD000006FD03FCFEFE0203040100FE00F80403FC01FC05F9FBFCFDFEF8FFFA000102000505
,FCFCFA05FC01FCFB04FDFEF903FB0105FB0005FBF9FD01FB030102FA000105F906040004FDFB0505FF05FFFA08FD00060305FBFF0404FDFAFD03FE0101070400,02FA05FD03FD040001FCF8060002FF02FF070501FB060805060303F90105FBF80504FFFC05020406FDFEFBFE05FF020301FDFC0203FE0606FC0602FD0506FCFF,FD03030000FEFF01F903FAFC06FBFF00FDFFF8FA0507FFF9FE03FBF9020304FA040504FF04FAFFFB0102020105FDF9FA0600020201FD00FBFE00FBFCF8F9FE03,FC01050402FB04FB08FEF9FB06010406FBFFFB0002FCFB050208FA05FE05FA020401040000FFFCF906F9F902FCF9FDFFFDFA03FC000002FEFFFCFD02FA00F8FC
,000102060705FAFE03F9F80006FFFAFF040200FAFD05FE0706FEFD05F9FB0602FDFEFCF9FCF7FC00FE06FEFA04FB02FD0806FFFC0204030203FC010403050205,FAFC05FEFF0105FCFFFC0100F904FA020201FDFD04FC02FC01010100FBFF01040103FA0006F906FBFBFD05F9F8060102FE0502FA04FB00FD00F80001FEF90702,03F9FF010702020007FF07FB05FE00FBFBFEFA0402FE01FA000103F806FAFF040400FDFDFD01FF01FEFF0402FB02FE01FBFB00FE0500FA0101FDFA0603050008,FF00FB02FBFD02FF020605FDFA02020505FDFE030201FA03FDFC05FC0502FEFD06FD0601FCFEFB03F9FE06030500FC040504040402FE03FD03FF02FF0402FFFF
,FDF9FAFDFFFEFF0405060304FFFCFCFB0402060006FBFDFCFB05FCFDFCFCFEFD05FF05FEFE0700040401FD04FCFEFD000302FA0603FE02FBFAFCFF060105FB02,F904FDFBF90302FA05FBFB010200FB03FF00F900F9FAFCFDFD06050706FEFF060600FCFC06F9FFFCFFFEF801FD02030503F80504FA05FA06FDFFFCFEFBFD04FE,FE01FAFC02060603FFFAFEFAFDF9FE05FCFA020204FE0702FE05020602FEFCFF06FCFF02010503F902FD02FC04F8FF04FFFC05F9FCFC05FCFDFF00FD01FE0207,FAFF07040001020405FA010007FDFBFE0403FC0707FFFBFF0102FCFE06FB00FAF90002FD05FAF905000502F7FD0004FD0003010304FD03FA06FB07FB06FC06FF
,06060000FA05FD0903FB060303F9F8FDFD02FE06FCFF00020406FA01FBFF04FA0100FB06FBFDFD00FEFBFFFBFEFF05FFFC02000206F8FEFEFF03FF05F90002FC,FAF803FE07FEFD0404F9FDFB01FE01FF04000202FEFEFCFC0300FCFAF80204FC06FD00030508FDFFFEFDF804FD05FE06FFFE0104FF05FA000403FF03FEFB0003,FEFBFFF902FFFC0500FF0500FFF801050101FB04FDF902FDFCFBFAFFFDFC01FFFBFA03040204FAFF0006FB00FAFCFBFFFE0606FB0205FEFEFAFAFE01FD070702,FA0402030504FEFCFE010005FC07FFFA03FB03FBFB00FB00FD0104FD0105FB0105FC0100FF02F9FB03FE020205FDFF050403FDFFFE020101FC04F8FB02FAFB05
,030100FF07FDFBFF05FA010302010407020000FEFB0001FFFF0205F9FA0307FAFB05FEFC07FFFE0203FDFBFF06FAF906040104FF06FC060600FAFF0706FEFCF9,0205030203FFF9FA0102FA04FD0104FB060606FCFCFE00FD02FBFE06FFFEFB040201FEFFFF000602050102FB0604FC0002FCFF03F802FEFA030304F9070400FB,FDFFFA05FC03F904030003FCFF05FBFB0003FC02FBFE0BFE0001FA0103F904FBFD0002FE03FEF9FAFBFDFBF801F9F90002F903FE020105020201F80001FC0402,040105FFFBFEF9FAFB00FBFFFDFB0003FEFB060506FDF9FDFF00FB06FFF9FC06FB0405FA030403FBF9FB020106FD01FCF904FEFC05020306050402F9FEFBFB02
,FD03FCFEFD0400F903F80604040003FDF9F80000FD060404FF09FF01FCF9FF01FFFBFF0103FA030404FAFCFA070103FA030106060202FE060606FDFC00FAFD02,F906FBFC03FD020700FD05FCFC01FEFA030300FB01FDFA02FDFE0302F90206FE000505FAFBFB04FDFB01FBFEFB060300F90300FD06F900FBFD05FD05FAFCFBFA,040207FD03FBFFFA02FEFDFA04FE000502FF02FF01060302F9FF06FEFBF9FD0306FFFD02F8FDFC03F900FFF9FB02FB0700FDFB03FB0005FB02FDFCFC03FC05FB,FD00F8FA0303FE0000F9FA00FEF9FA020007060803FE06FCFEFCF8FE0501FDFA030600FCF90101050603FD02F806F9FC05FB06000606030307F9FC04010106FB
,070700F8040306FDFFFDFB03FAFA02FDFEFDFDFB04F9F9FAFEFCFDFD04FD01FE01010403FA03FF01040202FD06FA010606FCFAFEFD0006FB0405FB0401FC0306,000402FEFEF8050404FD070401FD06FB01FDFAFE0602F8FD02FDFDFEFEFD05020407FB0405F8FF02FFFA0706020506F800FDFFFDFDF9FF0601FCFD0004FF04FD,F904FFFAFFFEFDFFFEFDFAF9FEFEFEF90400FA0205FB0602FF05FDFDFDFB00F804000502FB0400FEFF0100FC05FCF902FAFFFBFE0106F803FA02F900FBFFF905,0202FA060701FA0806FB03FA010700FB06FB02FFFF060005F8FFF902FDFF0507FE0700FAFBFD0601060402FC0106FBFD0403FD0005020001F904000001FE0602
,FA05FB01070203F8FDFBF806FDFEFDFB00FEFE01FBFAFE02FA05F90401FEFEFAFE0102000101FB010500F9FD05FD06FAFEFD020400FC0104050003FFFFFC03FE,04FB0603FE0403040504F9050202FAFBF9FAF8FF00FEFDF8FD0701FAFE01FFFFFCFF04FB02FEF8FDFBFAFD0002FDF9FD04FD05FB0506FD0604FBFD010606FBFF,00010200FC0402F8FFFEFA02FEF9FE0106FF04FAFEFDFAFF07FF01FCFC040401F9FE03FE0502FAFFFB05FD050305F9FEFDFA00FBFB0602040107FB0504FFFA05,02FAFBFD03FF0200FCFC060205F906030000FEFB05FDFD0205F904FDFD07050506FF0106020003FCFFFF00FF03F9010604FE0300FB02FF01FC0207FE020006FA
,FAFA070603FCFD00FC04FF01FB05FF0404FA0603FFFA0600FF0200FAFA01FCF9F9FCFCF90401FEFC06F904F80705FD0002050202FA0404FA0300FBFEFA050100,000402FF050200FE0506FC0502F906FDFB010305F804FA000202FC04FC07FEF905F900FE02FFFC05FD020101FC07F9FDFC0601FBFF06FA030002FE03FCFBFB06,F9FB00FF07F90101FFFEFDF905FA07FEFD050402F9F9030302FC04FA05020601FD0502FEFF020704FD04FF0106FB0102FDFC0301FEFD03F8020206FCFCFFF907,01FFF8FB0303060207F9060304FC0503040304FC00F8FAFA01FB02FBFC00FEF805FEFB00050402FA00FE0201FEFE01FF060002FB04FB02060605FEF900FD04FA
,F8F9F9FC05030102FF0507F80000FAFA04FEFFFDF9FE01FE0401FC06FEFAFEFDFFFEFD04FDFB0500F9FE05FE08FCFAFE01F90402F9FF01060002FAFD04FBFAFE,F9F9FDFFF901010500FBFD020505FD05FC03F800030606FF02FFFF02FFFC0606F906FC01FC0700FCF8FF03F8FD0302060005FDFF050101FC06FAF9FB0607FE00,FF03FB030604FE01FBFA03FD0001020705F9050503FD00FAFE03FA020101FEF803FCFAFEFDFBFEFD06FEFE02F90406010104FEFF05060000FB05FC0102FFFB02,F702FA070605FC0400FC050206F90201FDFD04010000070004FF01050401FBFD020302FFFCF7000105F8FE01020002FE06040306FD04FF0301F904FE01FA0403
,0707FEFB03F9FBFBFEFF00FE06FCFE05F905FC02FBFE02FD02FD0206FCFDFBFEFEFE05FD07FAF905FBFE05FB0704010202000202FBF90200050102FB0706F9FC,FD00FFF805FFFEF705FEF903020205040500FE03FA060703FA06FE03FFFBFBFBFC0603FDFC06FE06F8F906FA0404F9FC01020502FA0305FE01FE0605FBFA0300,FCFFFD010305FF0103F903F9FBF8FEFDFC02FF010205FBFF0202FCFB06FD04FFF9F902FCFD07F9FE01FDFDFC01FEFB030300050603FF01010306FCFEFDFAFDFE,06FAFBF8FDFFFFFA0100070500F9FDF9F8FFFEFBFA0705060400030300020105060406FF020704FBFAFA0605FB030200FDFD01FAF9F906FF0006FA0604FBFDFC
,F806FEFA0108FCFFFBFCFDFDFA04F9060602000504FBFB0300FF06FEFF02F906FE06050206FE0005FCFC04FAFBFAFD02070102FA00FA04FF04FAFAFC05FF04FD,FA01FEFF030500FA07FFFEFDFA05FDF9F9F9FF0706FFFEFC00FEFE0006FDFFFCFEFCFF04FEFD06FAFCFC05FF00FDFE03FD04FFFD060105F905FBF904FD0105FC,08FD0001FDFD04FC04F804FB03010201030301FD00F9030407FAFBFC05F9F801010002FF0101F9FC05FFFB020600FEFFF9F9FFFCFAFC010002FAF8FEFEFEFD05,05FBFBFA05F90503FFF9FC0504FAFA02020500FAFEFDFF0102FD000601FAFAFF0404F9F90303FE05FFFE00F7FFF9000104FDFE030003F9F8FDF902FDF8FA05FD
,FCFBFCFEFE00F9FCFBF9FFFCFCFA06F90605FEFB030200FE01000205FC06FB06010403FCFAFB0001FFFDFDFC02FBFFFB00FFFB0602FD010602040505FAFB0404,FBFCFB02F9080102040002FDF90300050402FC01FC02FFF9FBFEFB05FB06010602FDFB06F907FCFEFB00FBFD01FB0202FFFC00FA0502050007F9FEFD05040602,F9FDF9FCFDFF0003FF040202FE06F9FB01010405FA070000FD00FFFE07040100FD06050405000602F8FBFCF903FBFFFAFD0206FBFE0206FC07FF02F9FD02FF04,FD02F9FF0103FAF807FD05FCFCFF04FB01010300FE04FBFB0605FBFFFD02FEFC06F8FE0304FCFDFDFD0200FEF901070101FEFEFAF9FC0201FBF8FCFA05FB04FE
,04FF02F90404010503FBFB06FAFF0603FB0304F901F8FD05FE030401FAF9FC0406FE03000304FAFEFB0406040504F70206FFF7030003FFF9FFFEFB0704FD04FC,02040305FB070002FB00FFF9FE0100FA0507F9FBFA0504FDFC010203FAF905FFFAFF0201FF000405FCFBFA04030203FB04F9FCFB02F904FBFDFCF9FF0301FDFF,010A02FFFF0103FB0700FAFFFEFA00F802FCF90506FF0300FCFC02F9FEFAFCFEFDFC03020105FAF902FD020203FB04FD04F801FCF9F9FCFBFA03FDFCFCFDFDFB,010107FE0700FCFB00000401FFFDFEFAFEF803F7FCFE08FBFDFE04FCFBFDF901FDFC00FA00FFFDFCFF020801FE01FA06FD0301010405FAFD04FBFB01F902FC02
,06FD00FAFC02F9F901FD05FD0203010302FAFDFB04FA03FA0005050305FEFFFEFB01000300FB010603FC01FD00FC0002FAFB02FBFBFEFFFD07FFFD00FD060603,FCFAF902F9F901FE07F8F9FB07FAFFF907FD00FCFEFD06040005F904FAFB030004FE0003FDFEFAFA0100F90202FC010303FCFD010302060103FBFAF90101FE04,080403F704FD00FE00FB01FCFDFEFF00FCFC0403FCFAFFFDFE02FBF90401010301050301FF040303FFFE0001FC03FD02030501FBF8000005FE00FD0300FDFEFC,FD0102FCFB03FD0604FCF801FEFBFCFB05FDFD03F9FE0400FC06FDFCFCF9FF00FEFAF90601FD05F901FDFB04FDFB03FFFEFFF9020000FE02FBFA0202FAFB06FB
,000502FE02FB05F905FB030203FC0202070506050503FD04F905FFFDF8FE05F90003FFFA01FEFE00FFF8FF0403FBFFFB0403FB01F8FBFCFDFAF8FD0505FAFAFB,FC05FA05FA0201F705FEFD06F9FC0201FEFB0002FEFD04F9FBFAFF05FEFB0102FA0302FC000502F905FBFBFFFDF803FBFD020504000506FFFFF900FE00FF0403,05FC0002FD00050BFFFDFB02FF06FFFC00F90404060201F9F9FFFEFBFEFB00FEFCFD0506FC07FAF9FA01030C0503FCFF01FB01040204FB06FE06F901040305F9,FBFAFFFF01FD0506F905000302030401FAF906FF040101FCFF03FD06FF0301FF050702FC030001FB03FD00FD020304FA0503FDFAFEF9F902FBF9F905F9FFFC03
,05FBFE05FE0500FC02FB0001020200010200FAFE02FE0506FBFA00FAFBFC00FF06FCFFFBFC04FF05FBF9FC06FE04FF01FDF9FC0206F80101000202040000FCFA,FF00FB050001FC0103FBF90607FD02FE06FBFE030302FEF8020103FAFDFD05000304FEFBFBFB0601FC04FF02FFF9FF05FDFFFD0303040605FBFC0500FD010401,FD0005F9F9FBF90304FAFE050100F905FE00FFF600FC05FD01FD02FA05FE04F9FAF80103000200FCF80301FE0002FFFEFB05FEFBFEFAFAF907F9FE00010304FD,FDF90000FD040503FB05FBFC00FCF9FD00FB0407FF05030507F9030606FF06FEFFFA03FC03FB0201FEFEFD0904FE05020400FC010006FE05FBF903FB0503FA05
,05FBFB0004FDFEFD00F9FEFA00FCFEFCF9FC060102F802FFF9040603FBFE00FDFA02FA06FBFC030204FFFB05FCFAFCFE0302FFFE01FD04FA01F903F907060406,FAFB03020307FFF7F9FA0003FEFD04050601FA0400F8FEF8FEFDFBFCFDFAFBFB02FC020003FE03FBF905060304F9010102FDFC07060606FBFDF8F901FCFE00FE,FFFFFD020601FB020706020000FFFEFB01F902040403FA06FB06FEFDFBFBFC0204FE0106FDFEFB0605FFFE0104FFFCF9FE0300F8FAFE00FA00FE00FE00070402,05F901FD0603FBF801FE05FE010301FBFE04FA04FC02FA0301FF05FC05030100FB05F8FCFB05FC03FE0204000205FCFD07FB03F9FD00F9010006FCFEFB0100FC
,01FAFC00F90506F8F9FF04FF0704FBFFFCFDF9060705FAF9FA0704FC0101FBFA0500FBFE02FBFE010501FCFDFC0202FB020204FF03000600FCF903FE00070302,F9FB01FD0100FBFEFC000206FFF9FD0106FB05FCF804F8FD02FEFFFA03FF0401030303FF0500FFFCFDFFFE0103FBFA0300FE04F9F9FD01FD040205FE00FEFA03,04FEFAFBFC030000FFFEF902F9FBFE05FD05FE050306FD03020004FC01FCFD010701F903FD03F905F8FE05FB01FB04FFFC05FBFDF9FBFCF9FB0403FAFCFEFE06,FCF900FDFC0504FF02FEFCFA01F9FA030401050506FF0204FD00FAFAFD02050000FC04040602FAF904FBF907030605FBFF0201FDFA0202FCF9FC00FFFF020702
,0008020100FDFBF9060501020106010503FD05FAFB05F80701FE05FBFCFE0200FBFAFD00FF06FB0606FDFA02FFFAFE000806FE02FEFCFCFCFC04FA0600FA0605,FD0606FAF90200F907FE04020203FDFB02050600F90201FA0406F9FD06F9FD03060603FB04FCFEFEFDF8FB06F905FCFB0101FC030706FBFFFFFEFC0303FCFE03,FAFC04FBFCFA0206FEFAFAFA0604FB04FB04FE0602FE010100FF040800FAFD0707FA03FFF901FA06FAFE02FCFEFDFD0701FFFEFFFEFCFCFAFEF8FAF906F901FB,FC02FEFE020201F7FBFDFDFE0401FF00FA07FA03030601FDFF01F8F804FB0505F805FFFEFEFFFA000106FF0205FDF9FD00FD0105FE03000004F9FBFFFC04FDFB
,FAFD0604FBFEFB030504FD0500FF07F90403FCF9FB07FFF9F90002FDFEFF0200F903FAF90307F9FFFBFEFC00030205FA0206FEFEFC01FE06FAFD05FFFF04FD06,02F8FE030007FFF8FA06FAFA0603FDFE0305FBFE0603040505FDFA02FDFFFFFDFBFEFF01FB0205FA05FD0401020203FBFF0503040005F9F804F9FB070501FF05,0204FE0306FD0402F90502060304FF01FB0002FDFAFFFE06FBFD0506050103F803F8000500FBFE04030103FBFF02FDFDFFFFFF06FD050502FB00FD04FE04FBFF,FF060503040602F90004FFFE0000060501050403FDFBF9030707FA0501010101FCFC060505F90103F904FBFEFCFC00FA02FFFFFC0102FEF9FFFBFA00FF03FF00
,0301FCFB0104FAFCFF00FB04000202FF0005FDFEF704FF07FB02FE07FA06FFFCFC01F9F90401040202F905FC06F70504FE0006F904020406F903F9FBF801FAFE,01FFFA00F9FB01FDFA020501FF02FFFB00010003FE010000F9FC0607FD05F900FD03FF03FF03050405F9F9FFF9F9FE07FEF901FEFA0605FA01FDFCFFF906FCFF,0803FBFEFBFD02FEFC03060402FF02FEFCF9F9000505FCFBFEFEFE00FB05FD05060000FBFF03F8F80301F80005FFFEFA0705FFFCFE0001FC01FEFAF904FC05FA,0602F9FF02F700FDFF02FC02FCFBFFFE0302FAFB03F9F8FEFBFBF804FDFCFBFBFCFBFB0101000605FEFEFC05FEFB02FC02FF050403FBFEFFFCFD060104FA02FC
,FE0202FEFBF903FAF9FC0306FBFB03FD06020100FB0103F903F9020600FAFFFFF800FE04FDFF0605FFF9000005FEFF04FDFEFB0001FFFFF9030504FD02FEFA02,04FE06FD00FB000006FD05F9FDF9FAF905FB00050606F9FAFEFA040206F905FB020304FE0700FBFB0105FEFA01F9FE0400FC040105FFFE04FB0102FEFFFB05FD,03FE0003040405FBFC05000504FEFB04FEFCF9FCFA00FE02FA00FA01FCFA0204010502FCFBFC01FDF90005FBFB00FE03FC0304FA0200FFFBFAFA050601FCFAF9,000401FD0201FF050504F9FF02FFFEFD05FE01FF04FFFBFFFA070202FA0002FA01FFFE01F9FDFD0502F902FAFF0401020503FE05FBFD03FCFEFE0305FE040102
,FD0506FDFC0101000700030005FC030501FC00FE06FAF901FC03FC010006FAF9FBFFFF02020503FEFA0307FEFC06FC060500FCFA0500FC05FA0603F8FEFC06FF,00FFFBFEF9FBFBFD0401FA0006F90300F905FFFD030204FDFD060606040201030108F8000203FFFEFA030506FD0802FF01070203F901FD00FCFCF90105030300,07FDFAFB03FE0707080004FAFBF90402050103FFFE00F805FEFDFC000104FFFC00010401FA0507000506FB01FAF9030404F8060505FF02F9FB0606FE05FFFF04,F8FCFFFC0302FCFB06010505F9FEFDF9FC040304020602FC04FBFAFCFBFAFAFF0106FEFFFA0202F9FF0405FA00FD0200070306F9FC06060106FF010006FEFF02
,FE04010106FFFCFA00FFFCFFFC04F90207FB06050607FB050502FCFEF8F900FBFCFE02FB0103F9FA04FC0206050304FBFEFAF901FA03FF01FB070100FD000404,02FDFA06FBFA03FDFF01FBF8FDFB020303FCF903FD00FFFF0507FA0403FF02FCF901010201030200040401FAFC0402FEFE00FEFFFD02FE0106FBF9FF00F90404,050306FA05FC0103F9F906F90504FF04FE07FE01030503FEFA0100FCF9FA01FDFEFC04FF00FB030300FFFBFFFC02FE02FDFD0106FFFF06F9FBF9FE060401FC04,01FF0301FCFEFBFD03FFFDFDF9FB06FC030000FFFDFAF903FFFB03FA0302070304FFF902FFF8FC0205FF06FF00040301FD070303FF03040002FD02FF00FF00F9
,070402FD02F90307FBFF0504FC050803FDFC010404FCF60206FBFD03FD0604FCFCFD060605F9FAFC0504FFFF0604F9FA00FB0202FE01010002F9FAFCFD0000F9,F9FFFE0703FE0103FD02F90500FFFA0306FDFD05FD050500040503FEF9FF02FCFAFE01040201FAFA06F9FB01FD040604FC0202FEFFFB010104FC04FDFFFDFD05,01FBF9060301FEFDFD0204010201FEFE02FBFC08F902FF0405FCFF02FA04FCF9FF000302FD00FDFCF903FF06FFFB000603FC0300FB06FA04FCFCFCFF0405FD06,04FDF906FA03F9FBFCFEFDF906FBFE0005FB03010401F9FDFE060107FE00FB05FFFBFBFD00FC05FE07FBF8FFFAFDFBFE07FB03FF0505FC0404FAFD03000301FD
,0506FFFBFBFCFDFCF9FEFEF9FE01FDF9060702FD0101030103FC0502FB00050005FC00FAF901FDFD030405FFF9FD04FA02FDFBFD0604FE00FEFEFBFD000401FB,02FF05000302FB05FAFC06FC0705FCFD04FD0004FFFDFFFFFFFCF9FCFD0202FBFC05FA00FB03FA07F900FAFFFB04040307040503FC0500FA01FC0505FA0201FE,F80600FFFA0202FCFB04040205FDFEFF05FEFDFB01FD06000003FC01FEFAFF04FBFEFDFEFB03000105FDF8020300FDFB0605FEFBFBF9FB050700FDFC0200FBF9,01FDFEFFFBF906FB06F900FB0100FA05FD03040101FD00060002FC060201F9070204FF0400FA01F9FCFEF8FF06FBFC06FFFCFC0103FAFB0505FBF9FF020001FE
,FC01FFFCFEFDFF020502FE0406040600FC04FF01FDFDFF0502F9FBFA01FCFEFDFA060705FFFF01FDFFFFFBF90004FCFAFEFAFD010601FFFF02FC040403FAFCFE,FAFFFEF800030007FB00F90206FDFDFEF8FBF9FD0102FF02FFFB01F9FBF90607FC00FD020700FBFCFE0006FFFBFA010200FBFDFD05FF0404FCFA000506FDFE00,FD05F902F901020007FF03FB020002FBFD01F90BFA06FCFAFE0504F90503F807FBFD0302010202FF04FA0700FD02FF060202FD0503010306020400FB020100FC,06F80306F901FFFEFEFA03F9FEFB050305FBFBFF0106FBF9FF03FCFD00F906FA0400FA02030000F9FCFE05FC06FBFA03030301FB03FE030305FA03FB0504FF05
,FFFC06FA0001FF02FA03FA0500FFFCFBFA070505FC0005F9FA050601FBFF07FAF9FE010403FC01FD03FCF90806F9FF050501F90002040303FDFC04040603FCFA,04FB0004FEFA04FA05FAFAFF050700FD06FCFE04F801F8FCFEFEF8FA0007050006FB04F904FFFFFEFEFC0800020706FBFDFE04FDFDFA06010102FF0405FF0401,02FDFD05FDF800FFFC0301FEFAFE00FC0603FC01020300FC03FB05FAFE050304F8000104FBFAFE04F903FAFD0303F9F902FAFD05010502F900FC060600F9FEFB,FFF9FAFA0404FDFBF9FAFFF9FB0504FCFA0507F805F9F8FCFEFAFE01F9040201F900FEFF01FBFD06FCFB03FEFCFC0300060309050302F902FD02FAFAFDFFFF00
,FC0403F8FBFEF8FC04FEFE05F9F9FCFFFBFBFEFF05FBF903000402FC0600FC06FAFD04FA06FCFDFDFFFCFB06FF0901FBFC00FFFA0006FCFAFC00FE02FAFB0705,FF03FF0600FA03000302FAFBF9FE0504FC060505F8FFFEFC03FBFFFBF80402FB020602000201FB010006FF05FDF900F9F8F903F805FE02FDFC04060302FD0400,F9FBFFFAFEFEFE02FB0003010505FFFCFAFD0408FA02FF00020301FFFAFA0301FBFC01FCF9FBFB03FF03FDFB0001060201FAF8FDFD05FCF9FDFBFCFC00FFF901,03010200F9FDFCF90005FFFB08FE0003F9FD0501FB0602F8FF05FAFEFD0502FA06F9FBFA02FD0300FAF90402FB02070404020001FF05FAFE02FDFF0604FFFC01
,FF060403FB05F8FD04FC0503030304FE05FDFAFE050105FC04F90003FDFA03FC0007040500FF0203FF00FE02FDFD030303FD0300FAFB01FC020602FC050204FE,020201FFFE04FE010400FEFCFA00040005FA05FEFB01FE02020405FF04FB030402FBFAF906060100FA06FEFDFFFDFDFEFF0200FF03060403FAFC0105FE0304FA,04F9FEFFFA0302FBFFFE01FD0003FAFCFDF90205FDF9FAF90205FC00FC01FF02FB0406F8FAFBFFFD05FDFB0205FE04FAFE0602FDFFFFFEFDFEFDFAFA020201FD,04FF0403FCFBFA01FFF900F9F902FAF8FA0306010400FAFEFBFF01FFFCFFF90705FDFC00F9FA0002FE05FAFA0205FE05F9010602FD06FCFBFB02FAFCFEF904FD
,0607FFFBFAFAFEFC05F9F9FFFD0600070201FD01FDF90202FE040406F8FE0304FBFEFB04FB03FBF8FCFA0202F9FEFA05FBFCFBF801FC00020306060003FB01FA,000505FDFE020400FEFD00FD0305F800FCF9FA0000F903FE05FC01FF0401FD06FFFF01FDFC00FE05FDFCFA0500FA02FA02FFFD0005F900FC010506F8FE020105,050105FA0405FDFEFFFB0203FEFE06050001FFFCF807F8F9FEFFFCFEFEFC010105F90305FC0202FDFDFB03FFF9FCFFFA02FCFC0706FD00FC0406FD01050303FA,FA04000204FFFD0205FC050007FC06F8FFF80504040301FB0401040200000201FCFD04FBFEFAFF0604FDFD0302FD05FCFEFE0402FAFD07FDFD040300FF00FD00
,0602F903FDFF0403010305FCFE05FC04FA0202FEFAFCFF03FF03060204050302FFF80602FD0801050106FDFEFFFCFA0604060200FBFC000003FE05F9FCFDFF07,040203FDF9FA030007FEFFFEFF0004F8FFFE03FFFF0100FD01F80000FB0505FCFAFDFDFAFE02F901020006FC00FD06040306FDFC06FCFA0306FAFB0400FFFB05,FE01FBFEFD0104080002060202FBFA05F9FDF90602FA04060001FF01FB05FAFB01FC02FEFE01FF00FD0206FFFBFFF900FDFC030707060506FDFDFAFAFDFA0605,FD0205040300040301FEF901F907FE010300FA04FCFC020307060203FA010408FBFEFEFFFCFC06FA00FC0602FEFD04FBFA02FC0304FC0100FCFC00FB05FEFF00
,FAFD010107FDFE020105030206F8060505F704FFFE020400FF0300FD020200FDFFF9FAF90106FBF9010302FD04000103FF06FAF9FFFD010205FF03FF0101FC04,000300FBFF0503FE02FD02FE06F906FB01FEFBF8FCFE05F8010402FA05050302FA01FFFD05F9FEFEFDFE010002FF0104FEF9FE000204F9FE050001020403FA03,05FE05F9FC0602020003F90504FC04FB0200FD080702FD01FD010200FAFDFD0600FCFEFBFF03000204FA0600FCFE08FC00FCFDF8FE08FC03FCFB0002F906FC04,FE08010201FE02FE0204FF0401020600F8FEF9FE07FF04FA06FBFAFBFB0305FAFCFD00FD010301FFFD070609FF0402FBFBFA01040007FE0500FF040604FBF9F9
