; Layer 2: conv2d_1 weights (Q1.6 format)
; Original shape: (3, 3, 8, 16)
; Total elements: 1152
; Quantization: 6 fractional bits
; Range: [-2.0, 1.984375]
; Memory organization: 3x3x8 addresses × 128 bits (packed)
; Each address contains all 16 filter weights for one (kernel_pos, channel) combination
;
memory_initialization_radix=16; Hexadecimal format
memory_initialization_vector=FC00FC06080604FAFD040809FBFE01FB,FB0604FCFA0C080004F8FF00050BFF01,02F8F7F90702F709FCFAF805070A05FC,0005FAFCFEF8F9060609FAF6FDFEFEF7
,F904F60BF8FAF5FAF6F7000001FDFEFE,F6FA040A00FDF902F70500060503FA01,FD05F6FC0801F9F6FBFEFB00F8FEF601,09FB0A03F803FBFA00F60AF80AFDFF00
,030206080005FAFC05040808020501FD,F60307FB05FBF70402FA07FCFF030AF8,FD0005FC09FE080806F602FDFD03F905,FFF9FD050702F9FD0503FCF6F6F6FFF7
,0309FAFDFFFDFDFB02F900F7F8F6F507,09F9FDF803F9FC070906FEFBF805F609,F6020404000007F7FE00FCF9040800FB,F8FE02070704F90204FEFFFCFB05FEFB
,0300FF08040803F7F606FC0209FE0008,FF0A0207F70108F8060504FF07FBF503,04F8060503FDFE090808FA0300F60706,0106F7FA06FDFE04FBF60A08F7F60100
,03F7F5F5070605F6FFF50702FB01FCFB,FBFFFFFFF7F904FB03F50705FB0503FC,F70106FDFF07F7F50703FBF807000505,FFFDF5FEF90309030401F7F804FA0B03
,F6FAFE05FC06070307090101FA09F5F8,FEFE0800F8FAF403FAFDFB07F5FC0400,04F7FDFE0900F8FCFB02FD03FF08FE0A,FDF706F6FAF8FC07FCF808FFFEFAFBFB
,0201F800F5FEF9F50A02FB01FEF6F802,F80305000606F80503F6FD0601FDF701,0AFAFC01080A03FAFB0207FEFF060103,FA0207FB07FF040501FDFBFEFB05FFFA
,FF0305FDFF040708F803F9FF0A010302,0B03F703F70906FEFC03FDF7F50101FD,05F5F80A08FAFDF909010601F9020109,F9FE070009FEFCF90205FC0004F506FF
,FCFD02FA010503FBF707F904F80001FC,FD0609F5F8F6FD0208F6FBFA00FCFFF9,F8F908FB04FE00F7FD090402F80405FE,FFFCFF0B0406FBFDFBFFFDF808F803FB
,07FD04FE08FA09F9FCFC05F90AF900FC,FD08010807FC04FD0706F7F904FCF60B,FBF8FAFA03FE0304FFF6FFFF08FB0102,010509F504F9F604FBFEFDFCF9F609FF
,080B01FAFAF9FCFA09F40603F906FB05,FB0AF9F6F7FEFFFE00F8040308F90A05,FEF8FE08F5FBFC000007FBF804010209,F709F7FD07FF02FD00F5FFF90B000007
,FB0707FDFB0107FB05F707FAFEF5F607,FC04F505FD01F701FDFB04FD04FFFFFB,07FAF7FD0909FA0307F7FDFD00F507FB,020109F6F70509FF07F7FD01070003FC
,FDFA04F902FB0109F8F403F8F9F5F805,F703F600FBFB0004FBFFF8FF0506F8FC,F8F80003F609FF040005FA05F708F600,F9F5F50A03F7FD0503FF0707FA0005FB
,FAFEF6F9F504090607FAFDFBFE0504FE,0B0402F90802FA0504F900FBF50801FF,0A050507FA01040501FA0301FFF6F4FB,01FFFA0905040308F8020609F701F600
,03FF08FF04FA05FA03030902F6FB06FF,FB03FA06FF0003F6FEF908080A0604F6,08FDF50801F903FBF702050200FE03F9,FFF6F6FD0702F6FBF6FC00FAFB0501F7
,02F7F707FFF9F800FA08FFF909FAFDFA,F708FEFCF604F80309FDF80805F6FF06,FC0A0104F5FDF5F4010204F4FFF904F5,0301FAFBF9FDF9020A09FFF501F50207
,FC0308F8050902F50103050705070907,0804FE06010305040603FDFBF404FF00,08FC0606FEF802F80309FC00F80AF6FD,F7F7050709FF02FD0105F6FD0304F704;