; Layer 2: conv2d_1 weights (Q1.6 format)
; Original shape: (3, 3, 8, 16)
; Total elements: 1152
; Quantization: 6 fractional bits
; Range: [-2.0, 1.984375]
; Memory organization: 3x3 addresses × 128 bits (packed)
; Each address contains all 16 filter weights for one kernel position
;
memory_initialization_radix=16; Hexadecimal format
memory_initialization_vector=0406FDFE0003F5FAFF0AF8F803000AFB,F60CFF03F2FBFEF806FEFD0300FEFA08,01030AFA00FA090203FA0AFDFD04F10B,FFFA02FAF80405020AF404FF0BFFFE00
,02010801F70102070DF102F7FC04FEF9,01060AFDFBFF00FCF8F8FFFD0A0D08F8,FD09110A03F9090C09FF01F2F3F7FE01,FE0BFE020CFD0407FE0505F4F904FFFB
,0203F4F90BFF070AFF04FD0AF9090EFF;
