; Layer 5: dense biases (Q1.6 format)
; Shape: (64,)
; Total elements: 64
; Quantization: 6 fractional bits
; Range: [-2.0, 1.984375]
;
memory_initialization_radix=16; Hexadecimal format
memory_initialization_vector=04,03,FC,FF,FD,FF,00,00,01,00,FF,FD,04,00,02,FF
,FF,FF,FE,00,FE,FF,00,03,02,01,FE,FF,FE,03,03,00
,03,02,02,02,FF,FE,FE,01,FF,01,FF,FF,02,00,01,01
,01,00,05,03,00,FF,FF,01,01,FF,03,03,FF,FF,00,02;