; Layer 5: dense weights (Q1.6 format)
; Original shape: (400, 64)
; Total elements: 25600
; Quantization: 6 fractional bits
; Range: [-2.0, 1.984375]
; Memory organization: 400 addresses × 512 bits (packed)
; Each address contains all 64 node weights for one input
;
memory_initialization_radix=16; Hexadecimal format
memory_initialization_vector=FCFDF90302FF0105F90000FCFF04F7FAFBF80203FDFD0005F9060402F9FA00FBFA0201FFFFFF02FA020604FB00FB04FA060405FAFF000103FD07070004FEFBFE,FA040402FAF8FBFCF9FC05FEFB04FD060302FFFC05FB0103FB06040204FE06FEFF06FFF904FDFEF901FC06FA00FEFE000004FF030407050203030304FD0405FE,04FA04F804FA02FE02010505FE040BF903020304F502FFFEFD010204FEFAFAFB01000502FF06FEFDFDFF01FA02F7FFFD0104F90AFE00FCFF0805F8F90101FEF8,01FF03FBFE00FBFFFFF9030302FFFBFD0604F905FB0606F907F9030101FD030405FD01060201FA000105FE02FC02FAFBFFFD05FF01050403FF00FF0000000406
,FC010003FF0001FBFEFE04030303FAFA0104FB04030505F9FAFFFF0305FD05FCFDFBFFFBFC03FDFD07FC0001FF05FC04FDFA030200FCFBF90102FCFCFB030401,04FEFA030401FC00FD0305040002FE0004F8FFFDF9F9000504F9FDF9F90201FAFE01FC01F902030001050003010302FB0106F8FF010706F906F8F901FD03FDF9,03FFFFFCFDFDFDFFFFFAF90204FBF8FFFB020400F90001050002FBFFFDFD050100FEFD02FBFB00FAFE0704FC030002FE02050401FC03FF07FDFFFCFE07FEFFFA,FEFFFC04FF05FBFDFAF9050605FCFFFEFDF902FB02FCFAF9FB00FC00FB01FEFDFDFA02000702FFFB02FEF9FC000004FC03FD02F907FC02F804F9020006FB0403
,F8FC01FFFCFB0602FB0407FEFC060202F9FC05FFFEF80504FFF8FA0206FFFCFDF90007FDFC0303050503FFFB06FBF90101FD02FB05FB0503FF04FDFEF90302FB,040407020504FE0202010100FA01FDFCF90404FBFBFA0305FFFAF905FDF90602FAFEFEFBFC02010306FA06FD00050305FD0607FE020302FDF8060400FCFEFE01,FDFF04FBFDFAFEFEF9FF03FA06FB04FBFC02FC01FD06FE00FAF9FE01FEFE080606FC0104FAFC0601FDFC00F9060003FC040000FF01FD05FA0300F9FF02FCFAFB,FA01F8FB00FFFEF9FBFE03FF02FEF8000405FD06FB060101030202FC03FEFA05060706FDFC08FDFE0502010607FDFCFE0002040105FF0301FAFFFB06FD06FB06
,020404FF020003F903FCF90604FAFE03FF00FEFDFBFDFCFAFB05F90506F904FF000005FCFE01030000FB03FEFAFB0101FCF90200FCFFFF010301FB01010606F9,FD04FE03FC06020105FFFD06F9FBFBFFFAFDF9050505070502FAF9F807F904FE05FCFB03FB0003FC0102FFF900FA01FB01FB060500FAFBFDFA05FA0101010107,05F9FB05FEF904F9000102F904F9FCFF0604FB060402FDFDFC0402FC03FB02FC01FEFBFAFB010503F9FE050204FF00F8FFF9F908000301F9010406FCFF0501FA,FCFB04FD01040305FC0502FA0401FEFB02FBFDFC04FFFEFF0606FAF9FBFC0404FD06FF020507FCFF02F9FEFAF9F80503FFFD02FCFA000007FEFDFB05FC040301
,04FAFAFEFB03FCFCFA04FC01FD02FDFF060705F90204FB06FDFBF9050205030003FE0503FD04FF01FAFFFCFD05FEFC06FD0304FBFCFE08FDFAFAFD0303FB05FE,01FFFB01FAFAF9FFFFFCFAFCF9F9F60600FF030604FFFEF804FA06060500060306000407FBFB04FD05FE06FD02FEFAFDFEFB0107FF01FEFFFFFE050304FC0504,FEFCFAFFFEFCFAFAFA010705FDF9FC05FFFE0601F7040501FDFE0804FBF9FC05F9FF050402040BFAFE04FA04F7F900FFFAF8FF01FD09F0FC01070003030BFA04,FFFAFD01FE040300FAFCF8F806040304050200FAFAFC000501FEFA060603010204FF04F906FDFF02FCFF0003FCFDF9000003FA0000FC00F9080507FF03000003
,FAFFFB07000006FE06FCF901FF02FFFF00FDFAFC00FDFF05050305FCFFF901F8FDFF00FA03FCFAF90003F806FE03030004050405FFFCFA0202FFFE05FDF80405,05FCF9FEFE060006FF00FBFE040305FBFFFD050108FF0101FAFB02FE01060407FDF901FE05FDFB05F9F8FC05060506F903FAFFFEFE01000501FCFFFE010203FD,FBFA030201FCF901FD0208FEF9FD0505FC0003FC040306010200FCF9FA02FD04FB0700020200FCFA00060001020000FC0204FA0205FA07FDFBFAF901030007FB,FA02040404FD0301FD010506FDFDF8FD0000040204FBFC07FA02F9F9FB0504FE020006FF05FD00000303FAF903FBFD0502FF00FC0301FEF903FCFC0403040006
,010606FEFA030206FD02FB0300FFFDFDFDFCFC00FCFC030101FD0702FB05FC02040602FFFA03FB03FA00050103FBF90101F9020604FD01FD06FBFC07FB01FE02,05FA05FE05FAFAFF02FDFA0500FBFF0201FBFC030405FA0003FAFBF906FF02FDF900FCFF050504FA01FE050003FD0303FF0402FCFD0100FF06FA0307FCFA00F9,00FBF9FE04FCFDFA00010001000302FC06FA0305FCFD06FC05FD01F9FFFE010200000104FB030004F9FA06FAFFF9FC0106FA0105FF030006FC0603FCF9FDFF02,04F903F9FBFC0002FF07FCF8FF0000FC04FD040504FA07FA060404FA030300FA01FA01FEFDFB00FBF903FCFEFE05FD04FDFC030000020204FDFEFEFCFFFD03FF
,FD00FA060406FA05F805F8FB0000F9FA05FD03FF05FAFF0305FB0106FEF80005FFFF0302F9FD00F904FB06FEF9060006F9FDFBFC01FAFCFAFF010103FCF8F9FA,F90003FE0302FEFCFB0706F9F9060506000101FDF9FBFDF9FD040602FA040702FF02FAF90002FC07FA01FBFEFAFCFAFC00FFFEFB060305FFFFFD07FEFB040000,0506FC01FEFE05FA03FEFC0205FD030001FF01FEFDFEFEFC03FBFF07F9000404F9FCF9FD02FA02000700FA0505000700F9FE0305FFF904FE020001FEFFF7FFFA,F806FAFF05FDFCF90206FDFCFCFFF905000106030202FB000303040406FC04FF05030501FCFBFEFC04000304FEFDF9010405050505F8FF050103FFFEFC02FDF9
,0106FA04F9FDFFFAFD02FBFAFEFFFDFB02FC0406FC04F9FCFB03FF0304FCFE010404F903FD010600FAFAFD00FC0406FE080100FC03000406030604FC04030707,060004F9FEFCFC03060502FFFD04FA01000305FF010103FA030507FA04FAFF0104F9FC0100FE03FC0103FF01FE01FF06FFF90501F906FE040703FF0601F90205,FEFB03FA00FE00FCFB020A02F806FF01050106FBFAFF03FCFA040105F9FEF50104FF01FC04FB09FBFEF60401F9FDFB03FC0100060602F4040103FBF602F5FBFA,04FEFA060300FC00FB0001FC000400030206FE0504FE05FDFBFF0600FB0604F9FBFD0502000602FA030005FB0205000401F8FFFD05FF0306060202FA01FEFD02
,0804FCFF01FF0200FAFEFE0302FDF9FBFF03F9FAFFF906F8FA030600FE0503FEFCFCFEFB05FE05F9060703F9FA01FB030206F9FE020302FA04FC000407FB0301,FAFFFC03FA00FE0504FAFB03F9FD02FCFE0401000205FE06FD05FB0002FE02F8FBFFFBFAFD0202030502FA01FAFFFDF800FAFD03FF0000F8000501FBFA05FCFF,FEFB04FB0005FA060406FEFEFCFDF900FE0302F80007FEFF0406F800FD050806FCFF020106FBF905FB06FB0706FFFF0506FBF904FA02FA0004FBFDF900F907FD,FA06FFFC02FFFF00FAFCFC00FC0405FE0605FF07FCFE02FFFBFE00FB05FD04FCFEFA030503040606FBFE05F9FDFA05F9FEFC0404FA070005FF04FB03F9FB0202
,0103FF0603FF05F8FF0301050400F7FCFEF9F9FF02FDFFFC07F9FE0404FD0AFDFAFF03030303FD0004FC05FA07FC040003FC010401FC04FF05FEFA0701FFFCFC,F8FEF9FFFA0000FA03FC06FB01F9F6FC03020402FA0205F90401050503FF04FBFA00FA02FF05F800FB07F80006FDFD03FE02FE020605040701FF04FB00FC05FF,FAFB0104FC0403FF030104FE02FAF9030005FC0508FEFD010703FE01FE0008FCF900FD070100FE000600FEFEFE0406FEFFFF0202FEFAF9FFFF06FDFCFEF90205,0002FE05FAFE00FB05FF040605FBFE0206F901FEFEFEFA06FAF8030403FA03FE0203FB03000603FBFBFF04FD0302F904FF030002FA05FAFC0201FD07FAFBFAFA
,04FDFAFC04FDFBFD0204060505060302FC03FE0402FEFEFFFAFD020302F9FEF8FFFC03FCFD02FBFB060303FB0506FBF9FC00FB0305FA00FB040102FAFA04FC03,F8030403FBF9FE0104FFFEFD03F9FBF903050606FD0402FD0603FBFFF9FDFAFC01FCF90407FC02050001FEFBFBFAFC06010505030300FFFBF9060303FAFE03FC,FF0505FD05FFFBFCFB01FD02FEFF0300FB05FC05FC00FFF9FF01FEF9FC050103F90503010703FE05FD040505FCFBFCF9FEFBFFFB030005FFFA0001FCFA010400,0403FC01F7F9FD06FD050501F9FEFFFDF9FD06FA0605FAFDFD02FB0206030403FBFEFFFDF90504FEFDF90205FF02FCFF05F9FFFCF8FC03FA06040504F800FFF9
,FC03FCFB01FB03F903050002FE05F9FB0002FB0407FE03FDFF01FE00FBF901060103050406FE01FAFD030004FE06FD010602FD02FB06000600FCFCFAF8000302,FB020506FA05FDFF0106FAFC06000402060603FA04FB000001FCFDF9FAF80600FAFCFFFBFA06FB02FBFF0501FCFFFBFD0800F800FE00FBFB00F9FF02FEF906FF,FC050207FB0601FD04FF05060A020106F8FE0106FFF90400FA0100FEFCFDFEFF0405FF0503FF06F6FE0304020002FA0003FAFC000C01FCFFFDF7F7FB01FAFB04,FAFC050401FCFBFFFAFF0201FA03F90101FBF903FAFAFCF8FBFA0400FDFB0604FD0203FD04FCFCFDFA01FCFB02F904FEFB0205FD04FEFB050005FDFA03FBFEFC
,08FC05FC0304FDFBFEF900FF01FD01FCF9FBFFFB02FEFDFEFAFAF8FCF906FFFDFF03FAFFFEF8FEFF01FD05FDFFFBFF040306F8FEFE0305FFFE04060400FE0103,0404FE02FC0005FE0304FC01F806F8050001FCFF09FB03FF04FAFB0305FA03F906FD0303FD010404010204FDFDFE040500FA05FA00FEFA010500FBFEFEFFFA02,02FE06FEF800FBFF01FC03FAFFFDFD03FB0405F8FCFF03FA0201FE0301FE04FBFBF9FE04060201FEF803FC0300FC04FD000005FD06FC0501FE00FCFB06FF0205,05F900FD0100FEFEFF0300FA05FFFFFE00FFF9FF0604FF0502020604FBFCFBFBFFFD0501070003030205FB0104F8FCFE010605FE0203FCFF06040600FDFD07F9
,FCFFFD0102FB01FE05FD06000300F80202020004FD060105FA06F9FFF9FF04F9FBFBFE0000FBF904FA05FE0404FA00FC07000003F80301FAF9FD0201FCFFFDFD,000703FDFF05FAFAFD0400FC00FDFDFDFCFE05FC04FD04FFFE00FC0107FEFFFAFEFDFB00FE05F9FC05FCFB02030506FB05FCFBFE000501FB010304FE0205FAFE,FFFCF9FC0005F9FD0107F9030307FE04F90503FBFE04FE050006FFFD07FE05FBFBFBF8FEFEFE03FFFDFDFDFBFFFD0202FDFB02FFFDFA030601FB03F9020202FC,05FDFBFFFF010301FC04010103FEF805FCFA02050705060705FD0203FAFF0401FA04FF02FFFE04070403FD02FBFCFD03F9FB0604FCFAFA00FE04FE010303FF06
,FCFDFF0406FA0000050801FCFBFCFBFBFD02FAFC03FE0405FEFD04FA05FC0501FA04F90701020504FD01F9F9FC0106FD00F9020205FCFB03FE01FEFCFBFEFE00,05FE0702FA050301FE050503FFFCF90101FBF9FD000501FEFFFC000201F9FF00FEF90300FDFE04F9FCFFFB06FBFF0602FDFA0105F903FB00010000FF0406FA05,FB03FBFDFDFD050504FF040605050400FCF7F9FA07FFFE0105FC0401FEF807FD06FEFCFC06FAFC02FD02FCFDFAFCF90702000005F902FE000004FC05FF020405,FA0400FD0503FFFD060400FD00FFFB0003FE0001FEFDFCFCF9FC01FB01FB01FF06FFFEFB04FD020604040201FB0603FE01FCF90801FD07FBFFFB020606FAFDFE
,FBF9FB00FAFF01000204FDF906FD0002FA080002FFFEFAF900FB060502FA0605FBFB020307FB00FAFF000606FA02FBFCFB00FEF8F904010401FBF9FE00FF0702,FAFE0102FD0500F906FE04FAFAFC0301FC050606FFFDFCFB0503F8FB0003FD0503FCFA04FDF9FB04FE04FC0106FB06FF0002FD04FC01020504040105FAFDFFFD,FDFDFFF9F50200060306FEFF01FEFDFE02FCFE030DFDFFFB0302FE04FAFF02FEFAFC08020203FFF700FCFBF9F90202FF0102FC0004FFF700FDFFFEFEFDFB02FF,FBFCFB00FD0401FC0605FD05FF01F70203FB0708FBFBFC04FCFB05FF02FCFF04020004FB00010203FFFD03F900FDFA0305FCFC05FB02F9FDFE06FD01FAFA01FD
,FF05FAFEF9FDF9FB03FF02FBFBF905FEFBFBFF0201FEF9FE0306FB01FAFF07F9FEFC0401FAFEFFF902FCFEFDFA02FDFF0000FB01FB05010002FA040206FD0200,01F8FF050606020104FD02FC06FD05FAFF02FE0403F8FFFC04FEFFF9FB0602FE0300FDFAFD0301FBFD02FEFCFEFFFFFEFB030102FBFF03FA0004030401FC01F9,F9040703FFFE0401F8FE05F805FB0303FBFE05000104FF05050601FD060101020307FD03FB010501FF0002FF06F80305050207FF020207FC02FA05FA02FEFD02,0302FEFD07FDFDFDFCFCFF03FDFAFC00FD010403FC000200FA05010304020505FBFE0500FDFCFEF9FDFE02FCFE02FBFFFDFDFA06FA05FC0406F9FC0305F80004
,0404FD04F901FB01FA00FAFD060400FC060505FBFF00FDF8000101030403FCFAFD0702FC02FE010102FB01FDFAFB06FE0306030106020800FFFBFB02F900FB05,03FEFA02F90405FEFBFCFD03F905FCFCFCFEFA05050504FF00FF01F8F9F902FCFA03FEFAFF02FFF9FAF9FD050000020300FDFE01F90303FEFDFA03FDFB01FD02,FF03FC02FC02FB07FB06FE0606F906FE040600FB01030102FD00010301050104FA0105FAFAFD03FE030502F903FDFC050206FE01F801FC06FE010301FBFAFD05,020102FD06FDFE05FD000205050006FF0000FC0501FCF9FA050204F905FA02FA06FAFEFF04FEF8FC06FE0605000405F80506FEFD030607FEFE04FA030603FC05
,05FD05FD03FE0405FEF90305FA03FB06FA00FD05FD030505FF00010601FD00FEFFFCFCFA010500FB0300060005FBF90604F90604FCFB0006FFFFF90400F9FF00,030303FE01F8FE0505FA01FA0603FFFDFDFAF9FAFD05F9FBFDF8FF04FB03FC000207FE05F9FA05FE06FDFAFDFA0702FDFF01F900040104FA08FDFC060206FB03,FCFEFF00FA040200FA06FDFAFE02FD02FCF6F905FAFC0503020301F9050403FE010502F9FA01FCFDFC03F9030304FD03F9FE020303FAFD03050607FC00040303,FF0502F9FA02F90101040301FF0004FEFF02FBFDFAFD05FAF9FBFAFA06FFFBFBF9FFF90604FAFD0102F8FDFC0403FB00F906000302FAFF0500FF06FB040207FF
,02F9FA03FBF90406F90102FCFB030301FBFB04010108FD0104FA00FEFA02FDFD00FC0606020103FD000006060401FFFC02FCFBFAFEFD02FA00FBFF0603FC05FC,FAFA03FD02FCFDFDFBFDFCFDFE0600FA0105F90600FA05FF06FDFFFEFDF806FDFD06FF0403F801FB05010305FC00030102FDFF02000700F9FE0401FCFF00F901,020002FEFCFB01FCFF08F704FCFCFFF7FAFE0004FDFAFC00F8FEFC0406FB05FEFB0105FF00FFFEFCFA020102FB030200030300080202F801000403FC0105FBFD,FE0401F8FCFC0302FB0101F9FCFE04FD06FB03FEF8050506FFFBFFF7FB0006F9FAFFFAF8F902FDFCFBFEFE0202F90603FD0400FBFDFBF905FDFFFF0306010601
,06FEFDFF04FA030205FC0503FAFDFBFEFA0206050603FCFCF9FA0706FF07FCFF0204FCFBFB0203FF060103FAFA010101060204F8010106FBFF02FCFCFF02FA06,FC03020005FDFBFBFEFD020304000500FFF9F905F9070300FD040503FF01FB000205FAF9040400F701FFFB02FBFB02F7F903FC0003FF090501FDFF080005FD00,FFF801FFFAFD04FAFEFFF80000000501F8FA0004FEFC03FDFCFDFF010401FC0605FDFCFE04F9F90302FE04FF03FEFF0302FEFCFBFFFF07FB0100FC04F8FD00FA,0606060806FA06FCFC02FBFA0001FBFA06FBFB01020206FA04FD05FB05010400FF0107FCFFFF08FE0500FBFDFEFDFCFEFDFB00FA00FE0500FCFDFC040006FC04
,FCF900FA01FB0506FE06FA02F9F9F8FF00040400FA06FDFAFA05060006FF00030504F8020104060103FD04040103F9020406FE03FE090107000000080303FEFA,F9FD04FB01020600FEFF0205FDFA01FBFEFD0305FAFCFAFE02FBFAFE0000FCFBFF02FF050004FDFE04FC03F903050201F802FBF60305FD07F9FAF9FA06000202,0407FF03F902FEF9FCFC0307FDF9FBF90604FD0403FC00FB07060301FC0203010700FD0403FF0001050302FBFAFFFCFD0302FCFAF80806FBF9020701000000FD,0502FE04F904F902FAFF00020405050504FD0203FEFC0604FBFEFCFB06F801FC00FBFF01F9FDFDFBFAFD05FDFB020405FD07FD020402FE01F9FFFDFCFB01FF07
,FDFDF90104FB04FAFD0201FAF8FFFE0405FAFCFA040202FB06FA03F904FC0002FC01FDFA01FBFFFA0403FFFF0002FEFAFCFAFDFB050302FC01FAFD030004FB06,FB030100FCFF0105FBFFFFFDFE07FCFFFBFBF9FD05FAFCFD020704030000F906FDFBFFFD05FAFA000203FE01FD0502FDFAFA040405060201FDFDFB08FB03F901,030002FC0405060002FE0405F903F7F9F802FAFD02FBFB0605FB07FA0703F70205FFF9060201F905FB0506010003F9FCFEFAFC07F90206060307FF0206F9FE00,03000400FEFD00020301FF01FD03FCFFFF0606030106FD04F9FCFD02FF04FC0300FC0604F90302FBF903FDF9040106FEFD020600F805030301FCFE06F9FF01F9
,FEFF03FFFA050002FAFC0200FB000600FC02FEFF00FDFEFD000000FEF9FA00FDFF04FC02F9FEFBFEFD0406020203FBFC0002FF02FC04FB0502FEFE0305010306,F906FD02FDFC0403FCFB01FEFA010306FD0506FBFB01FA0104FA0600F9F805FA04050004F9FCFD03FF03FBFE04FF02FF0001FCFB01050503FF0405FF06FDFBFF,FC01FE010102F8FCFD0003FDFEFA0202000307FCF90305FAFC01FB06FDF5FEFB0401010805FD06F700FAF9FEFDFEFA04F7FF06FBFD04F8FEF8010402000102FC,FEF902FAF800F9FCFD0201040503F802FF01FB0101FE06FFFBFB040503FFFF040306FAFCFE0603030104FC03F804FC0404FB0502FB03040601FB03FAFAFFFE02
,0406FEFD0200FF01FE070300050101F804FEFDFC050006FE0205FFFBFDFA04FCFC05FFFC0405FFFDFBFF06FCFD01F8FC07FF0303FDFC0600FB03FDFF01FE0601,FAF9FEFDFAF903010104030202FEF900020600FCFE01F9FAFDFA00FA010200F906FF030204000502FCFFFDFF05F70205FCFCFCFCFCFC060302FBFBFEFCFFFBFD,FEFBFBFA05F9F8FDFD04FE0301FF04FBFDFD05F9FCFF0001080200FFFA05FD010302FF06FAFF010504FBFEF9FB01FE01FAFC00F90104FE000405020005FAFA05,00F900FAFEFA00FB03FE01F9FF05050002FFFB0305FDFE02FE07FFF80405FFF90106F9FCFF05FFFB000503FAF9050401FB00FFFFFEF9FF00FC00FA0402020403
,FA0004FB02030405FEFD03F8060302FE0000FC01030201F90503FEFB03FEFEFAFA04F904FA01FC040503F905060106010106F9060607FC04010605020206FFFB,01FF04FB020301FA0001F9010602000405F905FB06F9FD02F903F90303030405FF0203000502FDF8FBFBFA03FA0001FBFCFC05FBFC04FDF90606FD01FC00FF00,F9FE02FDFF03F9FB010302FBFCFAF9FE06FFFD0404FC00FE050601F9FD03FC05FEF9F9FF0000010700F9FFFCFEFA05FDFF0203FF02FB00FD010201FF0606FEFB,0404FBFF010306FE0203FEFFF90704010204FDFD0004F9F9F9FC04FF05FAFF06F906060206FCFDFDFF03FC0606FEFE03FBFF0206FFFCFF0402010605FA0506FE
,FCFB0200050101FDFDFCFF050401FEFA0104FC030205F9020203FD03FB0000FCFFFFFF0302040500F9FCFEF805F9FA0202000500FD0202FA04F9F905FE040600,060500FFFBFC0303020500010104FFFBFB03FB01FCFD06FC03FB040504FEFA0200040305FEFDFDFE05FF06FC0403FE0105FAFC0002040504F903F9FEFDF9FE07,02F906FA0507F9FAFB030702050202F80405FEFB0001FCF9FD00040601020303FAFCFFFEFEFB05FEF9FDFA0304F70405F8F90105FEFAF90501FD03FC05FF02F9,FD04FE0302FDFBFC01FEFAFB05F9FBFDFD00FEF902FCFBFBFD03FE0204FBFDFFFA00FD05FB040400FFFD04F903F901FBF9FD02FBFC020501FFFEFBFAFEF9FDFE
,030301FFFFFF05FD040601FE02FD03FCFDFD03FAFF04060408010704FB04F9FEFCFEFB0202F9FBFFF90500F9FCFF01FF060600FD04F906FEFE06FDFC03FDFB03,FEFE02FE0004FF0506FC0505FDFF0300FBFE04FA02FE03FAFD0602050606060403F902FFFFFAFB0307FFF90305F906F8FF00FD0400FCF900FAFD06FAFFFF0000,FF0201FA06FBF900FCFAFCFAFFFBFE000102FEFCF70106FB0501F9FCFE0000FD000600FFFB0407FB07F902FFFFFCF8FA0207FF060100FD01FE01050500060503,04F900030500FB03FBFD0405FBFEFCFC010202FB04FD01FF01FA00FEFD05FA00FA07FA04FDF9FC03FB050005F903FAFAFF04FF0207FDFB01FFFAFCFB0404FB05
,00FCF9FCFC0701FE0400FE01FCFBFB00FE060305FA0303030303FF03FC01F803FEF9FA0202FF02F9F8FDFA04FD0601F806FC04020302FE00FCFBFF03FF010500,00FAFE0202F90301FCFFFFF9FCFF04FBFCFA0004000405FAFE070004FFFF010007FEF9FF04FEFFF9FE05FFF9060101FFFFFCFAF9FAFE05020004FB0501FFF9FF,F800FCFCFB0003F8FAFE040601FC0205F90407FCFF04FA02040103FEFEFFFEFD0106F707FE000602040404FF000106FCF9FC050503FCFBFE00F9040801FCFEFF,060006FF02F80403FEF90603FA06FAFDFC0600FE0604FCFDF902FBFF0301FEFA04050400FAFF04FEFC00FE00030002FF0406FC030604FBFDFBFB010006FC05F9
,F902FD0105FAFF05FCFB04FBF8FDFE010304FA01FC04FC0302FC00FDFE02040000FCFCFE00FC04F8F904FCFA05F802F8FC040102F90803FFF9FDFE04010402FE,FE0206010405FB02060400FC0200FEFF0004FAF8FDFC00040400FC01FDFA03FC01FD0106020202F9FB06FA01FAFD0300FA030104FC00020304FBFE04FAFAF904,05FD00FE05F9000603FFFC0701FC0101FBFA05F905FB06010203FD0506FB05FFFF0300FAFE040300030105F90602FBFD00FB00FD03FEFEFB05FBFE0403040000,F9FC02F9000101FF0200FC0605020103F9FBFA000203FF0402FCFC05FCFC0000F903F902FEFF03060207FAFDF90205FD030305060102FE07FB0304FDFBFDFBFD
,04FA02FD00FF03FAFA0706FC04FAF9000501FEFE05FFFE01FE02FDFF02FDFC00FF04FEFC00FAFB05F90006F9FAFEFEF8F9FD0004FC07F9FB02FDFFFDFEF80503,F9FCFA050004FF0101FD05FDFF03FDFEFD0102FAFC0104F901F9FF0501FC00050302010607FAFBFEFAFC030100020105FBFD07F9FE07FFFD010301F904F902FF,FCFD05FD020505FEFA03FDF9F9F9FEFF01080206FDFEFAFD0300FEF80102FCFBFD01FD0304F8FE0504FAFE05F902FDFFFF040201FCFF00FE01FE0303FDF90601,F9FA01020103FBF902FCFEFCF904FCFCFA02FE00FFFEF8000101FF05FC04FE04FD05FBFD03FD0100FA02010407FBFDFC06FE0401FCFA00FB0107F9F905FE0105
,FE03030207040506FA010504F900F90103FAFEFD04FFFDFC08FB0705F904F8FCFDF80004FAFD030005FBFFFAFCFDFF02FE0205FB0305FE06F803FCFDFCF9FD05,FCF9FCFEFDFA030005FBFFFEFDFCF9FDFAFE0601FE0202FE0606FD02FDFBFDFF00070204F8FD0306FAFA05050105FB0504FEFFFB0506FBFD00020006FBFD0404,FCF8FEFD0900FDFBFC03FEF8FD06F805F8FAFDFFF90102FCFAFEF7FCFCF8FF05FCFBFF0505FA00F9FDFA0300000000FE06FDFC01FC06F503FC0202FA00FC0702,FBF904FF0505FEF90106F902FDFAFE00FCFCFEFDFB01FD0402FF0004FA0401FDFA07FBFCFE0100FBFCFEFCFF01FE04F807FF0305F80101FE04FCFFF901FFFA03
,01FAFD0505FC0101FE01FAFC05FEFAFB0403FE05FB05FEFEFB05010100020402FD02FE05FEFDFCFDFD0100FBF8040404FB09FF060204FA06FA020503FD02FCFF,FAFFFA00FC03FBFFF90000FFFF00F80203FD06FAFBFC01FBFA0603F9FCFD040300F9060206FEFAFEFB01FFFC030000FCFDFFF8FBFD06FF0004F90504FA02FCFD,FB05020704F9FF04FE0001FA06000102FC0206FF02020305FD060600FC0103F8FA0305FCFDFBFBFDFBFFFA03F802FFFE07FEFA0006FE0600FD03FE02F90607FF,FE040300FEFBFD02FF0607F902FC040204FAFFFBF9FAFFFFF90703FE0103FDFEF9FBFB04FCFFFDF9FA0606FD01010404FEFF02FE00FDFEFB0601FDFAFA06FD01
,F8F8FAFFFB05FE0504FEFFFF05F903FEF802FDFD0301FAFBFBFA06FDF8FE0105FF01010103FBFBF905060401FAFD0602050504FEFDFC0802F80406FFFB04FAF9,0501FF03FAFBFEFCFE04FE05FDFF05FA05F90105FE0406FCFF05FF03FBFEFEFB02FA0001FBFD02F900F9FB04FAFEFB030303010304FB0704FC0203040402FDFB,FE03060405FDFD02FEFDFB0303FB0301F8040603FA020304FC0002F90605FE05FE0103FFFDFC0507FAFC04FAF90100FF00FC02FBFEFE07FB06030505FC05FE02,FFFC05FAF9F806030504F9FB0204FB05FF020104FCFCFA04FAFA04FDFEFD0303FFFF03FEFA04000504FC0603FCF8070101FE03FD01020703060101FEFCFA00FF
,FC01FB00FD010300F9020000FF05FF02060100FE02FDFC02FE01F9070603FDFEFEFEFAFEFB0304FBFEFDFFF803FD00FFFD04FA0806FF0000FA02FC0206FCF8FA,00FBFB01010002FE030406FAFDFCFF06FAFA060303000606FE0603FDFC02FD0500050201FD00010502020505FD02FA03FF05010203FD0103FB04FC030202FA06,0404FD00FEFCF9FEFFFBF8FBFB0005FA02FE0601FEFBF9F8FB02F8FFFFF7050401030403FA03FD05FC0001F90502F9FAFC06FCFFFFFB04F8FF02010503FA01FF,010301FA04FD06F9FA02FFFB02F8F800FFFF0405FA0103FF0402FAFA0404F9FB000205040501FF05FC0404050602FF040004FF00000408FEFCFF0100F9FB05FC
,FFFAF908040302030302030104020503FE04FA0003FFFB04FFFDFCFFF8FEFE0702FFFFFFFBFF01F8F908FDFAFA050306040505030405FC020806FF0403FBFC06,FA05FB05FC05FA0605FF05F902FF080306FE01FEFF07FE0400000300040004FA01FEFBFC03FFFDFCFB0301FE0401FEF80507060603020204FDFD05FAFD01FF06,03FAFEFA01FEFBFD04030AF90406F9FE00FF02FCFF03FE05FF01FFFF0203F804FBFC01FC02FFFD020707FFFB000703FE07FFF605FAF90103F7070201F904FD02,FBFFFF0302FBFCF8FCFD0500FAFE03FB0202FEFFFDFB02FBFAFF03FFFD05060204FAFDF800FA04FDFBFC01FDFD02FBF9FF03FC050303FCF902FD02050103FD04
,FEFAFD0100F9FCFC040305FE0502060301F803FCFF03FDFC0404FE01FCFB02F901FA0000FBFB03FDFDFA03FEFB01FF00020507FDFBFD0404FB04FCFAFB0804FD,FE0103FCFBFBFCF9FFFA0407FDF900FF0403FB00050303FD0702FAFFFEFFFEFB01FC02FA05FC0704FEFAFEFAFD04010200FF000903FFF9F807FDFFFDFF0104FA,FB0603020303FCFFF9FC0600FFFAF9FA0401FE01FCFAFC02F9F901FF00060106F905010201FAFC03050104F905FAFEFFFD050200FC03FB000BFBFC04FE06FB02,FC03FDFEF90207FDF9FA05F9F906020405FC05FB06FFFA040306000601FBF8FF07FD01FEFB02FEFD00FDF80503FBFC00FAFCFF02FE05FAF809FEFEF804040201
,FCFF04FBFBFD040607FFFF05FBFB04060100FFFA0007FAFD01FF05FAFDFE00FEFEFA0004060202FEFDFCF9FF0506FD010105FBFD060706FD03F90407F70204FB,FEFC0105FD02FBF807F9FBFBFF00FCFE0200FFF9FD0403FEFFFD04FAFEFBF9FAFA0406FE03FC0000F905F90005FA03FE0506FA04F902FCFFFD0607FEF9FCFCFB,FC060102000203FA03FEFEFC02040205FEFE060505FE0201FCFDF9FCFDFBFA00FA01F9FBF906FA00FB06FFFDFF01FF01FD0306FC0206FEFF0800FCFC0702FC06,0400FAFA03FD0300FCFF05FFFDFFF8010106000004FAF90006FF06FBFC00FE030006FE02FAFAFAF9FDFB0300FCFC000408FCFD040201FEF902000502FC010103
,FB04FAFD010201FE0305FEFC060105FF0502FB04FB0505FB0504FBF9FB0104FD07FB02F905F902050605FFFF0503FD05FDFFF9FCFA0704FAF803FEF9FF00F8FA,FEFD0602FC0705FFFDFDFB05FEFF01FF050203FF03FD07FF00F904FA04FF07FA0006FE0101FF00F8FBFEFDFE010602FCFAFAFDFC04FD02FB0AFF03FE04060103,FE0505FDFAFBF9FC05F8FD0304F80100F9FDFCFE0400FDFB020004F9F80003FB05FB03050404FAF806020006FA0403FD02FD0402F704FDFF03FAFA050602FC00,FC0603FA04FC06FCFEFDFD01FC03F8F9FCFD01050004FD05FDFB0002F9FF01FDFA02020100040106FF05FB0602FBFCFB02FCFC0300FFFC02FA04FEFEFC06FEFB
,00F9FAFFFC0505FD03FDFFFD05FBFE01FA01FFFF0102FF01FC03FB0202FC010303F903FE03FCF802FC05F905FFFD050507FE04F9FE05FF02FBFC01FDFD0502FC,03F90200F9030004FDFA01F9FAFBFCF801FA0504F8FD020304060606F8FD04FB00FBF904FE05FBFBFB0001F807010403020103FDFDFBF904FE0700F9FCFD04FE,04040403F9FE0800010804F803F9FDFEF9F702FFFBFD00FAF8FA06FD0003FC02040201FAFE07F901FBFB0007FBFBF901040600FFFF07F8FB000302FCFE05FB04,FDFC0000010404FF010404FF03F905FB06F906FB020300FB030301FEFD0602FBFEFEFE0406FF0505FCFCFFF8FC01F901FAFFFFFAFDF806F805FC05FA0807FA04
,FD03F905F90303FA060702FC02FE01FE03050305F900FAFF0101FA07FE0201FA02FF01FC07F9FD00FBFD0206F9F904F901FA0303FF0401FE0301FC060302FC03,05FD050405FF03FF05FA0402FC060600FFFBF901020306F9010201F7FF03F9FF02FE04F9F9FFF9F9F900F8F9FBFE0505FA04070006060704FDFF010303000105,F902FEFF01FCFA0505FC00FD01F900FB07FAF9FF0607FB0202FEFC0201FF05FD02060506F9FBF906F9FE00FC0000F902000504FF06F9FB06FE02F9FDFBFFFEFD,05F9FD03FF020304FAFE04FB07FD00FC0407FDFC07FDFF03FAFEFFF9FA05FD0100FB05FDFA060506000105FAFA060500FF04FD06FC0607FDFFFD03FB01FA0004
,FDFF01FF02030505FAFBFDFCFCFCFF00FDFD000201FE06FE02FA03FE05FEFA0200F900FF0002FBF9FBFBFEFE030504FAFF0306010403FE0205FEFFFCF900FF05,030201010306FCFC00FFF8F9FFFAFFFBFFFDFB04FAFDFBFCF8FD04FBF9FB05F9F90605F90202FA05FFFAFFFB06020005FA05FEF7FAF9FCFEFDFE050005FBFF03,060000FEFEFDFCFEFE020102F9FAFBFB000607FD0007FEFDFEFEF906FD01FFF901FA0303040401FFFB05020302010606FDFAF9FF02F90204FAFD0604FC0004FF,04FBFAFAFEF906FD0003FAFDFEFA06FC04FBFDFAFB02FF03FC050104FF02FBFF0306FBFA03FEFCFA0105FA02FBFE02FFFFFDFDFEFC03030005F90503FCF9F9FE
,0404FAFF0003FEF9FC0501FC0400F9FA0003F90103FDF9FEFBFB06FB01FC0000FAFAFC0101F90202F9FB0300FF03050100FC02FDFFFB03FD00FEF902FAFA02FD,FBFA0301FFFBF900FF05FEFF0100020202F9FFF90202FA00010201FB0001FC0103FE0706FAFD0504FCF9FF0307FFFD02FB00FF020402F9FF0001010504F90003,040600030300FEFDFFFB0203FA060201FCF7FFF700FF0504FCF9FB05FE000402010505FCFDFA03FCF800FD05FA0005FE01FD010303FF0BFC0007FF02F7FBFBFC,02FCFC02FD05FBFFF9F80505FC0302FD050404FEFFFBFD04FD010503FCFDFC040504FAFDFD000401FA01FF0603F901FAF700F8FAFD03FEFAFEFD0206FF050500
,0105F903FEFAFF0706FDFBFC04FFFDFFFAFC07FE030401FDFE01FFFC00FEFF02F905010405FAFCFF04FC03FB0102FE060606FEFD00FAFBF900F90006FEFC03FF,FA0103FE06010600020006FD05FBFA03FD0404FFFD03FBFA0104020002FAFF04FF04FF05FFFAFB01FCFBFEFEFAFA00F8FBFD04FCFE070207FA0602FA03FC02FC,0204FEFEFB0502FF0605010507FAFF03FB06FC04F9030308020303FD0001FFFAFD05FEFEFB02FDF9010203F9FBF6FC02F807010100FCF8FC01FF05060404FFFA,F902FC05FC00FF02FA0205F801FCFDFAFBFCFDF8FCFBFF0505FEFC04FBF900FFFDFA01FAFD030406FC01FFFB00F9F904FD0303FE0204FDFA0201FDFD07050002
,0704060605FD0303FE02FEFAFE03FFFE040305FF05FDFB01FE05F8000606FF05050603FBFAFDFAFC02F903FA01FBFFFFFA01030005FE0500050606FF04FEFFFC,00050605FAF905FFFD030504FBF906F80300FAFC0006F9F9FF0505FB05FE02FFFBFEFC000207FCFFFCFD02FBFFFEFF04FA00FC0406070201060106FFFEFE05FC,FFF9FD0606FBF90106FF03000603010606F8FFF9FB05FEF9FD05FE000205FBFEF90001F903FEFCFF0706FFFCFAFE07020701FA01FDFEFBFDFA0204FC05040707,050200FEFC00FEFFFAFBFCFAFFFF04FEFE0400FEFD050306FAFEFA0104FF00FCFD010200FAFFFC05F9FC0301020403FCFAFFFF0701FA020107F8F900000406FD
,FBFDFCF9FF01FBFDFCFC04FFFB0200FBFEFE03F903FE0302F90300FA06060202FFFBF9FD05FAFD010106FDFCFD04FBF8FBFF020604FB04020102FDFB02FDFB01,FC06FDFEFE05F9FA060004FEFFF9000102FCFA04FAFB05FAFE02FDFF00FEF9000707F90207F90200FE02010600020500FEFB04FAFF070704FD02000300050400,08FB0601060405FD0706010002FAF9F9FAFB03FB03FD01FFFE02FEFA06FD01FD0703FBFA04FF02FDFA0604000606FEFDFD00FB06010601F803FC02FFFCFA04FA,0005FBFFFAFD02F9FA04010501050205030305FCF90501FCFEFC06FF03F904FAFBFC000002040301FB000202FE03F904FFFF060403FBFAFDFDFA05FD00FE01FD
,040405060007FAFD02F904FAFAFC0303FDFF0304FF04FFFD050502F9FA0502FEFAFAFDF901FE0506FF00F9F800FB06FA0101FFFE05FA03FB050405FD0302FFFA,01FC06FBFB06F9FDFA000704FF06FBFCFA000302FE02FBFDF901FBFBF8FCFB0206FC0307F900030106040201FE01FDFCF9FFFE06FDFFFCF9FEFB0007030203FB,0702F9FDFB0106F9FC09FEFF04FC00FF05FF05FFFF0505F9FC0602FDFCFFF901FBFCFB04F8F90300FEFA05F902050103F6FBFDFBFBFD07F805FA03F8FC03FEFC,05F904FC03F906F9FC01FA0500FAFBFAFA06F80207F906FF03FDFF0502FEFD040604FA00FCFD02FA0304FCFE0206FC020103FF0002FA00F90002FBFDFB0404F9
,01060504FBFD0500FF0703FE0100FD00FC07FCF9020206FAFAFFFFFAF9FDFD0200FEF9FDFCFBFDFF0101F9F903F9FC02FEFCFA0407070501F9FDFD04FAFD03FA,FD05FF03FFFD05FCFF040104FBFD0501FC040501FB05020206FCF801FBFFFF0006FD070206F905FA06FBF9FCFB03FA03FEFDFD05FE0305F9FB01FC06FEFFFFFE,FB050A02FFFE0602FBF7FD03FD03FAFDFB04F901FBFD04FAFCFCFA03F80403FC01FC00020007F5F905FB0504FAF705F9FB0605FDFB04FCFE07FCFB030300FEFD,FA01FEFB04FC0504000500FE0400F9FC010405F903FAFBFEFFFDFE00FDFE00FD00FE03FF06FC0306FA0602FDF902FBFCFFFE01FEFFFE04FF0502FCF702F9FDFB
,FCF8060005030105FEFB04FCFD03FF08060406FDFB0201FF02FD0205FCFAFBFEFCFB01FAFDFEF902060401FBFE050102FDFDFD06040002020803FE04040403FD,FEFE04F8FC05FAFE020508FFF907FC0204FDFFFF0202F90000FF05FCFD0506F9FE0603FBFBFCFAFCFCFD01000204FFFBFD04F9010305FF030207FAF90601F902,FC04FC02FFF9FAF9F9050006FDFE020002000103030506FA00040307FA05FC05FC06FEF90502FFFC07FA01FD0006FAFAF9070007FF02FDFDFAFE01FD01FF0507,040205FCF904F8F9FA0104FC0306FDFD04FBF9F9F90201FA0600FDFF0104FC00FDFA01FF00FE05FF0200FAFCFAFD0004FCFCFFFC0007FC02040403FD05FFFC05
,01FE00FAF90502FA06FCFFFE0605FAFAF9FEF90203FB030005FCFB02FA000000F9FD0205FB0401FC02FB04FCFEFC0305FFFC050000FF01000501FE0004FC0100,00030102FC0501F9000702FEFDF9FCFD05FE040506F906FBFBFFFC04FBFEFFFEFE02FEFE05FF030001060002FF03030203FDFB03FF00FA00FA04F9FFFC04FA04,0104FCFD0400FF0506FF06FCFF06FCFB02FA04060402FC06FEFEFCFE060007F801050503FF040607FBF9FBFE03FDF800FF03F904F906FF02FA04FF05FC01FEFD,0105FDFDF806FA0106FA01FCFFFCFFF90404FBFE0505FEF900040406F9FC0504FDFBFDFF0305FDFF02FD00FE03FBFAF90005FF05FE02FFF9F906FF02FF000004
,FF000601FFFD05060003F804FAFB06F901FF02F9F905F901FA03FB02FE0201F90307FB06F8FE06FA0504FD00FE02FCFEFC02FC0006FA00F9FFFDFDFBF9FDFA05,0402FE07FAFCFC060603FE00FD00FCFC02FFFC06FD03FA06FF0106FCFA0600FB0005FB0100FE070404040302FEFD06F9FF050207FD0704FBFEFBFD0606F904FD,FFF903FA05FB03FAFE08FEF9FD0006FB0205FA07FDF8030405FF0200F8010303060001FAF9040504FBFA060301FD01FB0207FFFD0106FFFEFE07FA0003FF01FC,FF03FB04FD0405FCFCFEFAFA04FCFBFA05FCFE0500FE04FCFC06F9FAFBFA05FB07F901030006FEFBFAFFFAF906F8FE0503FD01FD0101FC0401FBFC02FB07FF03
,FFFC0404050403FCFB01000200FEFEFC0501FCFBFB03FFFAFF03FFFDFEFE04FA00FE0304FFFA0003FB07FEFBFC0605FBFC07FB04000204FD030101F9FEFC0500,FFFE010603FBFF030504FA030106FA02FE02060605FDFC00FD06FDFB0001FCF9FC020203FF04FE02FD0207FDF801FEFD00FFFBFCFE02FCFD020702010406F8FB,FF02FAF8FA06FAFFF9FC01FD04FB000602070305FE03FD00FAFA0005FDF7020501F9FD050601F60705FC02F9FB05F9F90202FB0404FBFBFD05FE0007FF0703F8,0006FDFA01FF01FB0600FFFA0105FE06FF0105FEFA0001F9FD04FDFCF803FF040400040400FB03FDFC03FA00FBFC020501F9FAFAFB060301FBFD02FDFBFA05FB
,0202FBFDFC050304FB0405FA0106FE03FA01FAFD0403FCF900FEFEFE07FAFD05FE0401FBFDFBF9FE020505FDFB00FE05FE0608FF01FDFEFF0205040506FD0401,FE05FB0305FD0106FEFE00FF0602FF00FDFF07FF02FCFCFBF9020800FB0400FA02FCFD0504FBFB0306FEFC02FE02FC04FC06FF0005FBFE04FE04FDF9FA04FF06,FDF905FEFF040000FF01010206F90406FD00F9FF0206FE00FF0307FFFA00F9FCFCF9FE0404FEFB06FB060602F90306FDFCFAFA020102000602FD0506FDFDF902,FEFE01FC070103060201FFFB000305F8FFFC0701FFFF06FCFB0202070100FC050101FBFA0601FAFEFAFD05050003FFFC05F90707F9FE02FA070002050301FB06
,FFFC03010002FCF9FE0105FD00FC0000FAFB070602FFFDFC02FEFFFD0500FF0500FBFA03F9FC03FA05FBF90103FA01FE03FCFFFAFA0303FBFE0306FFFC07FA04,01FD00FFFCFCFBFEFCF8FCFF00FB060201F90203FEFFF9FEFDFB0101FC02FDFFFF05F902FEFE00FEFCFB0506FE00FFFF06FBF902FA00FDFC0003FBFB0102FB06,0307060101020304FDFD06FC0302FEFD0606FE03060007FA010505FB05FB04FB010504FA06F9FEFE06F9060605F806020004FAFFFBFFFBFBF8F9060505FD0605,02FDFE00FBFF02F8FBFC05000403FD030604070302FB05FD04F9FDFAFEFFFF01FC07F9FC00FA0803FE010102FBFB010205FCFB0204FD0201010507FBFB04F905
,FCFA0103F80604FFFE0301F903F90002FE01F900FBFCFAFCFA01010306F800FF040403FEFE02FBFD0201FD0002FFF80007FEFEFE03020106F8FCFE0204FAFEFD,0507FDFBFFF9FE04FCFBFFFE02F9F906F9000600FAF90001FFFE0403FBFDFB0602FCFFFAFF03FA02030001F901FFF9FAFCFFFAFBFC04FAFD0302FB06FEFA0602,0702FFFB04FFF90603060507FBF9040501FC00FBFCFAFA02FBFBFC01FA05FF0300FEF9FCFEFA0304FFFFF9FC03FB0201FD02FCFFF9F900FFF8060705FD000001,FBFBFEFBF8FC030206FEF8FC07FF0500F9FB0104FDFE0305010103FCFAFFFD00FFF90104F9020105FEFD0205FAFA030201030305FDF9FF04FCFB03FF040507FE
,FE03FBFE030204FCFC020602FEFEFCFDFB010407FC06FC00FFFD0402FE04FBFCFDFCFB05F8FEFE06FF0205FFFB0003FD0205FA0701FC06000802070604FB03FA,FE05F90003F80202030601FD02FFFD02FFF9F9FEFBFA0004FB020504FBF9FF05030206FE060606050700FB00FEFBFE05FAFA06FB04FD03FBFF06FE0503FBFEFE,FCFD02FC03FA05FC0502FEFCFA0203FCFE02FD0401FAFE0604FC02FEFAFF01FD05FEF703FF01FCFEFF05FFFF0001FC03FF03FC03FE04FC03FB01FEF906FD05F7,03FBFBF90201FE0101FA0600F8FA0604F804F9FB06000302FAFDFFFDFF0305FF0605FAF8FAFE0001FF030600050103030903FA03FAFBFAF8F906F8030205FAFC
,FA04FC000200FF04FA03FAFA0000060502FAFEFFFA02FCFEFA04000305FE03FFFEFF00FAFF03FBFFFFFC03FCFFFB03FCFB04FCFCFFFD00FF08FB06030702FB05,FBFBFCFFFDF901FDFB06FAF9F9FB05FEFC00F9FFFF0202FAFAF90403F902040202FAFBF901030302060203010302FFFBFAFDF70107FA050300FC0300FEFFFFFF,FB0603FEFAFEFBFAFB06F9F903F901FF06FDFCF9FBFEFAFE00F901010304F90400060306FAF9FC01F9FE0603F9FAFA0002FE030603FAFAFBFFFAFC04FB0701FC,01FC02FEFCFA0007FF00FFFAFFFD04FF0500F90303FBFBFD04FC06F8F903F90004F902F90105FDFAF900FE02FA04FAF9FE00FC01000300FD020101000201FEFE
,0405FBF9FAF900FA05FCFAFEFFFBFFFC00FB07FD05FA0202FBFC02FC04FDFE01FD0104F9FD0503FC00FB0101F904FE03FF060506FF02FDFDFB01FE02FF0107FD,00F9FE00FFFFFA01FA04FF0101FFFDF906FC0005FEFF04FE04010201F8FCFD020301FEFFFDFDFEF903FA05FFFD060202FF0603FD04FFF9FEFA00FB01FE02FE01,FAFD000500FE0006FAFC0301FFFA09000606020405FA00F902FD00FFF9FC04000200FAFD0403F90205F9FCFA02010302FB02020100020001FB00040600FA02FF,0204F9FB01FE02FDFD01FC04FE00FE06F90400FA03010200F9FAFFFAFE0101FB03FAFD070500FA020502FD0100FBFCFBFCFE0004F9FCFEFDFB02FF060303FBFF
,0404FDFBF801F90303FC0602FE05FC00FDF8FCFB06F9FFFBFD0603020300FEFFFFF90302050405FFFE00FF01FAFC0605FD0204FFF802F9F9F704FF05FEFCF901,07FA00060102010305F9FE04F9FDFEFCF9FEFC01050605FB0600FD06FC0302FD00FEFDF8030407F904FD0301FDFB0306F80704FFFA0002020704F9FFF9FD05FF,0602060200FFF9FEFCFB00FA02F801020004010108F902FF07020404FB0201020400FA06020204FAFC01FDFB04FF0301F8FB05FCF7040302FB0002FE00FCFAFA,05030103FD0400FBFB05FD00F901FD01F800FF02F9FA01050106FC04FFFEF90300FDFF040300FA04FFFE050403FCF9FCFEFFF904FA0506FC00FF0706FEFB04FC
,05FCF9FAFEF905FC0001FD01FFFF0704000206F802FC0501FEFCFF0004FF0301FC0404060303F902FEFA00050407FB0103FC03FEFFFB07040102FE03FD02FA07,FB0400FB000506FBF9FDFFFFFD0606FD0105FD01FAFFFFFAFE03FBF801FA0103FF0007FE05FF08FDFDFFFBFC05000403FB03FC02F9FAFE00FEFDFB03FBF9F800,FA02FF03F80405FEFBFD0000FF05F7FDFCFA04FF08FBFEFC0504020403FA03FEFA02FDFFFBF9F9FDFEFDFB0103010401030200FCFC00FDFD05F8FD00F902FCF8,FC00F8FC01000200FC00FB0400000502FE0104FE04FFFDFF01F9FDFA01FC02FDFBFEFAFF01FDFB0108F8FB0300F9FAFDFF050300F80500FAFBFA04F9060003F9
,01FBFDFAFBFE0604FF06F9FBFE03FE04F9FAFA00FD01FCFCFB0001020000020501FC0103FAFCFFFAFCFB00FD06FA00FBFA080105FA0407F902FDFAFBFB0102FA,0002F9040004FA0404FBFEFAFA0600FE07FDFFFE010001FB06FD00F906FC0304FD000306FFFCFBFC0305FAFE02FFF9F7F70701F7FEFDFFFF0807FCFBFBFCFC07,040405FAFC04010601FFFE050500F705000102FDF8FCFD030506FDFAFF0205FB01FEFD0303FDFB0205FEFEFEFBFF0501FAFAFA0300020304FA000403FEFF03FC,FDFD040202FCFDFAFCFE06060307FD01FDFFFFFFFC0404FEFDF90304FE00FBFE060002FEFAFBFF0001FCFBFB020204FEF901020105010603FEFD03FB030702FA
,02FFFD04FAFEF903FE0000FB01FE0400FBFD00FEFA0000FFFEFA02FEF9FF05FA00F90106FDFAFF0506FA0002FB0005FD05F90204F9FD05F9FF0702FC06FA0102,FF00FB01FAFA030303FF06FE06FBFBFEFAFCFD0002FD03FF02FEFDFFFBFCFC00FCFD010306FC0304FC0104FA02F9FAFB05FBFFFD05FB020301F9000000000306,050501040004F90202FF000107FD03FDF9FAFC040504F9FE0406FB04FC0105020005000500FFFEFDFBFEFFFF0506FCFE0806FDFD06FDFDFFFBF9000307020000,02FAFF0301FFFF04040402040604FCF9010005F90000FC05FBFCFCFEFE0301FB0100FE01FCFCFEFB05FAF903F8030305F8FCFD01FC06FCFAFBFA03FF0003FCFA
,FFFA00FB04FAFC03FBF9FF03F8FCFB03FA060501FBFEFB03FAFE03FC04FBFDFFFD010204FE0505FA0302FBF90404FA04FEFCF90204FF0102FC000403FE0603FC,FD07FD02FBFAFBFC01FA06050000F903030603FD06FFFBFBFC0701FA000304F904F905FB00FD0703060505FCFBFD03FDFC0004FAFA050405FBFAFDFB060600FF,04F9FB03FA05040401000305FE01FF03F9FFF9F7F905FEFCF8030605040404FAFEFCFC04050607FD0304FFFAF803050002050404F9FAFF0001F9F808FEFAFCFE,03F9FE01030002060704F90001FC0204F906FBF902050706FCF900FB04FEFD03FEFD0603FF04FFFD03030105FF06050502FFFA02FAFF00FDFEFFF90305F902FC
,08FD0003FF04FEF901FCFBFAFDFEF900040007050204FFFB020301FCFB0404FC0606FFFF0107FB0305FAFEFD04F9F9FC04030002FA0303F9FE00FE030306F900,06FEFD05FF0202F9FAF8FD05FF03FA03FEFDFCFCFAFDF9FCFFFE05FBFC0105FE0103040105FFFA04FFFC0500FB000007FFFBFBFB06FF04FB02000100060005FA,FC03FEFE0602FE0402000101FDFD05F9FA04FF0602FAFF0700FB030201FDFCFC03FBFD06FFFCFC01FE04F805FB030604FFFB0000070101FDFDFB09FEF9FFFC01,05F9030302FF03FC0401FF02FE030605040104FEFB01FDFFFFFFFAFDF9030101FAFDFFFBFFFB00FB01FEFDFD0101FCFEFA0505010401FF04FC0403FFFDFB00FC
,00F9030502FDFAFEF902FEFA06010203F80005FF0003FA0201FC00F902FDFE00FBFAFE02FDFB0402FC0300F805F9FC07FE0603FFFDFF04FE06FDF8FC0404FA06,FF03040405FBF804FC0201F9FAF903FA020004FA0000FAFF01FFFE010002FEFEFAFD03FE0506FE060705FCFBFF0105FD02020508FC05020206FBF90304FC05FF,FE0703FA05FB06F907F90003FB06FA03020604F9FD06FAFFFB00FF070502FA0306000306FC04FF070404FC00FB060101060601FC02FF030400FB05FE01020005,060404FF03FFFEFBFCF900FEFBFE0AFAFAFE00FA0207040504FA05FB00FC03070102020300FA01FCFC03FBFCFDFBFD06FEFEFEFDFFF8F9FAFAF8FFFE01FB0207
,0301FCFC00FBFFFFFB00FAFC070301FF03FAFAFB010402F9F902FB0500020405050005F803F900FD03FD01FEFCFFFFFC00FBFFFA05FF01040501050003FB0207,FCFC0204F9FCF900FCFEFF0204FB00FC00050503FAFBFE030601FE0206FD0503FBFB05050106FDFF030502FAFF01FD0102FDF90106F90201FEFDFA06FB03FFF8,08FD04FDFC05FAFBFB02FC06F9FCFF06FCFF02FAFB05FEF90101FCFAFCFC0504FF06FBFFFFFD02FB02F9F902FB03FDFE01FEFD03FBF8FBFAFF03FD0306FC0207,010503FD0102FDF904FB050103FA02FDFF05FE01050006FFF80404FDFC02FAFF0307FEFFFDFEFC07FF040006F9FE06FE0501FF00FEFCFC0502FE010403FAFD01
,0701FE00F8FCFEF90500FBFEFDFAFF01FC00FD0004FD030202FBFEFA0005FC01FB00FD01FFF9FAFCFBF9FEFF010006FB00FCFFFAF9FF0604FF0404FE030104FB,0700F902FA04FB07FE06FDFEFBFE06060500F900FFFF0001FB04FC07050203FB03FC0203FFFC0404FAFEFF01060004F9FAFDFDFDF906FD03000505FF02030501,01FA0504FC00FCFA0606FBF906FF0403FFFBFCFE0402FEFCFF01FFFA0602FB06FAFA04FEFBFA0703F9FD030100FCFFFC04FC020601FD04F9FB02FE04FFFFFF02,FCFDFBF9F7F800FE030205FD00FE00000601F9FE03060306FBFFFFFB04FC00030700FF01F9FA03F9FCFEF90300FE010606FEFDFFFCFB0601F8FE050204050505
,04FE05FBFD03F8FBFD0600FE05FE03FD02FB02FAFDFD03F904060805FEF805FB00FCF80106FC0202000705FC02FE0502FD05FF06F805FFFCFC0103FDFDFDFF05,FCFDFDFDF9F8FA0000060206FBFB0500050405F9050506F8F8FD040606FBFFF9FA000200FEFA05FD02FB0006FD06FD0504FAFF060104060407FEFF020004FA03,FEF9F9FB00000300FA06FEFAFD01FBFFFEFCFBFFFFFD01FFFBFD03FBF70304030300FF00FFFFFEFCFE04FE06FC0200FBFBFA020004FC04080502FA02FAFD00FD,04FB03FA0202FB05FCFCFC03F8FAFE040002F900FEF9F804FF04FBFE0004FE0301040603FF0102040205FAFFFEF80005F9FE020002FB06FAFE0505FC05FF04F9
,03FC0101FBF9FD0104FFFBFF06FF0307FBFA0404FDFA040203FAF9FE050001FCFDF9FD00F8FFF9010402070401FEFEFBFAFD05FC00FE0200FDFDFDFC0202F900,FD0004FEFF030503FC03FA01040204FF0306FB03FEFA01FEFD05FFFD03FCFEF90207FFFF04FE010607050504F90202FF08FE04FBFD04FD010007FE02FFFA06FC,040101F901FA00F9FAFEFDFE0703FB06060105010107FE06FE06040302FBFFFB0406FFFEF9FAFDFF050700FCFD02FEFD070101040104FF04FA01FCFA00040300,020605FBF90406FE0006FC00F9FB08FFFCFDF9FDFDFB07060403FFF8F801FBFDFD05FFFEFEFE010107FB05FBFE02FB00FBFAFDFB07FDFFFDFF04FF04FF050305
,04FBFD01FBFE0201040302FE050005FCF9F801FBFAFAF9FFFBFF0004060406FE0300010502FFFAFBF903000304FCFCF8FAF9FC040006FFFE02FAFF03FD0507FE,FA02FB07FD04FDF903FF0300FB01FF02FBFA00FFFEFCFDFCFCFCFDFDFB0301020503FA00FEF90104030504FAF8FAFA06FAF9FD06FEFB04F8FC01FCFD01FB03F9,FDFCFB07FC00FF05FFFBFDF9FC05000602FAFA0406FEFCFBFBFF05FBFDFCFDFC00060703FB03F8FB0002F8020003FD07F900FE07FA02FEFB03FD05020201F9FC,0204000401FB06FD06FBFE00FBFFFBFDF9040100F9FF0406FBFDFEFFFF0003F9FBFC06FFFFFB0504F9FC04040003FFFEFEFA00FB030400FAFBFC0602FFFC0605
,01FF05FD0302FAFCF806FFFEFBFA0605FC05FFFF02FAFE010600FCFBFA0300FAFEF90604FD020201FAFFFB00FD01FC00FAFEFDFB01FBFD0304FAFDFF0702FEFB,04FB06FFFC0405FDFAF90301FD0303FA02FEFF07FDFD06F8FC05FFFF04FD020604FAFD06FF05FF0705FB01FCFC0400FE05F90205020306FD040100FFFD04FAFB,0300FD05FE0004FFFB04000405F80202F9F905FBFD0600F90202FBFB00FC000102FE03FF07FCFDFF04FC060206FF02FEFE0200FD02FDFF03F8FFF90201FBFB03,00FBF90400FEFC0203FDFF05F901FF0401FE0404020506FDFAF9FB02FA0506F9FC05FFFCF9FEFF0600FE01FBFF0604FB050604FB00020606FBF9FAFD04FAFAF9
,FE05F9060603FAFEFEF9FA05030307F9FC03FAFAFDFBF903FE0404FFFF05010504FE0600FC00F90707FF03FAFA0104FC0604FC03FE0006FFF800FD040105FA00,FEF904F9FF06F803FBFF03FD02050304FE0300FAFDF905050302060002FCFAFB0600FFFD040205FFFFFCFB02FD0305FD01FF07FE03FAFAFBFCF9FF04FC050601,FB0107030102FFFF07FE04FF03FDFCF7FBFE0509050404F900F8010301FDFC0002FF05010204FF0009FC02FFFAFF0002FF010A04FDFC060201FA02FEFEFBF902,FBFD0100F901020307FEF803F8FFFC00FA0004000001FA03FB0100FAFF0500FA0204050000040401F9FD0305FEFBFAFBFDFF01FA000403FDF903050806FB0000
,FB0507F9F802060601F706FD000309FB0207FC01FCFB07F9FF02FEF8FF01010501040500FE04FC02030500FCFE0407FDFB060006FAFBFB0301FD06FC00F8FBFF,07FAFBFBFBFE040000FBFF05FC0205FA0103F9FA05FC00FCF9FBFF02FBFDFBFA03FEFBF9F90005050602FF03FB020103FE0203FAFDFAFBFE0507FCFEFC02F903,05FA040205FB05020300FB0500FC06FB0503FE06FE070102FBFF02F904FAFF0103FDFD0306FEFE030002FC02FC0600F9FF020001FEFF0200040002FC060104FE,FDFCFF050506FBFF06000203050400030206FDFF02FCFF02F9FE0401F801FD05FDFE06FEFC03F9FCFC060103FEF8FB00FBFC08FB0006030105FE06F9FF0506FF
,050603FBFA0101FF0102FF04FD02FC04FB060701FB01FD02FFFEFF04FBFEFCFA06FAFEFEFA01FEF905FD02FB01FD060108FA0203FB0007FFFBF9050001FEF907,06FEFBFDFCFFFF06F9FA0002FD0000FB0306FEFFFD01FD0701FF03030202FA01FF060704FF02FBF9F903FCFD01000201F6FDFBF9FF0200FBFFFDFDFCFDFEFAFF,FF0103060103F900FD06FA02FFFAFD04FFF8FD0104FBFDFAFBFCFAFDFBFDFCFDFD0102FD02FB0500FA060502F90002000402FB0000FA07FBFCFCFAFC02FBFE04,FB05FD0500F9FEFB01FA03060500040303FAFFFBFA0603F9FAF801020302FE01FAFFFBFAFAF9FD0605FF01FF02FFFEF8FFFBFE07F8030006FE01FAF9FCFDFD03
,FB05FCFF0303FF03FCFBF9FD0601FC02FAFBFD0501FD01F90504FDFB0404FFF8FCFC07FDF9FC000505F9FB0605FF0006FD02FC04FFFFFDFA01FBF802FE0106FD,FFFCFC0801FDFDFEFE01050705FFFFF8FD000306FDFAFAFEFEF9FB01FFF905FD0303050401FDF904FB00060600F904FAFAFBFFFCFCFAF9FFF904F9FB05020005,FEFE06FDFD0203FA0504FE020002FA0602FDFC03FA05F9FE02F804FFF8020807FB03FFFC02FD07FC06FF050306F8F9FCFB04FB0701FDFCFDF8FB02FDF8FD0008,FC01FA04FE0204FBF8FCFD0302FF020003FCFE01FF0502040203F901F90400FBF90003FAF9FCF806FEFF0001FE02FFFEFB040107FDFEFFFFFAFDFFFD04FC0603
,090402FEF801FD07FCFFFEFEF9FBFFFB010505FFFC01FCFE01FCFD0603FCFF05FCFF03010004F80703FEFF020606000404040602020305FE06FBFA04FB0005FD,F9FA05FE030603FB07040607FD0204FA0202FB010502FA04FAFF0106FDF802FA000304FD03FCFFFEFAF9FAF9FAFF040604FF0206FF0106FA03FC020206030708,06FFFE0208F8FB03FA030203FAFA0201FC03000406FAFD04FE020206FE05010507FE02FCFCFFF7F60305FCFEFE08F903FA06FDFFFAF900FBFEFA0400FEF90403,05FEFE0407FAF8FB0405FBFFFDFDFB0706FDFEFB04060504040401030002FDF900FF02F801FEFE01FBF803F905FEFBFAFE0005F9FB0702FE01050605FA0005FC
,030505F90302FD030703FE0202FF0004FB070201FA0207FD0106FE060001FC03FCF90104FD0502FD030305FA0303FEFFFFFAFFFF01FB0000FF03FAFAFC010502,02FDFDF90505F8FBFE0400FE03FE06FDFAFCFE03010505FAF9F9FDFFFD03FCF9FD00020103F906000705FB0600F9FEFD0700FB00F8FAFFFAFD08F9FAFF04FF01,FB02040402FDF9FBFE03FAFA0300FF0405F802040407FEFD01060101FBFD04F9FAFA04FE06010307FCFEFBF9FA0306FAFEFAFB0106FE00F803FDFE0400F8FD00,FDFFFAFBFC0206FF0301FE0006F8030503FE030603FB00FDFF0107FB07FE02FF02FFFDFDF80501F905FEFF0400FAFEFDF90003FF0302FBFF0303FFFE02FDFBFB
,06FAFD01FA02F80201FE020207FCFB06FB0501F8FE0407FC010105FD0004F9F90000000201FF0306FE07FCFAFE06FDFCFBF9FEFEFE0405FB0301030502060303,00FB040005FE06FC00F706FDFBF908050003FBF9FEFAFAFDFB05FE060302F904FFFBF901FEF900FDFCFA0405040606FCFE0106FBFAFD0404030106FDFFFEFDFD,FB01030505FCFFFBFCFF06F9F9FD00FBFD00FAF901FF0405FAFEFAFF0602040503F902FF02FCFD00FEF8FDFFFCFCFC0103040203F90401FFFF04FD040703FA05,00FAFDFBF9FFFA010004FDFEFA0205FD030506FF02FBFF00FBFB01FF05F902FCFB060103030302010603FFFAFBFEFDFE0004FE01F9FE06FCFDF90305050601FC
,05FD0004FB04FD03FAFBFF06F80300FC00FE030306FCFAFDFB01000005010606000105050501FEFF0306FDFCFBFDFB000201FAFF04FCFD00FFFDFE00FDFC0301,07FF0405FDFEFFFF00FD05FEFC0202FDFDFDFFFB020703FAFB02FD04FC0405F8FCFAFA03F9000501FBFFFF06FC03030301FE05FAFF0006FDFB060402FD0406FD,FD05F8FD03FD010401FFFD06FFFFFC07FDFFFEFC04FFFB06FDFAFFFAFE05FEFDFE05F9FAFCFA00FD06F803FE0400FC0201050204F80705FBFA04FFFCFC0502FB,FAFF02FFFEFF0503060503030503FE02FFF9FE03FEFCFDFAFFFC04FCFA06FEFB0602FDFEFDFE0004FDFB060106FDFB020505F906FE020401FEFDF802020104FF
,FB03FC0603FCF80206FD00FA02FE070003050100F9FF0003050404FC06FEF804FCFF0305FD04F8FCFBFAFF03FAFD04F900FCFEFEFDFCFBFBFEFBFAFA06070700,FE02FD0106FE0603FFFA04FAFEF905FCFF0300FD0107FC06030602FC030002FB0100050501FA0303FEF8FFFEFD0007FB0106FB0102FFFDFE0804FF01FB060600,00FF0502F9FAFBFF0303020603040301F8FDFCF80A050408FC0505FDFDFFFF0000F9FE0006FE0105FCFAFDF8FCF7F8F90506000101FD0306FCFC0604FCFBFB05,F90003FFFAF9FB0202FA01F9FCF90606FD08F9FF0000FAFFFD05FEF903FCFFF9FCFFFBFC01FEFA03FFFE0403FDFD03FE05FFFF02FF02FDFDFDFAFB03000502FF
,040201FEFCFEF9FCFA040507FBFFFA0100010001FBFEFE05070204FAFE00FAFE010301FC0306FEFD05FF020600F8FAF903FBFF03FBFF0006FA00FC03FD030506,0702F9000400FB01FCFCFA0604FC050303FCFCFA03FBFFFCFB02FBFBF80000030405FF06080204FDFC0001FC000503F9FDFAFE0502F800F906FEFA0400080101,030605FB03FE05000106FB06F901FBFDFAFF04FC02FDFF000404FF02010700FF02F9FB02010101F90405FCFFFFFB060206FB0201F8FC03FAFA05F906F9040400,FDFC040103FB020106FA02F9FBFE0406FBFE0204FF0606FF0105FD02FBFAFAFF07FB0502FB00FBF90205FAFDF9010307FEFBF900F9F905FB050106FEFE01FF01
,FF04FF030202F9FDFDF80403FDFE05FBFDFBFEFD050405FDFBFE05F90303FE03FF0301FDFA0204F8FA05F803FA05FC06FE0707FAFE01FB01FF0401FBFB00F900,0504FEFF0000FE02FFF7FD00FD06FAFFFAFFFF01020300F9FC05FEFEFBFDFCFB02000104FE04FC04FD04F8F90501F9FBFAF9F8FD060103FFF90003FF03060306,FB06FD06FA06050304FE0106FBFEFFFEFCFF03030500FE04FEFFF9FAFFFCFE03FCFBFF02F901FC00FCFAFC0101FC02FCFE02FC0301FA0702FEFDF90405F9FFFF,070001FEFDFB0501FFFF0007FEFEFE04FC030007040605FFFFFE07FC02FEFFFFFEFA07F9F9060007FCFC0304FA07FEFC0002080200FAF9FCFCFE0101FBFE00FA
,FFFCFD0005000103F90401FFFD05F9FFFD000102FD07FD0305FDFEFFF903FE01000605FBFBFDFD00FF03F906040300FE06FFFD02FE03FCFBFA040601FA050002,FF03FF03FBF901F9F9F907FFFF05FCFF0302FBFB0504FE0604FC0204FB0105FA0104060504000302FCFCFAFD0306FFFB01FEF901FDFA02FAFB04FCFCFBFD0605,0601FB0604FEFC05FC01FA000502FDFEFFFBFF02FEFD000002FFFCF9FCFCFFFE01FA07FD000404FFFFFC02FCFC0406FBFDFD0501FF01FAFA0703000206FDFEFF,0704F904FC0500FC05FBFCFD0002FF00FDFEFAFE03F90001F901FE06F8F8FAFBFE06FE0505FEFDFDFAFB0304FE0600FA04FA05FDFDFEFD01FD030502FE02F803
,02FBFBFFF8FFFAFA02FEFC0105F901060000FAFE04FD04040404FCF905030601F900FDFDFA01FAF90005010207FE000401FF0301FEFAFAFD05FB05FD01FF02FC,06FDFA00FC03FC04F8FC0005FBF8FEFBFEFFFB0400FA03FAFA0003FA02FEFFFA01FF0100FCF902FCFC05F90206FBFC020101FD0101FBFA0507FC0603FD04F9FA,FAFB00050706FBFFFC06030408060304030405FAFDFAFEFC03FF03FA01FDFBFE05FCFEFEF60309FC0300FF0504FCF905FB01FF03000701FE06FC03FF03FA05FE,F9FDF9FFFB0101FBFDF80404F80204010402FB02FF05F9F9F807FCFA030005FDFE04FFFAFBFBFE02FAF9F8F8000500FFF9FF04FE0605FDFA0304FDFBFF060206
,05FDFDFCFEF9FA0200FC040103FF0807FAFEFC0203FCFAFF02FE05FD00FB01F8FF0205F907FEFE03FC0105F901FBFFF902FF050103010202FDFD040405FEFC05,030000FB04F905FEFA04FD02FC03FE010101F8FCF9F900FDF906F900FFFAFDFFFFFD03040403FE030004FB0106FAFBFBFF07FE010507FD05FE03F80004FBFA05,FA0404FD030100F8FBFB02F9FBFBFE03000304F9FDFA04FA06FC0501FEFBFBFEFF07F90400FFFD07FB04FA03FC06FF000507F8FFFFFE0705FB02FC050201FAF9,00FC04FC050501F903FEFBFD01030403FCFFFEFB03FE0105020507FB05000601FAFF05FC0500FA06F9FEFC04FFFF00060600FC00FDFE01FC0403F800F8050106
,FA04FCFDF802FE020303FDFBFE040503FE03FC00040401FBFF04FEF9FD02070504F8FB040001FBFBFC00F9FAF9F9FDFB000608FB0404FEFC00FBFD07FD03FF05,F7FAF902FE0504FC010103FDF9F80403FA0306070202FAFCF8FF06FB03FEFE0603F90500F8FEFA0401F80205040300020401FEFCFBFCFEFC02F8060701FF06FA,0206FEFDF906F90102F903FB0100F801F9FE05FDFAFD02FF0105F8FB01050702F9FD05FD05FFFFF9FEFCFA060102FD05FFFFFF04FAFF0300FFFAFBFE01FBF8FC,F9FCFBFEFCFBFC06020105FC06FEFEFBF8F8FA02FBFE0404000204FCF803FF0403F9FBFDFEFC04FDFC00FD00F8F804FF06FD0300FBF8FEF906F8FBFA0600F9FD
,030505FEFE03FFFFFF00F900FF02FA05F803060302F9000505FCFBFD02FDFF05FAFFFF0705F901FF01000300FA05FCFCFA03000204FAF9FF030000FDFEFEFBFB,03FBF9FBFAFC05FC00FDFF0001FEFC0303FAFCFE0104FC010502FB04F8F9FA05FEFD0302FF05FDFE060501FF00FF0304FE07000307F9F801FDFAFB03FEFC0701,FFF800000002FD0303FA01FA04FBFD0500F802FEF600F800FCFFFDFD02FB020303FA0301FEFAFDFA02020404FAF9FCFC0504FB03FE060604FBF90102FBFFF805,06FC0705000401FBFBFBFA07FC0002FCFFFA010203FEFE00FC040302060001FEFE0306FF0502F90300FEF804030404FF03FF07FCF9050306FDFF060600050500
,06FF04FC03FF0102F8F902FB00FAFC03F904FCFEFDF90000FB04FDFE00F900FFFEFFF9FE05FEFAFF02FDF8F903FCFC06FCFF06FBFFFF05FD0002FEF9FF030301,FF040503010604FFFF01FDFB0403FCFC06FFFF01FC0302FF04FEF9F80102FD04FB05070005FF030005FEFD03FA0601FA02FB07FCFC010400FA06FF01FC00FCFC,00FAF9FF07FA080000080204FEFA01F90604FDF9F902FFFDFDFCFFFFFDF9FA06FAFD04FF03F90503FBFAFDFE0301FBF900FFFF050705F7050106FCFBFD020101,0303FB0706F9FF00FAFA0100FF030602FAFB01FE05FDFCFB00FB020402FF0103FC0303F8FAFDFF0306FDF8FA0004F904FF0506F805FD040601FF020207F90405
,FDFA05FAF9FA03FDFEF8FB0305FB04040209FA05FCFF04FDFC0208F9F9FEFFFE04FC07FFFDFBFA03000203FD020407FFFA0602FA03010204FFFA03FBF8010201,0502FC050205F9F903F8F8FC03FA000305FB04FE05000204FD04FFFA0103FC04FCFB000105030200FAF8FAFA0004FCFAFF05010506FFFDFEF903FE0101F904FC,01FFFBFBF70005FEFDFDFC01FBFBFDFA02F90400FC04FAFB06FAFC0502FFFC02F9FB05FDFBFEFDFBFA0406FA02FAFDF9FAFEF902050501FFFB06F901FA0402FC,FDFFFE03FE05010205FD0603FEFE0406FFFBFAFDFA05FCFA06FA000305FFFBFFFD01020600F8060605000601F903FB0205FDFDFD0305050506FEFEFA0302F9FF
,FD0507FDFDF9050200FC00FD040600FA0201030105FBF9FF02FEF805FE020706FC0000FDFD04FF020205FB05040605FB0006FFFCFEFD0401030601FF0206FD00,FA0401FB00FEFC03FBFC02FDFE01FF06060300040202FE0506FC02FAF9FBFC06FF02050501FEF7F702FBFEFB040303FDF8F907FD0803060407FAFDFF01030102,FBFB0602FD02F903FDFC0106FF04030303FD01FF05FDFDFEFBFDFF000603FD03FB000502FDFDFF02F9030604FC02FAFE04FBFD04F80306F9FC03FFF9FD01FC00,FA06FDFB05F9FEFBF8FFFC06FCFC06FEFB020601000000F806FA04FAFA04FA020205FD0103FD01FBFB020103FE05FA0402F9FF04FA0503FB06F8FB0301FEFAFE
,05FE0106FEFAFAFEFBFB03FBFDFCFCFCF9FA0605000200FA01FA050101F802F9F8FAFAFE00FA05FF0100FD030404F9FF010304FB0700040303FDFAFD07FAFFFA,0204010200FD0204000304FDFE0100FD010103060201F9060500FA040603FE03FAFEFAF901020101FC02FBFAF9FC03040105FBFF05F9020505FF060301FDF9FB,060503FF05FC05FCFD060106060302FFFAF70304F9FCFA0406060501FCFBFD01FFFFFC0206FEFAFFFDFBF9FFF90003FE0305FE05030406030505FE030600FCFE,FB000703F9F9FAF9F9FD0205FCFC0301F9FA05FBFB000503FD04FCF90202FCFD0300FA000006FE03FF04FB04FFFD040006FCFAFA03FA04FE04F9FFFF01000105
,0607FB06F805FFFAFDFA0500FF0703FBFBFFFE05FDFDFF050102FF05F9FD01FBFD00FFFFF905FA0603F9FA04FAFDFA04FCFB00F9F904FB020201FAFBFDFB0600,F9FDFD00FD04F80005FE01070104FAFBFBFDFC050205020105FC00FA0202FA05FB00000502FEFB0003FC0404F8FB03FF0605FE01FE0502FEFB0103FC05FBFFFE,03FAF8F6F902FEFE04FE010401F907FBF6FF050204FB060806FD09FA040102FC07030302090403FCFB0103010606FE02FE0401FDFF00F907FF05FBFA04F706FC,00F9FAFB0100FDFEFCF7FDFE0303FC07030705FA060200FD01FBFAFFF9F9FBFDFC03FE00FA02FE04F9FAF800F902020104FC06F9FA04FC020600FDFEFD0203FE
,03FF07050105FDFBFC010505FD01FCFDFA06FCFEFEF9FEFF0705010002F802FDF9FEFBFF0603000205060006060601FAFA06050406FD02FDFC0204F9FE03FCFD,02FD060805FA01FC04FB04FC0605FF04000402040304FEFE00FAFCF800FD02010000FB07FF05FF01030504FB03FEFAF9020407FCFD02FF06FCF9F9FB0005FE01,0407020303FA06FBFC03FCFA03FC05FE05F9FDFE03FDFFFDFEFDFF00FB0306060600FFFF01FEFB0405060002FAFF01FE010304FB03FA08F9FFFC03FFFEFCFC07,06FBFD06FE02F9F8FAFB070001F9FBFBF901FC05FE00FE020306F9FDFD02FDFA02020503FA0604FE03FB03FC01F9FC02FD0400F9060603FA06FBFEFD03FC0003
,FD030305F90502FDFB06FFFAFC01070503FF0204FCFDFCFAFA030104FB02020106040005FD0302FAF9FAFE0200F9FD03FEFB0602000005FAFD06FDFEFA040600,F8FD0400FBFBF902FA0006FDFF0109FF07080203010506FDFAFA05040501FEFEFAF904FBFFFDFFF8FC0603FFFFFF01020303FEF60203FBFF030503FEFFFD05FB,FE02FFFC050300F9FC040203FB00FB0702FD030403FDF90402FC06F700FBF9FD05FC09FE06FFFB04FF03FE050004FD04F8FEFBFAFF02FBF906FFFE000600FEFE,02FFFFFBFA000600FCF9FEFEF9050405FB02050201070103F8FFFE03FAFD02FDFB00FDFC030006000300F903FDFA02FF07FEFCFCFFFC02FEF8F9FF01FD03F9FB
,020001FCFBF804FFFBFBFFFA010100F9040404FF01050106FDF90304FD04FA05FF0100FB0401FA05FE000400FBFBFBF801FC07FBFBFAFD05FB02FBFE05FCF9FC,01050406FC0304FEF9FB0401FAFAFA0304FEF907FA0204040602F9FBFEF8FEFCFC0306FDF9FA040002FC000306FEF9FF020103FC080000FE0302FD0406FAFD06,FB05FFFDFAF8F9FB0405FD0600FE06FBFFFBFCFCFFFCFFFBFBFC06F803FFFD0200FFF80400F802FBFC0104FC01FB02F8FCFA01FEFB0000000205FBFFFDFFFF07,F9020501FB00FCF9FAFFF8FE06030800FCF9FB02FD00020201060504FFF9FDFB03FF02FFFB05020203FB02FC05030404F903FF01FDFBFBFCF9020007FAFCFE01
,F90506FDFBFEFBF9FFFD020700FDFD0606FD0207060702FCFC0203050604F9010305FF06FCF900060206FAFC0103FD0307FDFFFF0002FD01FE03030303FC0303,FD03FC04FE0006FA00FAFFF9FDFBFFFF000201FB00FB04FAFEFAF9F9FE04FDFDF90205FB0006FD05050303060400FCFBF900FBF800FDFB03FD00FA02F9000704,F904FE02FF0000FBFA04F404050101FBF700FBF80502000702FF00F9020404FD08FAFE05F90109FAFE00FEF90301020006FE050405FBFA00FF03050205FD0406,000501FE0602F80001FE030206FD03FAFE07FA0502FE0305FF02FCFCF9F8020502F9FF0407FD05FA0005FF06F9FCFF03F9FC02000202F90404F8040403FB0405
,FCFFFAF8FD06FAFB07FE06020300FB06F9070605FDF900FE01060507FBFAFA0107FF07FEFCFC0405FAFD060401060604FB03FEFC0401F9FFFC04FD06F901FCFB,F803FD000200030404FD00FDF9F9020203FD00FE01FD0303FBFAFAFBFCFAFE00FDFAFCF901FD0501FB05020603FFFF03FD0504FE02060700FE00FB020405FC00,030203FFFA04FE060601FE0101070603FAF903FAF8FFFAFD040306FD0204050405FFFCFC0005FFFD0204FF01020303FB0005FAF9FA07FCFD01050102FC040202,06FA0201FAFAFB0703050101FDFB01FC04060301040300FBF9FE02030401F9FE03000105FCFAFA0503FAFAF9FDFB01FBFC0001000001030103FFFBFF0403FF01
,040103FAFFF902FCFAFF02FCFEF8FB05FBFCFEFBFFFD030201F9F9020305FB01FF050200FDFD0105F8FE050606000400FDF904F8FDFE05FE03FCFC04FF01FB02,0005FD01FE030204FAF7FFFC0000FFFFFC05FF00FCFD00FA04FCFAF9FBF802F805FB00FAFC02F8FA000204FC0702FC01F906FD000500FDFDFDFB0404FA060101,020504FA06FAFCFDFAF7FBFEFAFEFDFBF900FD0505FDFC0106FB01F8FF01FD0106040005FFFEFE01FD03FC0602FB0400FDFD07FBFC04FE0502FF01FBFFFE01FC,06FA060304FCFCFE0206FCFF0407FB05FFFAFE02F80003FB0206FB02020104FDF9F9FFF904FFFD02FAFD02FBFEFA05FD00FEFF0202FFFDFAFEFBFBFE00070105
,FC040303FE0106FB04FCFF05FE0000FB0405FB0205FB070304020401FC0003FF00FD00FEFA03FB01FAFC0403FC05FE06FBFBFD01F9FA0504FDFBFE04FB01FF05,FAFB010103FB02FF0603FDF9F9FA09FA00FD03FFFB07FAFEFD0206F8FCFA03F901FC05F9FC020406FF04F8FE0103FE06FFFD02FF020000FC030006050401FC06,000205F901060606FC040503FAFEFE020306FAFBFDFD040204FB05010202000104FAFC0503FAFE000605F80301FAF90401FA010106FD03FBFDFA02F8FE080500,FEFAFA04FD0403FCFBFD000205FC0301FAFF0307FA000606FEFB0205FEF904FAFB01FC01010006020000FB02FD0107F8040103FDFBFE0400FEF9FDFE06FCF9FA;