; Layer 2: conv2d_1 weights (Q1.6 format)
; Original shape: (3, 3, 8, 16)
; Total elements: 1152
; Quantization: 6 fractional bits
; Range: [-2.0, 1.984375]
; Memory organization: 3x3x8 addresses × 128 bits (packed)
; Each address contains all 16 filter weights for one (kernel_pos, channel) combination
;
memory_initialization_radix=16; Hexadecimal format
memory_initialization_vector=0309FDFDFEF9FEFD04020707FC0603F8,00070004FD02F8FE0007F9F7FCFA0BFF,FEF70507F502FFF607FE06F608F7F908,090A05F6FAFB0901F704FD0507FFFAF8
,010200F6FC02FDFE04FCF7F4F9FAFC01,F807F6000109FFF9F706010006FBF600,00F603FE0604FF00F908F9FBFD0A01F7,FF01FAF8FFF9FD09FEF502F6F90400F5
,FFFB0201FDFCF60306FD03F807F402FC,09FCFBF90301FF04F9FB09F5F8F8F6F7,F9F9FBF9FE070AFF0405FFF9F704FFF8,F9090604FA0406000007FEF9FCFD06FC
,F8FFF7000004F90300FFFDF6F9F806FD,F900F806F50701040AFA0306FEFE0401,F901FF04FB08FF070401FD0801FCFD06,03F9FBFBFEFFFE08FEFDF9060AFB06F9
,0A010209FCFCF902F9FEF900F600FB05,F7FD06F5FA05FBFA03F8F9F6FD0407FC,FDFDFDFC02FEFDFDFFFCFAFB030306FE,FD09F5FE09FF030300000005FA0B07F5
,F8FE0203FAF908F7F7FA0909FA08FB07,0804FA03040504FB06FA0503FAF801FD,FBFA040101F7FCFD05FFFDFAF6F407FF,02FA02F7090907F70106F80100F90409
,FBFCF7050A030601F7FBFF07F803FE04,0C01F9FCFE05000BF5FAFDFB090800F5,FE010700F60004FF07FA08FEFA050207,08F70508F6FDFAF803FF03F906F506F9
,0B04FBF5F506F60A07FEF7F9F8F50705,FB020305F5F806010301FEFCFAF4F906,02FDFBF401FDFE030405FCFEFEFD00F9,00F5F4050505F6FBFF07040901FE0605
,FEFDFB07F8FB0505FD03FF07FEFD01F9,0A0AFB0702F502090806030800F80007,F6070502FBF401FBF9FC0704FC0805FA,05FCF9F9FC04FCFD000704F90707FA02
,0802F6FBFF07F8FE08FDF6F706F90102,F8F8FC050BFB01080003060205FE0402,FA02F80505060206080506FD01FF08FE,FE0800F50BFA04F8FF0605FD07FE0300
,F7F701FDFD04FF07020207F9FFFAF801,01F80607FEFFFA040005FF0307010705,FE070A09FD01FB00F4FD03FA0008F407,FE04FEFDFF03F7FEFDFAF7FEFBFF0604
,FBF605060708FC05FB04FC0401FC0601,09FF0909F802FC060103000500050400,F6FD03FE04F8F806FA06FFF7F908F907,09FA05010A06F903FC0400FC0704FEF9
,FE0700FC06F904F505040003FA0303FC,FAFE00FFFEF80504F70003FBF9FB0701,04F503FDFC08FE00F901F808F80A0707,080602FEFD010703FE09F7F5FC0607F5
,08FCFEF7F90403010303FD0304F80905,FAF5F908F806010109FAFE080205F902,030501060F01020A0905FA0501FC0AF6,F609F80305FE07FAFFFDFCF707FFFA04
,01FE05F7F407F902F60401FD09FDF9F7,0BFF04F600F809FDFB06FDFA090301FD,F8F6F7FDFAF804FA07FD0502F3FA05F8,F703FBFF01FF00FD04F6FFF909F502FD
,01F809FB05FC05FD05040001FCFDF607,F7F809F90CF8FC04050803FB00F9FD08,050802F500FF06FA04F503FB00F8F8F3,00FCFA05FAFCF6F7FC03F601010702FB
,F705F40A07010507F7050905FD06FAFA,02040509F7F7F905F808F505FAF6FBFE,04F8080502020AF4FAF9FEFAFAFD07FD,FB0603FEFBFFFF0407FE0808000A02F6
,07FCFAF8FC0AF9080705FE0704090204,FAFA09FA00F90101FC0907FBFF03FFFE,FFF8040402FFFC050806000D0A0501FC,02030307F709F80505FA010506FCF6F6;