; Layer 5: dense biases (Q1.6 format)
; Shape: (64,)
; Total elements: 64
; Quantization: 6 fractional bits
; Range: [-2.0, 1.984375]
;
memory_initialization_radix=16; Hexadecimal format
memory_initialization_vector=06,03,03,00,FF,02,FE,03,00,FF,04,FE,00,FD,04,06
,02,FB,FF,00,01,03,01,FF,00,02,FF,02,FD,FC,03,02
,FF,FD,04,03,01,FA,FE,FD,00,02,FE,FD,00,04,FD,06
,05,FB,03,FD,02,FF,FF,FE,04,03,FF,FE,02,FF,FF,FF;